0000001100001010
1111101110000110
1111100010100001
1111110001100100
1111111001100100
1111011101100010
0000011100010100
0000011111101001
0000000000101100
1111100100001101
1111011011001001
1111110110001010
0000001111110010
1111100101000110
1111101110100011
0000010000110011
0000010010101011
1111110000110100
1111101101011100
0000111010000101
0000100111101110
1111100111111010
1111100111110101
0000001001101110
0000011011111101
0000001000100010
0000011100001111
0000000011111100
0000010101111101
0000010111010000
0000111000100110
0000100001001010
0000000000000011
0000010111000001
0000001110001110
1111111010111011
0000110010001000
0000011111101010
0001000011111110
1111111111011001
0000100100111011
0000011111001110
1111101101101100
0000110100010101
0000111000110100
1111111010000010
1111000101110110
1111000111000001
0000001100000111
0000010101101001
1110111101011110
0000001011010010
1111101111110100
1110011100000011
1110000101000100
0000100000100000
1111111001110110
1111100000001010
1111100111111111
1111011111111111
1111001101110100
1111001010100010
1111001000100101
0000100010000000
