1111111000110110
1111111000001101
1111100001010101
1111110100010111
0000000101010001
0000011110000111
1111010010100110
1111001100100110
1111111100001111
0000000101010011
1111110011011110
1111101011110010
1111101100001000
0000000101100001
1111111111010110
1111101101000011
0000001100010000
0000000001101110
1111011111101001
0000011111000101
0000100101111010
1111001110100101
0000001011111011
1111101010110000
0000001001000110
1111011001110110
1111011000010000
0000000011100001
0000010101010001
1111011111000110
1110010010101100
0000000111010011
1111110001101011
1111100110001111
1111110010110100
0000010110011010
0000010111000001
1111011101100011
1110101001100100
1111111010010000
1111010010011000
1111011110101011
0000010011111100
0000010011100001
0000001001010001
1111110011101001
1111100110101000
0000010110101110
0000001111100000
1111111100011011
0000000100010001
0000000000001001
0000110100011011
0001000111100111
0000110001000001
0000001101001000
0000000100001110
0000001001000001
1111010111110110
0000000001101111
0000101001100010
0001000110110110
0000101100010010
0000110010100110
