1111111111100111
1111100110000011
1111111001011100
1111110100001101
0000000011000101
0000001101110110
1111000001001110
1111011110100000
1111110111100001
0000000000001000
0000001000011010
1111100110100111
0000001100110101
0000100000000011
0000010010010011
1111100011001001
0000011111000101
0000011011100000
1111111010010101
0000000001010110
0001010000100001
0000101011000101
0000101011001111
1111101111100101
1111111100001001
1111011111100011
1111011011001101
0000010111010011
0000100100111101
1111111011110001
1110101111001011
1111111111010111
0000000001101010
1110111010111010
1110111011010110
0000010101011100
1111110110100000
1111010011010111
1110000011001111
0000000110001100
1111110001011110
1111010111011000
1111110101000110
1111111011000101
1111101001111100
1111001001111111
1110100110000111
1111001110011001
0000000110100001
0000000110100111
0000100000011011
1111111100111010
0000100010100101
0000111000010100
0000000011101000
0000010000101010
1111111100110011
1111111010011100
1111011000101100
0000001011010010
0000100010000100
0000111100110110
0000100100000111
0001010000001110
