0000001100100011
0000000101010010
1111111110101111
1111111100000111
0000001001111011
0000001100011111
0000001001010000
1111100110011111
1111100010001001
1111101110001100
0000000010011111
0000001010010111
0000000011100110
1111111010100110
0000001001110101
1111100110011111
1111111001000100
0000001100011001
0000001101101000
1111111001000011
0000010001000101
0000001111010010
1111110011001000
1111100100000011
0000000101110110
1111111010000000
0000011010010110
0000010101110001
0000010100110100
0000010101100101
1111111101101110
1111011001000100
0000000101101010
1110100110101000
1111110110000110
1111110001010111
1111100110111101
1111111101001001
0000000010100011
1111111010011000
1111100010100011
1111010101101110
1101111100101001
1110000010010111
1111000011001011
1111111100101001
0000111001100100
1111010110100010
1111111000000100
0000001001101111
1111110101011000
1111011010101100
1111110100110101
0000000001101101
0000001110101100
0000000010011111
0000010101110100
0000001101100111
0000010011000100
0000000010100001
0000001000101100
0000000100110000
1111110000110001
1111010011100110
