1111111100001001
0000000101110110
0000101110010011
0000000111011000
0000001111110011
0000110001010100
0000111000100101
0000010010111101
0000010000011101
0000000100010100
0000101000011100
1111111101001110
0000001100010001
0000010100000001
0000000011110011
0000011100010101
1111111011000011
0000011110101100
0000000001110001
1111010011101101
1111011101000010
1111100100010010
1111110010011000
1111110010010000
1111101001111111
1111110011001110
1111111100000110
0000100001000000
0000000110011110
0000001000000111
1111110010000111
1111100111010000
0000000101000110
1111011011100001
1111111101011100
0000011101100110
0000011101001101
1111111011111010
0000001100010111
0000000001000111
1111101100110000
1111110101001100
1111111001011101
1111110011110000
0000010011101100
0000100001110110
1111011001111010
1111011001000010
1111110100011001
1111101111101011
1111111110110011
1111110000101100
1110101111101100
1110111101110001
1110111111010100
1111010011100010
1111100111000010
0000001111100000
0000011001100100
0000010011110011
1110110010101101
1110101111100100
1110101100101100
1110011100101001
