1111111011111111
0000111101100000
0001111010100110
0000100101001001
0000001001100011
0001011010110000
0000101101010011
1111110000100011
0000001100100010
0001101010011001
0001001000000101
0000001110100100
0000101010001110
0001011010010100
0000100100111011
1111110100010101
0000010001111111
0001000100010110
1111111101111011
1111010010101011
0000101110101011
0001001011011110
1111111011011100
1111011010111100
1111110010111110
1111100101110001
1111100110100110
0000001000011011
0000100100010001
0000001001010000
1111101000110000
1111010101100010
1111111000111000
1111000011000100
1111001100000101
1111110000010001
1111101001101111
1111011111011111
1111011001111100
0000000111101100
1111111001011010
1111011100111110
1111010000000110
1111100010010000
1111001101000001
1111101111001110
1111000111111000
1111001011101110
1111110111110101
1111101001000111
0000011111110100
0000000011101110
1111111001100101
0000001100010110
1111100110000111
0000100001111000
0000000001001011
0000110100010010
0001100001101101
0000100001001000
0000000001101011
1111101100000110
1111111100001010
0000010001001000
