1111110001001010
1111111111100001
0000001100000110
1111110100100000
0000000010100011
0000101110100000
1111111010111111
1111001100010001
1111101100110100
0000010010010100
1111101100011110
0000001011001010
1111100000110110
1111110000100011
0000011100110101
1111101000111011
1111111110101011
1111111101011110
0000001001101101
0000000101111011
0000010011001001
1111000011101011
1111011111001110
1111111001111100
1111110001011110
0000000110100110
1111111111001011
0000011011010001
0000011100000010
1111100100110001
1110010110101000
0000000010110010
0000001000000001
1111100000111011
1111111010100101
0000010100100010
0000001111001110
1111101100111100
1110110100001000
0000000110000101
1111011110011010
1111000110001110
1111100111100011
1111110100010001
1111110100010111
1111110111001101
1111111111001001
0000011011000111
0000011000111011
1111110000000101
1111110101011110
0000000100101100
0000100100101110
0000111001010111
0000110100110101
0000100100001011
0000001100101101
0000100111001110
1111111101011010
0000000111111001
0000011001010111
0001001000111101
0001010101001111
0000111101110100
