0000000000000001
1111001010010100
1111101011100011
1111110100001001
1111101110011101
1111011001001001
1111010111110111
0000010101011110
0000000111010111
1111101010011010
0000000010111011
1111100111000111
1111110111100100
0000000110001010
1111101010101011
1111111100111011
0000000111010110
0000010111001011
0000100010100111
0000110010110100
1111101011111111
0001001001010001
0000110001100011
0000010010011100
0000011001111111
0000011110000001
0001000011000101
0000101100010101
1111111110011100
0000100100000011
0001100011000110
0000010100100110
0000001000100000
0000000010101000
0000001101011110
1111111101000100
1111110000101110
0000000000110011
0000100110111111
1111110111111000
0000010011111011
0000001000101101
0000110101000001
0000101001100000
0000000110001011
1111110010110001
1111110100011000
1111111001100110
1111110001011111
0000000111110100
0000000100010110
1111110011111011
1111001101011101
1111100010110111
1111100111000100
0000010100101101
1111100110000111
1110111011011100
1111100110000001
1111101000011010
0000000100010010
1111110000110101
1111011100111110
0000010000101000
