1111111100000110
1110100111110011
1111110111010110
0000010111100110
1111110000011101
1111100010110000
1111100100100001
0000011011001111
0000010100110001
1111111110000001
0000010000001110
1111111001110001
1111111111111001
0001000010101101
0000010101100010
0000010100010000
0000100010110000
0000001001000110
1111110000111001
1111101110101111
0000110000111101
0001100100101011
0001010011101110
1111110111111100
0000100000000101
1111010111111010
1111110011101000
0000011100100110
0000100001101010
0000110001010010
0000001101110010
1111011000001111
1111111110110011
1110011101111111
1111110100111010
0000010001111111
1111110100001100
1111011101110010
1111000111101011
1111111001011001
1111111110001001
1111110001000011
0000010001101001
0000000011100000
1111111000101011
1111111011001001
1111101100011110
1111000110011001
1111100101101010
0000000111111110
0000000001010111
1111101001111000
1111001011100111
1111100111101111
1111101101110011
0000101011001010
1111101100000010
1110110111000101
1111100101000100
0000000011101110
1111111001000110
1111111000011011
1111110110000100
0000011001000111
