0000000110010111
1111101111011100
1111001111010100
0000010000101110
1111110000011111
1111110111001000
1111101000010100
1111011101001111
1111100111101111
1111010001001111
1111011110011011
1111110010010111
0000011100100001
0000100110111110
1111111000111111
1111110001111110
0000000110011010
1111110011000000
1111100100110011
0000100101000110
0000110101110111
0001000111111000
0000010001010100
1111100000110111
0000000100100000
1111100111010001
0000000110001101
0000011000110101
1111110010011010
0000001011111111
1111111001100000
1111010110000100
0000000100111100
1111001001011100
1111101011100011
1111111110111111
1111011110101110
1111101111101001
1111100111000110
1111110010101111
1111010001001110
1110111111111001
1111101011111111
1111000011000000
1111110110110001
1111101000010001
0000010011110011
1111110111100110
1111100001010100
1111010110010010
1111100101000100
1111101101011000
0000011010100101
0000010011011110
0000011111100011
0000110111000110
1111110101100101
1111001111001001
1111011000000101
0000000111000101
0000101010110011
0000101111011111
0000010110101110
0000100010010011
