0000001101110000
0000000011011110
1111100100101001
1111110111011100
1111110100001110
0000000101101001
1111110010011110
1111101010010110
1111100000010011
0000000001100110
1111111000000010
1111100110011110
0000000010001110
0000001000110001
0000011001011011
1111110110011001
0000000100110010
1111101001011101
1111010100110110
0000000001101111
0001001111000101
0000100000111011
0000100011100110
0000000110101101
0000001101110111
1111010001101010
1111000011111100
1111111100110110
0000011111001001
0000001110110110
1111100001001000
1111111001001011
0000001010110110
1110011010000010
1111000011111100
0000000101011110
0000000011011100
1111100101110100
1111000101000000
0000000000001000
1111100011101011
1111001101111000
1111000011011100
1111101101100011
1111101010011000
1111011101100101
0000000110110010
1111011100010011
0000000010101100
1111110001000101
1111101001011100
1111110101101011
0000100000010110
0000110111010110
0000111111011010
0000101110010011
0000010001011101
0000000101011001
1111101101001001
1111110100111110
0000101000101010
0001000000111010
0000111010001101
0001010000101100
