0000000010110011
0000100101110010
0000001111000111
1111101101111100
1111110110000001
0000101110001110
0000011111100011
1111001001000110
0000000000110010
0000000010011100
0000000000110100
1111111100101001
1111011100111000
1111101011001100
0000000101001100
1111100111100010
1111101001100001
1111100111111110
1111111001101110
0000001001101110
1111110101101111
1110111110100100
1111001010100111
1111111101111000
1111100000000100
1111101101100111
1111111011011000
0000100111010110
0000011100001011
1111010101100000
1110001011001110
1111111011110110
1111110001000000
1111101100111110
0000000100011110
0000010111010100
0000010110101101
1111111100110111
1111000101101010
1111110010101111
1111100010011111
1111001010000110
1111101000000110
1111100000110110
1111110001111000
0000000000001001
0000000001111011
0000011000100001
0000001110101000
1111100100010111
1111111011110111
0000001001010000
0000110000100010
0000011111111000
0000111111011011
0000100011110111
0000000001111101
0000101101000001
0000011001110100
0000010010111010
0000011111101001
0000101000101010
0001001001010001
0000100010001110
