0000001010101010
1111000101101011
1111100000101011
1111100111000101
1111100001100101
1111110100110111
1110100101000011
1111010000010111
0000001111001100
1111101001001010
0000001101001011
1111111101111100
1111001001111100
0000000100000001
0000000110110101
1111000100001110
1111111110001101
0000001011001000
0000110011110111
1111110110000100
1111010011001000
0000010110111110
0000011101100100
1111111001111111
1111100100101111
1111011000100011
1111110010001100
0000011011011110
1111101111000111
1111110011110000
1110110100000011
0000000010010110
0000000100001111
1111010101011101
1111110011101100
0000101011101100
0000000001101000
1111000101110010
1110001011001000
1111111010110011
1111011000101101
1111001011000110
0001001000001101
0000100111110010
1111111010101010
1111100111101110
1111010100100001
0000100111111100
0000000000111111
1111101100111101
0000111010001110
0000010101000010
1111110000011110
0000110110100011
0000100000110100
0000011001001010
0000001101101001
1111010011101110
1111100011011110
1111111111100001
0000011001110010
0000111101101111
0000110011000010
0000111010010000
