1111111010001111
0000011001111111
0000011010111110
0000001111010101
0000100100000110
0000001001011110
1111101101110111
1111010000101110
0000010011111111
0000110101011111
0001000011111000
1111111011110010
1111101111100100
0000100001111000
0000010011001101
1111001110101000
1111100011011010
0000001100100000
0000010011010011
1110101110001011
1110110111101010
0000001010100101
1111100100101001
1111100001101010
1111100110001111
1111111010101000
1111110001111111
1111111100100100
1111100100101010
1111011110000111
1110111111010111
1111101010011101
0000001100000010
1111101010010010
1111111011110100
1111110101110001
1111100011111101
1111011000011001
1111100000010110
0000000100100100
1111011100001001
1111101101100001
0000100011111010
1111001101011110
1111000001000011
0000011010001011
0001100010110110
0000111000011111
0000000000110001
0000000011001000
0000111011010001
1111110101101100
0000001110001001
0001000000110010
0000101101011010
1111000100101011
0000001110110001
0000110000011110
0000100101000111
0000111001111110
0000011011110111
0000001100110110
1111011001111001
1110101100010011
