0000001000001101
0000001010110001
1111110100110111
0000001111111111
1111111001011100
1110100111001010
1110111111011101
0000000101010110
1111101011100000
0000010110101010
1111100101100011
1111101010110101
0000011110110101
1111101110111010
1111000111001110
1111110110011000
1111111010110100
1111110000001111
1111110101100011
0000100011101100
0000110001010010
0000101101010111
0000101100100001
0000100100011011
0000001111111100
0000100001100011
1111111000110101
1111001010000011
1111100001111011
0000100010011010
0001011101001111
0000011110111001
0000000100100000
0000101101000111
1111110010111011
1111011011000101
1111110100011000
0000010100001100
0000110110101111
1111111100010110
0000101001110100
0000011010001101
1111111011000110
0000101010100111
0000000011011001
1111010110001111
1111111011001110
0000011001001111
0000010110011000
0000010010001010
1111100111010100
0000011111000111
0000100000000011
0000000011110001
0000000110011010
0001001100101100
1111111001100010
1111111001001001
0000000011010111
1111101001000001
0000010000010100
0000011000000000
0000110101001010
0001011011101111
