1111111001011001
0000110000001010
0000010110001101
1111110001000101
0000000010011101
0000110011100101
0000111010011100
1111011101100101
1111111000000011
1111111111011011
1111111011010111
0000000111010000
1111100111011111
1111000011011110
1111110100111100
1111110101100000
1111011001111110
1111111011111111
0000001110110100
0000001000110111
1110000011111100
1101010101000010
1101111001101100
1111101000100010
1111101010110010
0000100010000011
0000010101101101
0000000000100100
1111110011100011
1111001110100000
1110100101100010
0000011110010001
0000000001100100
0000100101000110
0000001101100101
1111100110000100
0000001011111001
0000010101100000
0000011100100101
1111110011110101
1111110011100011
1111001001101011
1111111001010011
1111110110001000
0000001000000001
0000010000010101
0000110000000111
0000110010000011
0000000011101101
1111111000000101
1111111001010101
0000011010110000
0000011110111111
0000001011100000
0000010100110001
1111011110101001
0000100001010101
0001001101000000
0000101001010101
0000001001110001
1111110110100010
1111110000011010
1111111011111110
1111000010100000
