1111110110011010
0001010001000101
0000100001100110
1111110001100000
0000011101111101
0000010101101101
0000100101000111
1111001100100111
1111101111011010
0000001101001000
0000001010011000
0000001100111110
0000011001100011
1111100100101111
1111101111010010
1111100011000010
1111010111000011
1111111111101010
0000001000010111
1111110101010111
1110111010100101
1110100001100010
1110110011111111
0000000111101001
1111100111001001
0000110001100001
1111110010101101
1110111010011011
1111010011011111
1111010000000011
1111110101000101
0000010001000101
1111111001101101
0001011110001110
0000001001010000
1111000111001001
1111101110100110
0000001111001101
0000101101111111
0000001011010100
0000010000000100
0000101110010111
0000000101110000
0000010010101111
1111101111001111
1111111101110100
0000001111010011
0001000011001101
0000001011100101
0000011110010111
0000001011010101
0000101110100110
0001001100101001
0000010010011001
1111111011010111
1111100010110001
0000010111011101
0001010010011110
0000101000011111
1111111011010100
0000001110111001
0000000000110000
0000101000001100
1111111000010000
