0000001000111011
0000011100010110
0000010000101010
0000011001000100
0000011100110001
1111111010100010
0000010011011100
1111100100011001
0000001010011001
1111110101111001
0000100000110100
0000010101010001
1111111000101010
1111110001010011
0000000001111011
1111101011101111
1111011011001001
0000000010000000
0000010000110101
1111011101110000
1111101100000011
0000001100100001
1111111111001100
1111110111101101
1111100110010011
0000001101011111
0000011111110000
0000010101110110
0000001010111000
1111111000001100
1111101001111101
1111100000101100
1111111111001110
1111111001100111
0000010101011011
1111111101111001
1111011101111100
1111110100001000
0000011001111001
1111111000011000
1111100011001000
1111101001011001
1110100010110010
1101111111100111
1111010000010010
0000010101010100
0001001110100110
0000000100110111
1111011110110011
0000001001001100
1111111101110110
1111100000101111
1111101001000011
1111110101001001
0000010010010110
1111011111111011
1111111011101011
0000011001111001
0000011000110000
0000100001010110
0000000011010000
1111100001011111
1111001111110100
1110110111011001
