1111111000110010
0000100000101111
0000010000101010
1111111011111000
0000001001111110
0000000111011101
0000001100111101
1111110010010000
1111101101001111
0000101010101000
0000001010000111
0000000101001000
0000001111111101
0000000011111111
0000000111111110
0000000000110111
1111100011011001
0000000000011001
1111100001010000
1111000001111000
0000010011011010
0000001101000100
0000000011010101
1111110111010111
1111101011101110
1111011011011101
1110101100001100
1111010101101100
0000010001111101
1111101101010100
1111100011010101
1111101000101011
1111110111101000
1111011000010000
1111001000011001
1111101100001011
1111011101010101
1111010011101001
1111010000000001
1111111101101111
1111111001001100
0000011001011000
1111010000110011
1111101010000110
1111001111011000
1111101111101010
1111110011100011
1111100011000000
0000000100110111
0000110100111010
0000000001011001
0000010111001100
0000111011100101
0000011001011011
0000010011101101
1111100010100011
0000100010000111
0000101010100111
0000011011010001
0000000100000011
0000001110111011
0000011010100000
0000011101001101
1111101110010100
