0001000100110101
0000110000111000
1111100110001101
0000011010100101
1111101100010001
0001000010111000
1111111000101010
1111011100100101
1111110110110011
0000111001111100
1111101010111101
1110111101111100
1111100100100110
1111011101001000
1111111010101010
1111110101000011
0000011100010101
1111101000001110
0000010101110110
0000010110110101
1111011100111111
1111101001011100
0001110100001100
1111110010011000
1111001000111001
1111111110110001
0000011000011100
0000110110011001
0000000111011011
0000000100101000
1111110001100101
1110101100110001
1111111101000111
0000110101111101
1110110011111010
0000000000101100
1111010001111101
1111000101111001
1111101001000100
0000001111011101
0000101001010011
0000001000111110
0000011111001001
0000001010010110
1111110000100111
