0000000010100000
1111101101000110
0000010100010111
1111110010110101
1111010101010000
1111110010000100
1111111111100010
1111110000100000
1111001001101110
0000000011110011
1111101011101010
0000110101011111
0000110111011010
0000100010110001
0000111100001101
0001100001001001
1111011011111101
1111011111011000
1111101010100111
0001000110101001
1111011101010000
1111111111000100
0000011000100111
1111101100001010
1111101100110000
0000010011001110
0000011010001010
0000101111010011
0001100101000011
1111111010011011
0000100110000111
0000011001100100
1111110111011011
0000000000111110
0000110101001011
1111011110011010
1111100111100010
1111101111111011
0000001000101101
1111011000011011
1111110011100101
1111100111011010
0000011001000011
1111100101010000
0000011010001110
