1111101101001010
1111011001100101
1111100100100111
1111110111111110
0000111010001110
1111110110110101
0000101100111011
1111111100100100
0000101110001010
1111010010110000
0000100100010010
0001000110010010
1111101111101111
1111101011111101
1111101100011110
1111000110100111
0000010001001000
0000101001000101
0000011000000111
1110111101111010
1111111101010110
0000101101100101
1111001001000110
1111010111101010
1111111101010111
1111111110000000
1111100000111011
1111011111101101
1111000000110111
1111101001101111
1111001011101001
0000111110011001
0000100110000111
1111100011110001
0000001000101110
1111111110001011
0000110011010011
0001000111111000
0000010000001101
0000100001011011
0000000100011100
1111101011111010
1111110010101101
0000000010011001
1111111100100010
