0000100010111011
1111100010110100
1111011111110000
0000001010000001
1111101010111111
0000100001000011
0000001110111011
1111010100111001
1111111110011000
0000011110111101
0000010010000011
0000010111001110
0000001110101000
1111001011001000
1111101010011111
0000110010110110
0000000010111110
0000010100001100
0000010100010111
0000011010110110
1111100100000000
1111110101010000
1111110001011000
1110111110011100
1111010101001001
1111101000111001
0000000010110100
0000110100111010
0000110110111110
1111101100111100
1111000011110010
1111111100001101
0000001110110110
0000010011010011
1110111101000000
1111100000110001
1111110110010000
0000001001011100
0000110110001011
0000010001100000
0000011011010010
1110111011000100
0000001111000100
0000100001011110
1111111010111010
