1111100011011100
0000110011100011
0000101000111100
0000011011111001
1110111110101010
1111111100100011
0000001000011111
0000100000011110
1111101100101111
0000001101010111
0000100001100111
0001010000100111
0000001011111100
0000000110100101
0000111111101111
0000011110010100
1111001000100011
1111010111000001
0000010011101010
0000011010111001
0000000001110111
0000010100000110
0000101111110000
0000000000101100
0000000010110001
0000111110010011
0000010100010010
1111111010110101
0000110010111011
1111011100110111
0000101110111011
1111111010001011
1111111001100110
1111111110010101
1111101110110100
1111100101011101
1111010110101010
1111010000110111
1111101010001110
1111111110011110
1111010111010001
1111111110010111
0000000101010110
1111011011001001
0000100100001010
