0000011100111000
1111111001100111
1111111001111100
1111110010111001
1111001011110010
1111011110010001
1111001000101010
1111011010111010
1111101001101101
0000001100111100
1111101111001000
1110110001000111
0000001101010100
0000011011101011
0000110000000111
0000100010010100
1111110011100011
1111111110101011
1111011101001110
0000011111110101
0000000010010011
1111100101100100
0000110111111110
0000111011101100
0000000110111110
1111010011111011
0000010011010001
0000000111100000
0001011110010010
0001000000110010
1111111110010010
0000000011000110
1111100011011011
1111101011100101
1111101011000111
0000111010101011
1111100000011010
1111000010110001
1111100000110110
0000001011011010
0000000000100001
1111101111110010
0000011001011110
1111011101000111
0000111011000010
