0000000011100101
1111110010011011
1111110000011011
1111100000001110
0000100011111000
1111011000010000
1111111110011001
0000110011101111
1111100110100101
1111100101001101
1111011110010000
0000000110001100
0000010010010101
0000001110000110
1111111110001001
0000101010010000
1111101001101010
1111111001010001
1111110000001100
1111010011110111
0000101100101101
1111011011111011
0000010111010111
0000100110110111
0001010000010001
0000111011000010
1111110110011110
1111111000101010
1111110010101101
0000001101010110
0000010000101001
0000101011000000
0001000000101100
1111011110110010
0001100001011110
0000100101110111
1111110111010110
0000100100010010
0000100010010100
1111010101010110
1111100101000010
0000010001111110
0000010001011011
1111111111101010
1111110101110000
