0000011010010000
1111101101101011
0000000101001001
1111000000100000
1111011011011000
1111101000011100
1111100111011100
1111111010011010
1111101110110010
1111101101101010
1111100100010011
0000110100000010
1111110110101110
0000100110011001
0000100001111111
0001010111010111
1111011011001111
0000010000100011
0000001000110111
1111111111111100
1111111100011000
1111100100010110
0001001011111000
0000101011110110
0000010101011001
0000110000110000
0000000001011011
0000001110000011
0001000011010011
0000010110010110
0000001000111010
0000100111101100
0000010100110111
0000001000101010
0000001111110011
0000010100001000
1111011101110011
1111011001110111
1111100101010101
1111111001100110
1110111011110100
1111110001011100
0000001111101101
1111111101001011
0000010110111100
