1111111101010011
1111101111100111
1110111011010001
0000000101111111
0000011111011001
0000001100110010
1111101001011000
0000010011001110
0000000110110011
1111111111110100
0000100000011111
0000001011110101
1111110100010000
1110100110011111
1111101010000010
1111111110011000
1111101010001000
0001011001100000
0000101011111010
1110011010011111
0000100000101000
0000010000010000
0000001110110110
1111001100110010
0000011110000110
0001000101011110
0000010101001011
1110110111101000
1110111001110000
0000000011001000
1111100001010011
0000010010011100
0001010001101100
1111101001001001
1111000000011100
0000010001010010
0000000010001111
0000100101100011
0000010110111111
0000101000110100
1111101011101001
1111101100010001
0000011100110101
1111110101001101
1111010010100111
