0000001010001000
1111011101000111
0000011010011100
1111010100110100
0000111001100100
1111111110101010
1111100111101011
1111001011001000
1111110101011010
1111110100101110
1111110111100000
0000001110110100
1111011010010010
0000011011111111
1110110101000101
1111101101001110
0000101010011011
0000100000111100
1111111101110111
0000000110011010
1111101001111101
1111011111100110
1111101110110111
0000001011011100
1111101101110110
1111011100111010
1111011100001001
0000100010110100
1111100011011111
0000000100111001
1111001011100111
0000010010101000
0000000010111110
0000101000001010
0000000101001001
0000010100110000
0000110010100010
0000101000000111
0000011100011011
1111010111000010
0000010010000001
1111110111011010
1111100010100100
0000111011001100
1111101101111010
