0000100101001100
0000001110100111
1111101111000000
0000101010100010
1111110110110010
0000011001010010
0000001001010111
1111010111101000
1111110110000000
0000010101010110
1111110110001110
1110100101000011
0000011100011100
1111101101000100
1111101011000000
0000001100110011
0000111101010010
1111011111001100
1111111101011101
0000101010101110
1111001001000011
1111111011110100
1111011110101110
1111011101101001
1111001011110110
1110011011000001
0000100111111110
0000010110000111
1111111111111010
0000100101001010
1111011100011010
1111000101000101
1111010111111110
0000010011000010
1111000100001110
1111110100010101
0000001110010001
1111110110110000
0000100001110010
1111111001000011
0001010001111000
1111101110010101
0000010001110111
0000001001111000
1111011010000111
