0001010001111000
1111111111000000
1111010111010011
0000000100000001
1111101001001010
0000101110010100
1110101100010101
1111010000111101
0000000000011111
0000000000000010
1111101111100100
1111001101110010
0000100111011110
1111001000011100
0000000000100100
0000111111101110
1111100111011010
0000110101101111
1111110010011101
1111111101111010
1111011001011010
1111101010111101
0001010100101000
1111010011001001
1111100101111011
0000011011100000
0000010110011001
0000011111110001
0000101000000110
0000100110001101
1111011011010011
0000010100001101
1111101111101100
1111110101101100
1111010010111101
0000101110110000
1111011111111001
1111010100111110
1111110001110010
0000011100100101
0000010101000001
1111011010101110
0000100010111011
0000000001111000
1111011111110111
