1111000010111101
1111111000110010
0000110001111011
1111110011000100
0000101100000111
1111101101101011
0000110110001011
0000011111011100
0000011111101010
1111100001101100
0000011111101100
0001110100010110
1111100011011101
0000101111110101
1111110000111110
1110111111100100
1111100000100000
1111111111110010
0000000010011100
1111111111101011
0000011010011001
0000010111101001
1111111100000001
0000000001001001
1111101111010000
0000111000001011
1111010111111101
0000001111100111
1110111110001011
1110110000100001
0000100101000011
0000010010101001
1111110111100111
0000000001001011
0000100010110110
1111001000011011
0000110110011010
0000011111000000
1111101000111110
0000000100001010
1111010001100001
0000000111001001
1111000111010011
1111111111001110
0000010011000000
