1111110011010010
1111100001011111
1111101111110111
1111111100010001
0000111010101010
0000001010101000
1111101000100111
1111110000001110
0000100000101101
1111011111011000
0000011110010000
1111100000010010
1111011001001001
0000111100100010
1111101011101100
1110010111110000
0000010011001100
0000011101110100
0000001100111110
1111100001000010
0000000101100101
1111100000110101
0000001000010000
0000011010010110
0000001110000010
1111001100100010
1111011010111000
0000001000001010
1111000010100000
0000011000010101
1111001001111110
0000101101100101
1111100100000000
0000010001011000
1111110011100110
0000011001011010
0000101010110101
1111111111011101
1111101001110101
0000001101101110
0000011110011000
1111101001000001
1111010010011010
0000011100000011
0000011001010100
