0000011010011100
1111010110110011
1111111101000001
0000000000010100
1111011111001000
1111011011001011
0000010000100010
1111010110010100
1111001110010000
0000001101110000
1111101000000100
1111111110000001
0000001110001110
0000011110110000
0000010010001110
0001001111100000
0000110111100011
1111011110000100
1111111001101001
0001011111101101
1111100110010011
1111110100010000
1110111010100010
1111011111100010
1111110110010111
1110111010011101
0000101111111010
0000011000111010
0001010011011100
0000101001100000
1111100110100110
0000000110000010
1111111011000001
0000000011101100
0000101110100111
1111100111101000
0000000010111100
0000000111010110
0000111011101100
1111010110100110
0000101111011001
1111100110011100
0000100010001100
0000000010101100
0000110101100111
