1111010100000110
0000010111110000
0001001011111010
0000010000101000
0000100100101111
1111100100100101
0000001011100000
0000000111000101
0000001100001100
1111101001111000
1111100011111100
1111111000100101
0000000100001010
0000111011011100
0000010100000111
1111011011100101
0000000011100001
1110101010100000
1111100100100001
0000111010110010
1111101100111001
1111100001111000
1111010101010101
0000110100010010
0000000110110011
1111011100100111
1111110011101101
0000110011111001
1111111011001101
0000001000011111
0000101110100000
0000001011110100
1111010010101000
0000011111001111
0000111100110111
1111110100000101
0000101111001010
1111110111000101
1111111010001110
1111011101001100
0000100001111000
0000101001111101
1111100101001101
0000000110111101
0000000111111000
