1111101100001001
0000001010000010
1111010001000110
0000000101110000
0000010000111111
0000000011011000
0000100111010111
0000111011001110
0000000100000110
1111110111000001
1111110101111011
0000010000110111
0000010101101000
1110110011010010
1111001100111000
0000110101110111
1111101111001010
0000100100010111
1111110010110001
1111000100110001
0000001011011111
0000101010010011
1111010100011111
1111001111011101
0000100011001100
0000101111100100
0000100011101010
1111010100010100
1111011100001100
1111101000100010
0000001011010110
0000000101101101
0000110111010010
1111100001100010
0000001001111111
1111011101100110
1111110101000001
0001001100000000
0000110101100110
0000001010001011
1111111100011101
0000011010101001
0000100111011011
1111111001110001
1111010010101101
