1111111110110111
0000101110100011
1111001000100001
0000000100000101
1111110000001011
1111110100010001
1111011101110000
0000110011101110
1111110110000110
0000100100011001
1111110010100100
1111000110111110
0001000001101111
1110110000101000
0000001101101000
0000110111101100
0000000111110101
1111110100000010
1111100011110001
1111011101111101
0000001010111000
0000001100000111
1111011110011010
1111110111001101
0000110011101000
0000001000010101
0001000011001111
1111010110100101
1111101111110011
0000110001001110
1111110100000001
1111110110001111
0000101110010001
1111001110111010
0000000010010011
0000011111011000
1111100000101100
0000001111000111
0000001110111010
1111101010111001
0000110000101111
1111111100100101
0001001011110011
1111100001100100
1111000111110000
