0000001110100011
1111001001010111
0000011100010000
1111000011111111
1111101100101010
0000000010111011
1111100011101110
1111101011110101
1111100111010111
1111001100010100
0000011111110011
0000011011001101
1111111011110100
0000111101010100
1111111101011100
0001001011111000
1111010100110101
0000101000110110
1111110001100011
0000011011110000
1111110101000100
1111100100000011
0000100011001011
1111111110010100
1111110000001110
0000011100011110
1111010111101011
0000101110001111
0001001000000110
1111111011110000
1111100101101010
0000101111100010
1111111011001001
1111100110000110
1111111011001100
0000011010111101
1111111000101000
1111110101010001
1111111110100000
1111111111111110
1111000010010010
1110111010001001
1111011111111111
0000001110010110
0001001111011101
