0000000000011110
0000111000010000
0000000001100001
0000111101011101
1111011111111001
1111111100100100
1111110010110011
0000100111000100
0000100001111011
1111111110101101
0000110001110010
1111000100011001
1111110010111101
1111101001000101
0000100101100101
1110111110010010
0000011000000010
1111011011110000
0000000101000001
1111111110100100
0000111110110001
0000110111010100
1111100010001100
0001001101100010
0000010110110110
1111100000110110
0000001000110110
1111011000101000
1111101001001000
0000010010001100
0000100010111001
1111100011101101
1111010110100000
1111101011100100
1111101010101101
0000010001000010
1111011110100111
1111100011111110
1111010011011001
0001010001101001
1111110100111010
0000111001110111
1111110101110001
1111110010101111
0000110001000010
