0000100100100100
0000010001010001
0000101100001001
1111110110111111
1111100000101010
0000100001011101
0000010010011001
1111110000010010
1111011001100111
1111111110001101
1111100110001000
0000111010101110
0000101000001000
1111110001000011
0000010101001010
0001010000010111
1111101001111111
0000001011010000
1111101101011010
0001001000011100
1111010111110010
1111110000001111
0000001010010011
1111011011100000
1111001100000011
0000011001110110
0000010110001011
0000111000101110
0001001011110111
1111000010010110
0000001101100000
1111110011110111
1111110011011011
0000010101011010
1111100110110100
1111001001001110
1111111001000111
0000001001111111
0000101010011010
1111101011101010
1111101001110001
1111001111110100
0000000001111100
0000000111101000
1111110110100110
