0000100010010000
0000010111101011
0000010000101000
0000010110110111
0000001101010010
0000101100000111
1111100100110010
1111001101101110
0000010011111100
0000010100111111
0000001111110011
0000001000010010
1111111100100001
1111111001110101
0000001110011011
1111011001000010
1111111100101111
1111111010011001
0000001010111110
0000010111001101
1111010111111010
0000000100111001
0001000111001111
1111011101001000
1110101111010010
0000001111110011
0000000101011101
0001001110110101
1111111111000101
1111110000011011
0000010001111101
1111001100010011
1111100110100100
0001000100001110
1110110000000011
1111100001000011
0000000001000001
1111001010110110
1111110111101110
1111111110011000
0000100001101001
1111100001110010
1111110011010010
0000100011010111
1111100010010000
