0000000101111101
0000101110101101
0000000100010010
0000111001110101
1111111001100101
0000110110000101
1111111100111101
0000000000101100
0000110011100110
0000100110101100
0000100100101011
1111011011010010
1111011000011100
1110101110010010
0000010000101010
1110110001100101
0000100100001000
0000000010011111
0000110011001111
1111101100101010
0000001011111100
0000001100111000
0000111000001101
1111111110000111
1111111001111111
0000011000001100
1111110110000111
0000000000110101
1110101100001010
1111111100001001
0000001000011110
1110111110110000
1111111111101111
0000000100100010
1110101011010100
1111100111100110
1111011110111011
1111100010001000
1111101001011110
0000010111001010
1111111001111001
0000100101010000
1111110010100111
0000000110011011
1111011111100010
