0000101010100100
1111100110110110
1111111010010011
1110111110000110
0000000101111100
1111111100000100
1111011111001100
1111110110100010
1111101000110110
1111110101110100
1111011011100001
1111110010101100
0000001111001000
0000010001010101
0000000100101110
0000101001111100
1111100101101011
0000011000101111
1111101101001110
1111111001000100
1111111010111101
1111000101000011
0001010110001110
0000100000010110
0000010110001011
0000101001011010
0000000000100011
0000011000000100
0000110000111010
0001000000111110
1111101001000001
0000111000001110
1111111001000100
0000001010010010
0000101101111010
0001001100100010
1111110000110110
1111110001111110
0000000111001111
1111100011011000
0000000000101101
1111110100101111
0000000101111100
1111110010100110
0000001100000111
