1111100111110011
0000000110001110
1111011110100111
1111100000110101
1111100111000011
1111100000010001
1111111100011101
0000110111011001
1111110111100110
1111101111011000
0000001110111110
1111111001001101
0000000110100100
0000001101101101
0000010011010010
0000000111100111
1111011010111001
0000011100101011
1111101011000001
1111001100011011
0001000010110011
0000001111101110
1111110101010001
0001000001001010
0000111001111110
0000101101101111
1111100101101010
1110111111111100
0000001101101111
0000011010111000
0000001100000110
0000111000011011
0000011111000110
1110111000110111
0000010101110000
0000011110110001
1111011110110001
0000000101011010
1111100010101000
1111111110100101
1111001010010001
0000011010111101
1111110111101010
1111001110111011
0000100101100001
