1111101011001101
1111010101100111
1111110001110101
1111010101101110
0000110011011001
1111110010001001
1111110001111100
0000001010000100
0000011100100010
1111010101111111
0000001111000111
0000000000101110
0000010101111101
0000011101011100
1111010001111100
0000000010011011
0000000001000011
0000101010010110
1111100001000010
1111100111011001
0000000110101101
1111100110100111
1111000110101011
0000000000000001
0000100110000011
1111101011101010
1111101001011010
1111111010011010
1111011001000001
0000010110111001
1111001110100011
0001010100001110
0000010011001111
1111100000011010
0001000011000000
0000011110010001
0000110111001110
0001000000101011
0000011010110110
1111101011101011
0000000111100010
1111101100010000
1111111101001111
0000011011011111
0000000100110111
