1111101000100001
1111111011100111
0000111101010100
1111110110000000
1111111110100101
1111101100000001
0001010110010110
1111110100110101
1111011100000110
0000001011010110
1111100010011111
0000111111110011
1111011010011010
0001000011111111
1111010001100011
0000011001010100
0000100111101010
1110110010100101
1111101111100001
0000111011010100
1111111001101111
1111101101011000
1111101000110011
0000001011010000
1111001100111101
1111110010011111
1111111101111011
0000011110010001
0000100110110111
1110100111111101
0000011011101101
1111001101010100
1111110010011110
0000101001110101
0000111010100001
1110011100001011
0000011100000011
0000011101010110
0000100101101010
1111010010100000
1111111000111010
0000101000101001
1111111000101001
0000010110100101
0000100000100101
