1111110101110001
1110111111001011
1110111111101010
1110011001010100
0000000100000000
1111101110010101
1110110100001001
1110101101000010
0000011101111111
1111101110110010
0000110000010111
1110010010010011
0000101101010010
0000010000001001
0000110100010011
1111110011110000
1110000101001001
1111010110110101
0000100100100111
1110001001010000
1111000010100111
0000001111000101
0000011111111011
0000100101001000
1110010011011101
1110110111111100
0000011011101110
1110000011010101
0000011111100111
1111101011111110
0000100000111001
1110010100100110
0000110110000011
0000100100111101
0000010101100000
1111001000000111
0000101100001110
