1111011001100101
1111100110000000
0000110111111010
1110111110011010
1111111000011111
1110101101110001
0000100010001100
0000110011010010
0000001110011110
0000001101010110
0000000111000011
1110111110010101
1111011111100010
1111110110111001
0000110100000110
0000001111010001
0000010100101011
1111010000101000
1101111100001100
1110100110111111
1111010110101001
1111010001100101
0000000001011111
0000101100101001
1111000001111101
0000101000101101
0000010110110010
0000011010001101
1111010010001011
0000011110110011
1111000100010010
1110010100101001
1111011001010001
0000101111010101
1110110100001100
1111111001011100
0000101100010011
