0000010001111111
1110100100000100
1111000001100100
0000011010110101
0000101111011100
0000011000011000
1110101110111011
0000010111000110
1111000111110101
0000100001000001
0000100011001101
1110110001010010
1110011111001111
1110110101010000
1111100100101101
1110101011011000
1111111011100000
0000011001100011
0000110110011011
0000010110001111
0000101110001101
1110010111010000
0000100101111110
1110110011111110
1110110110011111
0000101101000011
0000010011110110
1111000010010001
0000000111000110
0000011000010111
0000000100101111
0000000011111010
0000101100011000
1110110110100110
1110011111111000
1110101101101111
0000001111100000
