1110010010001010
0000100110101010
0000010001001001
1110111100001011
1111011010110000
1111101111001001
1111010101001111
0000100001000000
0000011110001100
0000100110010001
1101110101101001
0000111011110101
0000011110011011
0000100001000000
1111001101001100
1111101100111001
1110011010110001
1110101000011010
0000100011110111
0000010000101110
0000100011110000
0000001110111001
0000101011011111
1110110000100010
1101111111110000
1111010011111111
1101110111001011
1110011111011101
0000000011101111
0000000011110111
0000010111111100
1111101111101000
1111100100111001
0000100001111000
0000110110101001
1110010000100101
1110010010111011
