1111000001110100
1111100100000000
0000000111010011
0000101001100011
0000101111101000
1111011111111110
0000001001100000
0000100110011001
1111011010111101
0000101111001101
0000100011001110
0000100101101001
0000011010000011
0000000101011010
1110111000000111
1101111101001111
0000010101010100
0000010000100000
1110110110010001
1111100010001000
1110011100111000
0000100111110110
1110100101101000
1101111100111100
0000011101001110
0000000111101001
1110111001100001
0000110100010101
0000100111000000
1111000100101010
1110101110101010
1111111001001001
1111010110000110
1111011001000001
1110101111100101
0000000011101001
1111111101000000
