0000100110101111
1111100111001100
1111100000110111
1110101111100100
1101111111100010
1111100001001010
1111111001011111
1110000111111000
1110101010011111
1101101111010100
1111101101011101
1111101001100110
0000000101100101
0000001100100011
0000110010100100
0000101111101001
0000010010110111
0000011010001000
0000100111010110
1111000010010010
1111110110011011
1111000101101010
0000000110101100
0000100001000011
0000111110110001
1110101000110011
0000100011101011
0000000000000000
1101101110100100
0000000110110010
0000001100010011
0000101101110101
1111010111111010
0000001111011110
1111001100000101
0001000010000100
0000000001101111
