-- begin_signature
-- Weight_Memory(numWeight
-- 37
-- neuronNo
-- 9
-- layerNo
-- 3
-- addressWidth
-- 6
-- dataWidth
-- 16
-- weightFile
-- "w_3_9.mif")
-- end_signature
WIDTH=16;
DEPTH=37;

ADDRESS_RADIX=UNS;
DATA_RADIX=BIN;

CONTENT BEGIN
	36 :	0000010000100010;
	35 :	0001000100000000;
	34 :	0000001111011011;
	33 :	1111100110001101;
	32 :	1110110010011111;
	31 :	1111000010111011;
	30 :	0000001110110001;
	29 :	0000100010100111;
	28 :	1110101001010100;
	27 :	1111110101010110;
	26 :	1110111000100100;
	25 :	1111001011101100;
	24 :	0000000110100110;
	23 :	0000010111000001;
	22 :	1111001010011100;
	21 :	0000101001100010;
	20 :	1101111001000011;
	19 :	1110010010101010;
	18 :	1111000000010101;
	17 :	0000101101111101;
	16 :	0000010101010000;
	15 :	0000000110001010;
	14 :	0000010100000110;
	13 :	0000000000001110;
	12 :	1111001010010100;
	11 :	0000010000010001;
	10 :	1110100100000001;
	9 :	1111001100010101;
	8 :	1110000100101000;
	7 :	1111111100001111;
	6 :	1111111100110100;
	5 :	0000001000011100;
	4 :	0001000111100000;
	3 :	1111010111100110;
	2 :	1111100011001110;
	1 :	0000111010000111;
	0 :	1110001000000100;
END;
