-- begin_signature
-- Weight_Memory(numWeight
-- 64
-- neuronNo
-- 40
-- layerNo
-- 1
-- addressWidth
-- 6
-- dataWidth
-- 16
-- weightFile
-- "w_1_40.mif")
-- end_signature
WIDTH=16;
DEPTH=64;

ADDRESS_RADIX=UNS;
DATA_RADIX=BIN;

CONTENT BEGIN
	63 :	1111010111010010;
	62 :	1111110100000110;
	61 :	1111101101010001;
	60 :	0000000110001111;
	59 :	0000110000000011;
	58 :	0000111110010111;
	57 :	0000111000100000;
	56 :	0000100001101000;
	55 :	1111000000111011;
	54 :	1111110100101100;
	53 :	0000001110100100;
	52 :	0000011011000111;
	51 :	1111110111011011;
	50 :	0000100010010111;
	49 :	0000110101101101;
	48 :	0000001010000001;
	47 :	1111100010111011;
	46 :	0000001101110011;
	45 :	0000001000001110;
	44 :	1111101000010010;
	43 :	1110111001000101;
	42 :	1111010101111000;
	41 :	1111110111010011;
	40 :	1111111100100000;
	39 :	1111111100110111;
	38 :	0000001001100010;
	37 :	1111010001101111;
	36 :	1111010011011101;
	35 :	1111100100010100;
	34 :	1111100111110000;
	33 :	0000010101101000;
	32 :	0000000100010100;
	31 :	1111011101110111;
	30 :	1111111000011100;
	29 :	1111111001101100;
	28 :	1111110101110100;
	27 :	1111111101010010;
	26 :	1111110110100101;
	25 :	0000011010010001;
	24 :	1111011111010001;
	23 :	1111100100100111;
	22 :	1111110101001110;
	21 :	0000001011110100;
	20 :	1111011000001001;
	19 :	1111000110101011;
	18 :	0000010001011001;
	17 :	0000100011011010;
	16 :	1111010111101100;
	15 :	1111101110011011;
	14 :	1111110001011101;
	13 :	0000001110001000;
	12 :	0000000001110001;
	11 :	0000000011001100;
	10 :	0000111011001010;
	9 :	0000101110100010;
	8 :	0000000010100001;
	7 :	1111011001010100;
	6 :	1111111101011100;
	5 :	0000000001100110;
	4 :	0000001011110101;
	3 :	0000010101101100;
	2 :	0000111011100001;
	1 :	0000110000110111;
	0 :	0000000011110011;
END;
