-- begin_signature
-- Weight_Memory(numWeight
-- 45
-- neuronNo
-- 20
-- layerNo
-- 2
-- addressWidth
-- 6
-- dataWidth
-- 16
-- weightFile
-- "w_2_20.mif")
-- end_signature
WIDTH=16;
DEPTH=45;

ADDRESS_RADIX=UNS;
DATA_RADIX=BIN;

CONTENT BEGIN
	44 :	1111010011000100;
	43 :	0000010000000000;
	42 :	0000000110110110;
	41 :	1111100101110001;
	40 :	1111110110010100;
	39 :	0000000010111111;
	38 :	0000010011010001;
	37 :	0000101001110010;
	36 :	1111100100001111;
	35 :	1111101011010111;
	34 :	0000110010011100;
	33 :	0000000110101001;
	32 :	1111100011001001;
	31 :	1111001111011000;
	30 :	1111010001101000;
	29 :	1111101110011101;
	28 :	1111100100101011;
	27 :	0001001011000111;
	26 :	1111110000101100;
	25 :	1111011110010000;
	24 :	1111011100100000;
	23 :	0000010001101001;
	22 :	0000001010010111;
	21 :	0000011011010010;
	20 :	0000100101111000;
	19 :	0000100011000110;
	18 :	1111010010000111;
	17 :	1111110111010001;
	16 :	0000011011111101;
	15 :	1111100111000001;
	14 :	0001001001100110;
	13 :	0000001010000001;
	12 :	1111111110111011;
	11 :	1110100101001110;
	10 :	1111001001111100;
	9 :	0000001011000010;
	8 :	0000100100111111;
	7 :	0000011011010111;
	6 :	0001001000110000;
	5 :	0000000101110110;
	4 :	1111110101000000;
	3 :	0000000111000100;
	2 :	0000111011110001;
	1 :	0000111101101111;
	0 :	1111111011010011;
END;
