-- begin_signature
-- Weight_Memory(numWeight
-- 45
-- neuronNo
-- 18
-- layerNo
-- 2
-- addressWidth
-- 6
-- dataWidth
-- 16
-- weightFile
-- "w_2_18.mif")
-- end_signature
WIDTH=16;
DEPTH=45;

ADDRESS_RADIX=UNS;
DATA_RADIX=BIN;

CONTENT BEGIN
	44 :	0000111100010100;
	43 :	0000100100011000;
	42 :	0001010110001101;
	41 :	0000100111010010;
	40 :	0000100111111110;
	39 :	0000011011111001;
	38 :	1111010001100010;
	37 :	1111011101110011;
	36 :	0000101110011010;
	35 :	1111100100101011;
	34 :	1111111000000101;
	33 :	1111000101110100;
	32 :	1111111001111000;
	31 :	0001011111110110;
	30 :	0000100111000001;
	29 :	0000010001111101;
	28 :	0000011000001010;
	27 :	1110111011111001;
	26 :	0000101011000111;
	25 :	1111100101111100;
	24 :	1111111111100100;
	23 :	1111110001001001;
	22 :	1111101000111010;
	21 :	1111010010001100;
	20 :	1111100010010100;
	19 :	1111110101111101;
	18 :	0000101011110110;
	17 :	0000001000111101;
	16 :	1111001011010111;
	15 :	0000001000100111;
	14 :	1111101011001001;
	13 :	1111110101111101;
	12 :	1111111000001001;
	11 :	0001011010010011;
	10 :	0000001100001011;
	9 :	0000010010100011;
	8 :	1111010000111100;
	7 :	1111100000110101;
	6 :	1110110100010010;
	5 :	0000001010110000;
	4 :	0000111110010101;
	3 :	1111001101001001;
	2 :	1111000011001000;
	1 :	1111011100101010;
	0 :	1111110111010110;
END;
