-- begin_signature
-- Weight_Memory(numWeight
-- 45
-- neuronNo
-- 34
-- layerNo
-- 2
-- addressWidth
-- 6
-- dataWidth
-- 16
-- weightFile
-- "w_2_34.mif")
-- end_signature
WIDTH=16;
DEPTH=45;

ADDRESS_RADIX=UNS;
DATA_RADIX=BIN;

CONTENT BEGIN
	44 :	1111110110011000;
	43 :	0000111001101010;
	42 :	0000010111111011;
	41 :	0000000001111000;
	40 :	0000001111011010;
	39 :	0000010001001110;
	38 :	0000001101000000;
	37 :	0000000001110011;
	36 :	1111101100010000;
	35 :	1111110011000110;
	34 :	0000100000110011;
	33 :	1111100011111000;
	32 :	1111100110100110;
	31 :	0000100011011000;
	30 :	1110110110011101;
	29 :	1111010111111010;
	28 :	1110101001000001;
	27 :	0000100111011110;
	26 :	1111011010110000;
	25 :	1111010111101001;
	24 :	1110111101110101;
	23 :	1111110000011011;
	22 :	1111100101001000;
	21 :	0000001111011011;
	20 :	0000111001010111;
	19 :	1111111100101011;
	18 :	1111010001110111;
	17 :	0000100110000111;
	16 :	1111111010111001;
	15 :	0000010010001110;
	14 :	0000101010010100;
	13 :	1110111110001101;
	12 :	0000101111101011;
	11 :	1110111110100100;
	10 :	1111101110000111;
	9 :	0000000110110010;
	8 :	0000010011010010;
	7 :	0000100100111011;
	6 :	0000011111111101;
	5 :	0000010110101101;
	4 :	0000001011011101;
	3 :	1111111000001011;
	2 :	0000011101010110;
	1 :	0000011001001110;
	0 :	0000011111001110;
END;
