-- begin_signature
-- Weight_Memory(numWeight
-- 64
-- neuronNo
-- 43
-- layerNo
-- 1
-- addressWidth
-- 6
-- dataWidth
-- 16
-- weightFile
-- "w_1_43.mif")
-- end_signature
WIDTH=16;
DEPTH=64;

ADDRESS_RADIX=UNS;
DATA_RADIX=BIN;

CONTENT BEGIN
	63 :	1110110110000001;
	62 :	1111011111101011;
	61 :	1111011000100011;
	60 :	0000001011111100;
	59 :	0000010011001001;
	58 :	0000100000001010;
	57 :	0000100111011100;
	56 :	0000000110011101;
	55 :	1111010100011000;
	54 :	0000001011000101;
	53 :	1111101010011110;
	52 :	0000001111100100;
	51 :	1111101001011011;
	50 :	1111110011000100;
	49 :	0000000100010010;
	48 :	1111101010100011;
	47 :	1111101001011110;
	46 :	0000111100101110;
	45 :	0000011001100101;
	44 :	1111001001101011;
	43 :	1110001111100101;
	42 :	1110101111101101;
	41 :	1111110010001001;
	40 :	0000000110011001;
	39 :	0000001100110011;
	38 :	0000111011100011;
	37 :	0000001001010011;
	36 :	1111010111011100;
	35 :	1111011010000001;
	34 :	1111111111000001;
	33 :	0000010110111010;
	32 :	1111111000111010;
	31 :	1111111000001111;
	30 :	0000011000011100;
	29 :	1111110101001010;
	28 :	1111111111000011;
	27 :	1111111101001011;
	26 :	0000001101111111;
	25 :	0000100110100010;
	24 :	1111110111100101;
	23 :	1111101001110011;
	22 :	1111110001100101;
	21 :	1111111010000011;
	20 :	1111101100111111;
	19 :	1111110100100011;
	18 :	0000000101000010;
	17 :	0000000111110011;
	16 :	1111101111101001;
	15 :	1111101000110000;
	14 :	0000010010001000;
	13 :	0000001000100010;
	12 :	0000010010000000;
	11 :	0000000000111011;
	10 :	0000001100100001;
	9 :	0000001001000010;
	8 :	1111110011101000;
	7 :	1111100000100010;
	6 :	0000011101001010;
	5 :	0000001010110001;
	4 :	0000010000011011;
	3 :	0000100000011001;
	2 :	0000100100000101;
	1 :	0000011110101000;
	0 :	1111110011110010;
END;
