-- begin_signature
-- Weight_Memory(numWeight
-- 64
-- neuronNo
-- 30
-- layerNo
-- 1
-- addressWidth
-- 6
-- dataWidth
-- 16
-- weightFile
-- "w_1_30.mif")
-- end_signature
WIDTH=16;
DEPTH=64;

ADDRESS_RADIX=UNS;
DATA_RADIX=BIN;

CONTENT BEGIN
	63 :	0001011100100110;
	62 :	0000001110000110;
	61 :	1111111110000110;
	60 :	0000000011001100;
	59 :	1111111101100111;
	58 :	0000001011011101;
	57 :	0000010110001111;
	56 :	0000010110001010;
	55 :	0000100001110011;
	54 :	1111010101110001;
	53 :	0000011010101101;
	52 :	0000010100111101;
	51 :	0000111001101011;
	50 :	0000100011010100;
	49 :	1111110110011111;
	48 :	0000100001100011;
	47 :	0000010110101100;
	46 :	1111001111001101;
	45 :	1111110011010001;
	44 :	0000100000100111;
	43 :	0010001111100111;
	42 :	0001110000100010;
	41 :	0000010011100110;
	40 :	0000000011011001;
	39 :	0000000100011000;
	38 :	1111101010011110;
	37 :	1111100001000010;
	36 :	0000001010011011;
	35 :	1111111111010101;
	34 :	0000011111011001;
	33 :	0001010111100010;
	32 :	0000001010010001;
	31 :	0000000111100111;
	30 :	1111011010101100;
	29 :	1111100000001001;
	28 :	1111100001011111;
	27 :	1111111110011010;
	26 :	0000001000101011;
	25 :	0000011100111000;
	24 :	1111111011000100;
	23 :	0000010111110011;
	22 :	1111100110100001;
	21 :	1110111100101010;
	20 :	1110111001010110;
	19 :	0000001111101101;
	18 :	0000011001110000;
	17 :	0000000011101010;
	16 :	0000010111010110;
	15 :	0000010010111000;
	14 :	1111100000100100;
	13 :	1111110000001001;
	12 :	0000000011011011;
	11 :	0000000000111010;
	10 :	0000000110101000;
	9 :	1111111000111001;
	8 :	0000001100000110;
	7 :	0000010110001011;
	6 :	1111101010011110;
	5 :	0000011000000110;
	4 :	1111110101000011;
	3 :	1111111100100100;
	2 :	0000010110001001;
	1 :	1111111010110100;
	0 :	1111111110011110;
END;
