-- begin_signature
-- Weight_Memory(numWeight
-- 45
-- neuronNo
-- 36
-- layerNo
-- 2
-- addressWidth
-- 6
-- dataWidth
-- 16
-- weightFile
-- "w_2_36.mif")
-- end_signature
WIDTH=16;
DEPTH=45;

ADDRESS_RADIX=UNS;
DATA_RADIX=BIN;

CONTENT BEGIN
	44 :	1111101100111011;
	43 :	1110110011000001;
	42 :	1111111001010101;
	41 :	1111000101010010;
	40 :	1111001111010011;
	39 :	1111010011110111;
	38 :	1111110010000001;
	37 :	0000000010011010;
	36 :	0000101100101011;
	35 :	0000000011101011;
	34 :	1111011011000010;
	33 :	0000100101111001;
	32 :	1111100000111000;
	31 :	0000010001101011;
	30 :	0000101001010111;
	29 :	1111110100001011;
	28 :	0000111101100001;
	27 :	0000000001000101;
	26 :	0000001010111010;
	25 :	0001000100110100;
	24 :	0000010111011001;
	23 :	0000111000000110;
	22 :	0000100110000001;
	21 :	0000100101101011;
	20 :	1111101001100001;
	19 :	1111100100000001;
	18 :	1111111011011011;
	17 :	1111111010111110;
	16 :	1111101001100111;
	15 :	1111101111000101;
	14 :	0000001011100100;
	13 :	0000011101010011;
	12 :	0000000000010110;
	11 :	0000100101000000;
	10 :	1111111001100001;
	9 :	1111100110101111;
	8 :	0000011111001011;
	7 :	1111010101000000;
	6 :	0000100001100010;
	5 :	1111010101110010;
	4 :	1111111110111000;
	3 :	0000111010000010;
	2 :	1111111101111011;
	1 :	1111010000010001;
	0 :	1111011100101001;
END;
