-- begin_signature
-- Weight_Memory(numWeight
-- 45
-- neuronNo
-- 37
-- layerNo
-- 2
-- addressWidth
-- 6
-- dataWidth
-- 16
-- weightFile
-- "w_1_37.mif")
-- end_signature
WIDTH=16;
DEPTH=45;

ADDRESS_RADIX=UNS;
DATA_RADIX=BIN;

CONTENT BEGIN
	44 :	1111010110111001;
	43 :	0000110110101011;
	42 :	0000100110100100;
	41 :	1111111111001000;
	40 :	1111000100001111;
	39 :	0000000110100101;
	38 :	0000111001000110;
	37 :	0000000101111000;
	36 :	1111111001111000;
	35 :	1111110100000010;
	34 :	1111110010000001;
	33 :	1111111110011101;
	32 :	1111111100010100;
	31 :	1111011011011110;
	30 :	0001100000001100;
	29 :	0000011010100000;
	28 :	1111010110010111;
	27 :	1110110111111101;
	26 :	1111011000111001;
	25 :	1111001011101101;
	24 :	1111101110100011;
	23 :	0000010100000010;
	22 :	0001000111010001;
	21 :	0001000001010001;
	20 :	1111011100011110;
	19 :	1111000110101011;
	18 :	1111110001110001;
	17 :	1111101100001011;
	16 :	1111011010101111;
	15 :	0000011011111100;
	14 :	0000010000000001;
	13 :	0000010001001001;
	12 :	0000010010100110;
	11 :	1111111110101110;
	10 :	0000011111001110;
	9 :	0000000100011100;
	8 :	1111111100000110;
	7 :	0000101011110011;
	6 :	1111110100100011;
	5 :	1111001001101000;
	4 :	1111101111101111;
	3 :	0000011110000101;
	2 :	1111111101010111;
	1 :	1111110100001100;
	0 :	1111111101110000;
END;
