-- begin_signature
-- Weight_Memory(numWeight
-- 45
-- neuronNo
-- 38
-- layerNo
-- 2
-- addressWidth
-- 6
-- dataWidth
-- 16
-- weightFile
-- "w_2_38.mif")
-- end_signature
WIDTH=16;
DEPTH=45;

ADDRESS_RADIX=UNS;
DATA_RADIX=BIN;

CONTENT BEGIN
	44 :	0000011001101010;
	43 :	0000111111110111;
	42 :	0000001011110101;
	41 :	0000100010110011;
	40 :	0000001101101100;
	39 :	0001101011001001;
	38 :	1111111000101011;
	37 :	0000011110001010;
	36 :	0000100011010011;
	35 :	1111110100011100;
	34 :	0000110111001001;
	33 :	1111110111110111;
	32 :	1111110001100001;
	31 :	0000011111100110;
	30 :	1111001110100011;
	29 :	0000001011111010;
	28 :	1111101101011001;
	27 :	1111110010111011;
	26 :	1111111111011000;
	25 :	1110101111011011;
	24 :	1111011000000101;
	23 :	0000010000011011;
	22 :	1111100000111101;
	21 :	1111011011100000;
	20 :	0000100011001111;
	19 :	0000010101001010;
	18 :	0000101001010100;
	17 :	0000001111011100;
	16 :	1111101101010010;
	15 :	1111101101110111;
	14 :	0000010111100000;
	13 :	1111101000010000;
	12 :	1111011011000110;
	11 :	1111101111001100;
	10 :	1111011101101001;
	9 :	0001000010010111;
	8 :	1111000010111110;
	7 :	0000000010001001;
	6 :	1111101100011111;
	5 :	1111110001000100;
	4 :	0000011011011001;
	3 :	1111100101111010;
	2 :	0000000110110100;
	1 :	0000111001110100;
	0 :	1111110001111110;
END;
