-- begin_signature
-- Weight_Memory(numWeight
-- 45
-- neuronNo
-- 10
-- layerNo
-- 2
-- addressWidth
-- 6
-- dataWidth
-- 16
-- weightFile
-- "w_2_10.mif")
-- end_signature
WIDTH=16;
DEPTH=45;

ADDRESS_RADIX=UNS;
DATA_RADIX=BIN;

CONTENT BEGIN
	44 :	1111100010101101;
	43 :	1111001100110010;
	42 :	1111111000001001;
	41 :	1111011111111101;
	40 :	0000000001100101;
	39 :	1111111001110100;
	38 :	1111011110010110;
	37 :	0001001101010011;
	36 :	1111101111001001;
	35 :	1111100010011001;
	34 :	0000011100100001;
	33 :	0000001001110101;
	32 :	1111111001001011;
	31 :	0000010111110100;
	30 :	0000100110001011;
	29 :	1111100011000001;
	28 :	0000110000010100;
	27 :	0000110111010001;
	26 :	0000010010010010;
	25 :	0000000111000000;
	24 :	1111110011111000;
	23 :	1111101010111110;
	22 :	0000000100011100;
	21 :	0000001101101100;
	20 :	0000010001111100;
	19 :	1111111010100101;
	18 :	1111011110010011;
	17 :	0000010011010001;
	16 :	1111110000010110;
	15 :	1111011111001100;
	14 :	0001000010100101;
	13 :	0000001000101111;
	12 :	1111001011011010;
	11 :	1111110001110110;
	10 :	1111111100011000;
	9 :	1111010101101000;
	8 :	1111110110011011;
	7 :	1111101101100111;
	6 :	0000011000001111;
	5 :	1111100100100001;
	4 :	0000000110101011;
	3 :	0000001000101101;
	2 :	0001011010011000;
	1 :	0000101100111010;
	0 :	1111111010110110;
END;
