-- begin_signature
-- Weight_Memory(numWeight
-- 45
-- neuronNo
-- 8
-- layerNo
-- 2
-- addressWidth
-- 6
-- dataWidth
-- 16
-- weightFile
-- "w_2_8.mif")
-- end_signature
WIDTH=16;
DEPTH=45;

ADDRESS_RADIX=UNS;
DATA_RADIX=BIN;

CONTENT BEGIN
	44 :	1111110000000101;
	43 :	1111110101110101;
	42 :	0001001000101010;
	41 :	0000100011110101;
	40 :	0000101111010110;
	39 :	1110101111000100;
	38 :	1111010011011100;
	37 :	0000101100111000;
	36 :	0000001000111000;
	35 :	1111101111000100;
	34 :	1111010010010010;
	33 :	1111100111010100;
	32 :	0000011011110000;
	31 :	0000110000010111;
	30 :	0000100001000101;
	29 :	1111001000010001;
	28 :	0000010111111001;
	27 :	0001000101001010;
	26 :	1111110100111101;
	25 :	0000101000011110;
	24 :	0000011011100101;
	23 :	1111001010010101;
	22 :	1111100000111010;
	21 :	1111100011111011;
	20 :	0000010110010101;
	19 :	0000011011001101;
	18 :	1111100111111111;
	17 :	1111010000111100;
	16 :	1111010001010110;
	15 :	0000010000100000;
	14 :	1111111101010011;
	13 :	0000011001001100;
	12 :	0000001100010000;
	11 :	1111111111001100;
	10 :	1111100100111011;
	9 :	1111000111100001;
	8 :	0000000010011001;
	7 :	1111101000000010;
	6 :	0000010001011011;
	5 :	0000100111000100;
	4 :	0000011000101111;
	3 :	0000001000011101;
	2 :	0000111100100010;
	1 :	1111000110000111;
	0 :	1111100010111101;
END;
