-- begin_signature
-- Weight_Memory(numWeight
-- 64
-- neuronNo
-- 13
-- layerNo
-- 1
-- addressWidth
-- 6
-- dataWidth
-- 16
-- weightFile
-- "w_1_13.mif")
-- end_signature
WIDTH=16;
DEPTH=64;

ADDRESS_RADIX=UNS;
DATA_RADIX=BIN;

CONTENT BEGIN
	63 :	0000111111111100;
	62 :	0000010110110110;
	61 :	0000001111100101;
	60 :	1111101011100010;
	59 :	0000001101101011;
	58 :	0000000110101101;
	57 :	0000010100011010;
	56 :	0000001011001010;
	55 :	0000000000011000;
	54 :	1111100101011001;
	53 :	0000001101111101;
	52 :	1111100110111010;
	51 :	0000110001101100;
	50 :	0000100011011100;
	49 :	0000000001110110;
	48 :	1111110110000011;
	47 :	0000101101010101;
	46 :	1111000100000101;
	45 :	1111101001000100;
	44 :	1111101101010111;
	43 :	0001000111001000;
	42 :	0001101100100001;
	41 :	1111011010100010;
	40 :	1111100011000110;
	39 :	0000000110110001;
	38 :	1111000111110011;
	37 :	1111011001110011;
	36 :	0000001010001111;
	35 :	0000011011001011;
	34 :	0000000111111011;
	33 :	1111100000101111;
	32 :	0000000001001001;
	31 :	1111101111000011;
	30 :	1111011000011010;
	29 :	1111101111111001;
	28 :	1111101011101011;
	27 :	1111110111000100;
	26 :	1111110111000001;
	25 :	1111011010111000;
	24 :	1111100100100011;
	23 :	1111110010001100;
	22 :	1111111101011001;
	21 :	1111010011001001;
	20 :	1111000001111010;
	19 :	1111010101001111;
	18 :	0000010110111001;
	17 :	0000001011000010;
	16 :	0000010010111011;
	15 :	0000010011001011;
	14 :	0000000100111101;
	13 :	0000001010110010;
	12 :	1111111000000101;
	11 :	0000001000011011;
	10 :	0000100001100001;
	9 :	1111111110000001;
	8 :	0000010100000000;
	7 :	0000010110101111;
	6 :	0000001111100001;
	5 :	0000000101100001;
	4 :	1111110101011011;
	3 :	0000000001100000;
	2 :	0000001111100101;
	1 :	1111111010000101;
	0 :	0000000000010001;
END;
