-- begin_signature
-- Weight_Memory(numWeight
-- 45
-- neuronNo
-- 3
-- layerNo
-- 2
-- addressWidth
-- 6
-- dataWidth
-- 16
-- weightFile
-- "w_2_3.mif")
-- end_signature
WIDTH=16;
DEPTH=45;

ADDRESS_RADIX=UNS;
DATA_RADIX=BIN;

CONTENT BEGIN
	44 :	1111110000111010;
	43 :	0000000000100101;
	42 :	0000100110011111;
	41 :	0000010000001000;
	40 :	0000101010000011;
	39 :	0000000010100011;
	38 :	1111010100111110;
	37 :	0000000110000110;
	36 :	0000011100011110;
	35 :	1111101111000010;
	34 :	0000001101001010;
	33 :	1111000101010101;
	32 :	1111111111101010;
	31 :	0000100101010000;
	30 :	0000010111011111;
	29 :	0000101001111101;
	28 :	0000001101001100;
	27 :	1111110010100000;
	26 :	0000110101101011;
	25 :	0000000000011100;
	24 :	1111011100110011;
	23 :	1111000100110110;
	22 :	1111100110001011;
	21 :	1111110111010101;
	20 :	1111111100011100;
	19 :	1111111010001111;
	18 :	1111101100001000;
	17 :	0001000111011101;
	16 :	1111100010011001;
	15 :	0000001110111100;
	14 :	1111110001111101;
	13 :	0000011111100100;
	12 :	1110101110111011;
	11 :	1111110001011000;
	10 :	0000101001010110;
	9 :	1111100111000000;
	8 :	1111100101000001;
	7 :	1111110100001010;
	6 :	1111100010101001;
	5 :	0000100101100000;
	4 :	1111111011011010;
	3 :	1111010000011010;
	2 :	1111111111011000;
	1 :	0001000001010101;
	0 :	0000110101011111;
END;
