-- begin_signature
-- neuron(layerNo
-- 2
-- neuronNo
-- 13
-- numWeight
-- 45
-- dataWidth
-- 16
-- sigmoidSize
-- 5
-- weightIntWidth
-- 4
-- biasFile
-- "b_2_13.mif"
-- weightFile
-- "w_2_13.mif")
-- end_signature
WIDTH=32;
DEPTH=1;

ADDRESS_RADIX=UNS;
DATA_RADIX=BIN;

CONTENT BEGIN
	0 :	00000000000000000000000000100100;
END;
