-- begin_signature
-- Weight_Memory(numWeight
-- 64
-- neuronNo
-- 15
-- layerNo
-- 1
-- addressWidth
-- 6
-- dataWidth
-- 16
-- weightFile
-- "w_1_15.mif")
-- end_signature
WIDTH=16;
DEPTH=64;

ADDRESS_RADIX=UNS;
DATA_RADIX=BIN;

CONTENT BEGIN
	63 :	1111100110111101;
	62 :	0001001010010110;
	61 :	0000111101011011;
	60 :	0001000011010000;
	59 :	0000011010010100;
	58 :	0000000111110000;
	57 :	0000011110000111;
	56 :	0000011100001100;
	55 :	0000011100100110;
	54 :	0001010111001100;
	53 :	0000111111111000;
	52 :	0000011111000100;
	51 :	0000000001010111;
	50 :	1111100110101100;
	49 :	1111100100011101;
	48 :	1111110100111111;
	47 :	0000011110111101;
	46 :	0000011110011100;
	45 :	0000001001101110;
	44 :	1111110100111100;
	43 :	1111001110101000;
	42 :	1111001110101101;
	41 :	1111000110011101;
	40 :	1111100100110011;
	39 :	0000000100101011;
	38 :	1111000101111001;
	37 :	1111110011110101;
	36 :	1111111111110011;
	35 :	1111111110101100;
	34 :	1111101101100110;
	33 :	1111000110100011;
	32 :	1111110010000101;
	31 :	0000000000000010;
	30 :	1110111101100000;
	29 :	1111100110100010;
	28 :	0000011001100010;
	27 :	0000100001100011;
	26 :	0000001101110000;
	25 :	0000000111011101;
	24 :	0000000110001111;
	23 :	1111110101100011;
	22 :	1111100110000000;
	21 :	1111111101010001;
	20 :	0000000111010111;
	19 :	0000100001010011;
	18 :	0000011000000100;
	17 :	0000000111101011;
	16 :	0000011011011011;
	15 :	1111110001100001;
	14 :	1111111111001000;
	13 :	0000000110001111;
	12 :	1111110100101010;
	11 :	0000001101000001;
	10 :	1111110000101010;
	9 :	0000010100000101;
	8 :	1111110010010011;
	7 :	1111101010110101;
	6 :	0000000000010001;
	5 :	0000010011010111;
	4 :	1111111000011101;
	3 :	1111111100110000;
	2 :	1111110100100111;
	1 :	0000100101111101;
	0 :	0000000011010000;
END;
