-- begin_signature
-- Weight_Memory(numWeight
-- 45
-- neuronNo
-- 24
-- layerNo
-- 2
-- addressWidth
-- 6
-- dataWidth
-- 16
-- weightFile
-- "w_2_24.mif")
-- end_signature
WIDTH=16;
DEPTH=45;

ADDRESS_RADIX=UNS;
DATA_RADIX=BIN;

CONTENT BEGIN
	44 :	1111111100011010;
	43 :	1111010000111111;
	42 :	1111100101110010;
	41 :	1110110001111111;
	40 :	1111000101110001;
	39 :	1111110110001111;
	38 :	0000000111101101;
	37 :	1111100010110101;
	36 :	0000100100011010;
	35 :	0000001011111110;
	34 :	1111100001110100;
	33 :	1111110100100100;
	32 :	1111011010101110;
	31 :	0000000000101100;
	30 :	1111111001101100;
	29 :	0001001000010011;
	28 :	0000001001000101;
	27 :	0000000010100110;
	26 :	0000010101101111;
	25 :	0000010000111111;
	24 :	1111111010001011;
	23 :	0000011101011100;
	22 :	0001001011110101;
	21 :	0000100101111101;
	20 :	1111001111100011;
	19 :	1111100011100011;
	18 :	0000010011100011;
	17 :	0001001000000010;
	16 :	1111111101111010;
	15 :	1111101011100111;
	14 :	0000001110101110;
	13 :	0000010001010010;
	12 :	1111010101011000;
	11 :	1111000001101111;
	10 :	0000010000001100;
	9 :	1111111110101000;
	8 :	0000010010110111;
	7 :	1111100111011110;
	6 :	0000001011001000;
	5 :	1111010110010000;
	4 :	1111100001111101;
	3 :	0000111100110001;
	2 :	1111100100000010;
	1 :	0000011101101000;
	0 :	1111111111111101;
END;
