-- begin_signature
-- Weight_Memory(numWeight
-- 64
-- neuronNo
-- 36
-- layerNo
-- 1
-- addressWidth
-- 6
-- dataWidth
-- 16
-- weightFile
-- "w_1_36.mif")
-- end_signature
WIDTH=16;
DEPTH=64;

ADDRESS_RADIX=UNS;
DATA_RADIX=BIN;

CONTENT BEGIN
	63 :	1111111010001111;
	62 :	0000010001010111;
	61 :	0000010100001110;
	60 :	1111111100110100;
	59 :	1111100101110011;
	58 :	1110111100111000;
	57 :	1110110000001101;
	56 :	1111101011001101;
	55 :	1111110001001011;
	54 :	0000010101100111;
	53 :	1111110011111010;
	52 :	1111011110100000;
	51 :	0000000100100000;
	50 :	1111110000010010;
	49 :	1111111110100000;
	48 :	0000000010110001;
	47 :	0000101111100011;
	46 :	0000101110001001;
	45 :	0000010001001010;
	44 :	0000101000000101;
	43 :	0000011001111100;
	42 :	0000011110101010;
	41 :	0000100001000100;
	40 :	0000100101110010;
	39 :	0000001010110000;
	38 :	0000010100110001;
	37 :	0000011110111101;
	36 :	0000011110101001;
	35 :	0000011010101000;
	34 :	0000101010101110;
	33 :	0000010101000101;
	32 :	1111110110010101;
	31 :	0000101010011111;
	30 :	0000001010011010;
	29 :	1111110101110001;
	28 :	1111101100110111;
	27 :	0000001111101100;
	26 :	0000010111000110;
	25 :	0000000010001010;
	24 :	0000010010110110;
	23 :	0000110000010010;
	22 :	1111101011110000;
	21 :	1111010010000111;
	20 :	1111011000100101;
	19 :	0000100010100100;
	18 :	0000010001111110;
	17 :	1111001110000011;
	16 :	1111101101100011;
	15 :	0000001011001000;
	14 :	1111100100000001;
	13 :	1110111111111010;
	12 :	1111001001100001;
	11 :	1111110000101101;
	10 :	1111001101111111;
	9 :	1110101011000001;
	8 :	0000001011000001;
	7 :	0000011100010010;
	6 :	1111010011000001;
	5 :	1110100101000001;
	4 :	1111110110110000;
	3 :	1111101100101111;
	2 :	1110011010110100;
	1 :	1110110100010000;
	0 :	0000000110101100;
END;
