-- begin_signature
-- Weight_Memory(numWeight
-- 64
-- neuronNo
-- 32
-- layerNo
-- 1
-- addressWidth
-- 6
-- dataWidth
-- 16
-- weightFile
-- "w_1_32.mif")
-- end_signature
WIDTH=16;
DEPTH=64;

ADDRESS_RADIX=UNS;
DATA_RADIX=BIN;

CONTENT BEGIN
	63 :	1111100100100011;
	62 :	0000011000110101;
	61 :	0000011000100011;
	60 :	0000000111100010;
	59 :	0000100101001101;
	58 :	0000101100101100;
	57 :	0001001111111010;
	56 :	0000010011101010;
	55 :	1111001010111111;
	54 :	0000101111100110;
	53 :	0000110001110101;
	52 :	0000001100001110;
	51 :	0000001010100101;
	50 :	0000100011000101;
	49 :	0000010011011001;
	48 :	0000000010110011;
	47 :	0000100110010101;
	46 :	0000000011011000;
	45 :	1111111100001110;
	44 :	1111100110111000;
	43 :	1111110110110011;
	42 :	0000000010001100;
	41 :	0000000100111110;
	40 :	1111100001011101;
	39 :	1111110011000001;
	38 :	1111010001001100;
	37 :	1111110100010110;
	36 :	0000100011101101;
	35 :	0000011010010110;
	34 :	0000000000111111;
	33 :	1111111010100001;
	32 :	1111110101101101;
	31 :	1111101010110000;
	30 :	1110011001110101;
	29 :	1111010001000010;
	28 :	0000001100111101;
	27 :	1111101100000000;
	26 :	1111011000011010;
	25 :	1111000101101011;
	24 :	1111010100010001;
	23 :	1111110011111011;
	22 :	1111101100010001;
	21 :	1111001111101111;
	20 :	1111010010101111;
	19 :	1110110001011000;
	18 :	1111111000001000;
	17 :	1111111111001000;
	16 :	1111101101010000;
	15 :	0000010011000101;
	14 :	0000100100110111;
	13 :	1111101111001001;
	12 :	1111100001101111;
	11 :	0000000000101000;
	10 :	0000100101010001;
	9 :	0000011001000010;
	8 :	1111101110110111;
	7 :	1111101000100111;
	6 :	0000101000000001;
	5 :	0000110101010000;
	4 :	0000100011011000;
	3 :	1111111000111010;
	2 :	0000101111100111;
	1 :	0001001010010101;
	0 :	1111110100111101;
END;
