-- begin_signature
-- Weight_Memory(numWeight
-- 45
-- neuronNo
-- 29
-- layerNo
-- 2
-- addressWidth
-- 6
-- dataWidth
-- 16
-- weightFile
-- "w_2_29.mif")
-- end_signature
WIDTH=16;
DEPTH=45;

ADDRESS_RADIX=UNS;
DATA_RADIX=BIN;

CONTENT BEGIN
	44 :	0000101111011000;
	43 :	1111100000101000;
	42 :	0000010010011011;
	41 :	1111101100011000;
	40 :	1111010010010111;
	39 :	0001000100011000;
	38 :	0000000000011000;
	37 :	0000000100110100;
	36 :	0000111010110100;
	35 :	0000010000100101;
	34 :	1111110110011000;
	33 :	0000001110010111;
	32 :	1111100100011001;
	31 :	0000110101110001;
	30 :	0000000011100101;
	29 :	0000000100001000;
	28 :	0000100100011000;
	27 :	1111111010110010;
	26 :	0000010100000011;
	25 :	1111100010110100;
	24 :	1111111110011111;
	23 :	0000111011110110;
	22 :	0000100011110000;
	21 :	1111100110101010;
	20 :	1110101011000011;
	19 :	0000000011010001;
	18 :	0001000011110110;
	17 :	1111110000100011;
	16 :	1111011010100110;
	15 :	1111101111000000;
	14 :	0000011011110100;
	13 :	0000000101000111;
	12 :	1111100110110111;
	11 :	0000100100001110;
	10 :	1111010011110001;
	9 :	0000010111101101;
	8 :	1111101101001011;
	7 :	1110111100100101;
	6 :	1111111011011000;
	5 :	1110101010000100;
	4 :	0000010110010010;
	3 :	0000010101100110;
	2 :	1111100101110111;
	1 :	1111100000110010;
	0 :	1111010000111000;
END;
