-- begin_signature
-- Weight_Memory(numWeight
-- 64
-- neuronNo
-- 7
-- layerNo
-- 1
-- addressWidth
-- 6
-- dataWidth
-- 16
-- weightFile
-- "w_1_7.mif")
-- end_signature
WIDTH=16;
DEPTH=64;

ADDRESS_RADIX=UNS;
DATA_RADIX=BIN;

CONTENT BEGIN
	63 :	1111001000001000;
	62 :	1111111111110001;
	61 :	0000000001110100;
	60 :	0000010111000100;
	59 :	0000001011110000;
	58 :	1111110111011011;
	57 :	1111111011111100;
	56 :	0000001001101000;
	55 :	1111101001110111;
	54 :	0000010101010011;
	53 :	0000001110110100;
	52 :	0000000011110110;
	51 :	1111001001100111;
	50 :	1111101001111111;
	49 :	0000000000100010;
	48 :	1111111100010000;
	47 :	1111011110101011;
	46 :	0000001011110101;
	45 :	0000011111000100;
	44 :	1111001101000101;
	43 :	1110011000000101;
	42 :	1110100001011011;
	41 :	1111101000000001;
	40 :	1111111011010100;
	39 :	1111111100010010;
	38 :	1111101111001110;
	37 :	1111111001101111;
	36 :	1111011111011001;
	35 :	1111111011011010;
	34 :	1111011011011101;
	33 :	1110101001101111;
	32 :	1111111011111010;
	31 :	1111100010010101;
	30 :	1111011101000001;
	29 :	0000010111000010;
	28 :	0000010001100101;
	27 :	0000011110101101;
	26 :	1111111011101101;
	25 :	1111111010111110;
	24 :	0000000001011101;
	23 :	1111101111011111;
	22 :	0000000100011000;
	21 :	0000011011101100;
	20 :	0000100111010010;
	19 :	1111110100010111;
	18 :	1111111000000011;
	17 :	0000000111100011;
	16 :	0000001000001011;
	15 :	1111100111010101;
	14 :	0000001101100011;
	13 :	0000010110011010;
	12 :	0000000011101001;
	11 :	0000000100011010;
	10 :	0000000110100110;
	9 :	1111111110001001;
	8 :	1111110010000001;
	7 :	1111110001010010;
	6 :	0000001001110110;
	5 :	0000010000110110;
	4 :	0000000001110110;
	3 :	1111111100010010;
	2 :	1111101000010111;
	1 :	0000001000100000;
	0 :	1111111000010001;
END;
