-- begin_signature
-- Weight_Memory(numWeight
-- 45
-- neuronNo
-- 19
-- layerNo
-- 2
-- addressWidth
-- 6
-- dataWidth
-- 16
-- weightFile
-- "w_2_19.mif")
-- end_signature
WIDTH=16;
DEPTH=45;

ADDRESS_RADIX=UNS;
DATA_RADIX=BIN;

CONTENT BEGIN
	44 :	0000100110011000;
	43 :	1111011001110011;
	42 :	0000001101011011;
	41 :	1111110001111001;
	40 :	0000001110000100;
	39 :	1111100110000000;
	38 :	1111001011011101;
	37 :	0000000000001001;
	36 :	0000000010001110;
	35 :	0000000010001110;
	34 :	0000000011000111;
	33 :	0000001000010010;
	32 :	0000000101101100;
	31 :	0000000101000101;
	30 :	0001001001100101;
	29 :	0000000111110110;
	28 :	0001001011100010;
	27 :	0000000100101101;
	26 :	0000110010110100;
	25 :	0000000111110100;
	24 :	0000010100101110;
	23 :	1111101001101101;
	22 :	1111110010011101;
	21 :	1111101101110000;
	20 :	1111010010011111;
	19 :	0000000110001110;
	18 :	0000000100101110;
	17 :	0000001010111101;
	16 :	1111101010010110;
	15 :	1111100001110100;
	14 :	0000010001110001;
	13 :	0001000101101100;
	12 :	1111000001011110;
	11 :	0001000001100111;
	10 :	0000011100011110;
	9 :	1111101101011010;
	8 :	1111011111011101;
	7 :	1111001100001000;
	6 :	1111011101010110;
	5 :	1111110110101100;
	4 :	0000001001111001;
	3 :	1111101000111010;
	2 :	0000101010010011;
	1 :	0000011010100100;
	0 :	0000000010010111;
END;
