-- begin_signature
-- Weight_Memory(numWeight
-- 64
-- neuronNo
-- 17
-- layerNo
-- 1
-- addressWidth
-- 6
-- dataWidth
-- 16
-- weightFile
-- "w_1_17.mif")
-- end_signature
WIDTH=16;
DEPTH=64;

ADDRESS_RADIX=UNS;
DATA_RADIX=BIN;

CONTENT BEGIN
	63 :	1111111101000000;
	62 :	1111100000100011;
	61 :	0000001001111110;
	60 :	0000100100010110;
	59 :	1111100101110111;
	58 :	1111000110101100;
	57 :	1110110111111111;
	56 :	1111110111100100;
	55 :	0000001000101011;
	54 :	1111111111010101;
	53 :	1111110001111101;
	52 :	1111100100101000;
	51 :	1111010110111111;
	50 :	1111110110110100;
	49 :	1111110001101010;
	48 :	1111111110011011;
	47 :	1111111001111100;
	46 :	0000010110001101;
	45 :	0000010101100100;
	44 :	0000001000110010;
	43 :	1111101010110101;
	42 :	0000011011011100;
	41 :	1111101000000111;
	40 :	0000100101100111;
	39 :	1111111101011010;
	38 :	0000011000000010;
	37 :	1111111001110111;
	36 :	1111100011100110;
	35 :	0000001101000101;
	34 :	0000011101011000;
	33 :	1111101111010111;
	32 :	1111111010011110;
	31 :	0000100111111000;
	30 :	0000101101100000;
	29 :	0000110000000001;
	28 :	0000001011001111;
	27 :	0001100000001011;
	26 :	0001010111010111;
	25 :	0000110100010010;
	24 :	0000010001111000;
	23 :	1111110111011110;
	22 :	0000001010001101;
	21 :	0000101010010100;
	20 :	0000000100101100;
	19 :	0001000111101001;
	18 :	0000111101110001;
	17 :	0000000101111001;
	16 :	0000001010000001;
	15 :	1111001111101011;
	14 :	1111011101011000;
	13 :	1111110110100011;
	12 :	1111001011101101;
	11 :	1111101100101100;
	10 :	1111100000000011;
	9 :	1111000100000011;
	8 :	0000010110010000;
	7 :	1111100001001011;
	6 :	1110111100010101;
	5 :	1110110100111111;
	4 :	1111011101110101;
	3 :	1111101010011100;
	2 :	1111011000110110;
	1 :	1110100000110101;
	0 :	0000001001000101;
END;
