-- begin_signature
-- Weight_Memory(numWeight
-- 45
-- neuronNo
-- 2
-- layerNo
-- 2
-- addressWidth
-- 6
-- dataWidth
-- 16
-- weightFile
-- "w_2_2.mif")
-- end_signature
WIDTH=16;
DEPTH=45;

ADDRESS_RADIX=UNS;
DATA_RADIX=BIN;

CONTENT BEGIN
	44 :	0000011111011101;
	43 :	0000111000001101;
	42 :	0000010111000010;
	41 :	0000011001011111;
	40 :	0000101100111110;
	39 :	0001011100011010;
	38 :	0000011011010001;
	37 :	1111111001111110;
	36 :	1111110101011000;
	35 :	1111100110111110;
	34 :	0000100100001011;
	33 :	0000001101000100;
	32 :	1111111000100001;
	31 :	0000011000101000;
	30 :	1111101100010111;
	29 :	1111110101000011;
	28 :	1111010101110100;
	27 :	1111010011101100;
	26 :	1111011110011101;
	25 :	1111000111111111;
	24 :	1111011111111101;
	23 :	0000101101011000;
	22 :	1111100110010100;
	21 :	1111110101010110;
	20 :	0001000101111000;
	19 :	0000001010111010;
	18 :	0000001111101110;
	17 :	1111101111110110;
	16 :	1111111110110000;
	15 :	0000010000000010;
	14 :	0000010101110011;
	13 :	1111011111000101;
	12 :	0001000001101000;
	11 :	0000000100010111;
	10 :	1111111101011110;
	9 :	0001101000011101;
	8 :	1111100010001101;
	7 :	0000100010110001;
	6 :	1111100100111010;
	5 :	0000101000101001;
	4 :	0000011001101011;
	3 :	1111101111101111;
	2 :	1111100101000101;
	1 :	1111110000010110;
	0 :	0000001101011011;
END;
