-- begin_signature
-- Weight_Memory(numWeight
-- 45
-- neuronNo
-- 14
-- layerNo
-- 2
-- addressWidth
-- 6
-- dataWidth
-- 16
-- weightFile
-- "w_2_14.mif")
-- end_signature
WIDTH=16;
DEPTH=45;

ADDRESS_RADIX=UNS;
DATA_RADIX=BIN;

CONTENT BEGIN
	44 :	1111011111000111;
	43 :	0000010100010100;
	42 :	1111111100111000;
	41 :	0000101001101110;
	40 :	0001000010001010;
	39 :	0000010101000000;
	38 :	1111110100111000;
	37 :	0001000010011101;
	36 :	1111000011000100;
	35 :	1111110010011100;
	34 :	0000011111001011;
	33 :	0000001010101001;
	32 :	0000101100111111;
	31 :	1111011110111011;
	30 :	0000011111101100;
	29 :	1111000111001110;
	28 :	0000010000001010;
	27 :	0000100111010111;
	26 :	1111101000111010;
	25 :	0000000000011101;
	24 :	0000101000111010;
	23 :	1111011000101010;
	22 :	1111001111110011;
	21 :	1111001000100111;
	20 :	0000010011111001;
	19 :	0001010010111101;
	18 :	0000000001101110;
	17 :	1110101100000111;
	16 :	0000001101110111;
	15 :	1111110010010010;
	14 :	0000000111001011;
	13 :	0000100010101000;
	12 :	1111111011110110;
	11 :	0000000100000011;
	10 :	1111001110101111;
	9 :	0000000001110110;
	8 :	0000000111011100;
	7 :	1111110101001100;
	6 :	0000011101111010;
	5 :	0000111101001110;
	4 :	0000110111101010;
	3 :	1111101001100101;
	2 :	0001000010100001;
	1 :	1111101000101111;
	0 :	1110110111100100;
END;
