-- begin_signature
-- Weight_Memory(numWeight
-- 45
-- neuronNo
-- 30
-- layerNo
-- 2
-- addressWidth
-- 6
-- dataWidth
-- 16
-- weightFile
-- "w_2_30.mif")
-- end_signature
WIDTH=16;
DEPTH=45;

ADDRESS_RADIX=UNS;
DATA_RADIX=BIN;

CONTENT BEGIN
	44 :	1111010110100101;
	43 :	1111011100111111;
	42 :	1110101100010000;
	41 :	1111101110001111;
	40 :	0000001000010000;
	39 :	1111111000100001;
	38 :	0000001000100110;
	37 :	1111100110110101;
	36 :	1111010110011101;
	35 :	0000010010001000;
	34 :	1111101110101101;
	33 :	0001000111111000;
	32 :	0000100110100111;
	31 :	1110100010110000;
	30 :	0000100010110000;
	29 :	0000000011110011;
	28 :	0000100000001011;
	27 :	1111101011001000;
	26 :	1111110111110110;
	25 :	0000010110000101;
	24 :	0001001110011000;
	23 :	0000000100011001;
	22 :	1111101111010010;
	21 :	1111100110001100;
	20 :	1111011001001101;
	19 :	0001000101000110;
	18 :	0000000001100111;
	17 :	1110101000100101;
	16 :	0000101101001100;
	15 :	0000000001001001;
	14 :	1111101011101011;
	13 :	0000110101110011;
	12 :	1111100100111110;
	11 :	1111110101011111;
	10 :	1111110100100011;
	9 :	0000100000100111;
	8 :	0000000001110010;
	7 :	1111101111100100;
	6 :	1111110101110101;
	5 :	0000001110000101;
	4 :	1111111000010110;
	3 :	0000010101110010;
	2 :	0000000100011110;
	1 :	1111100000100111;
	0 :	1111011101010000;
END;
