-- begin_signature
-- Weight_Memory(numWeight
-- 37
-- neuronNo
-- 7
-- layerNo
-- 3
-- addressWidth
-- 6
-- dataWidth
-- 16
-- weightFile
-- "w_3_7.mif")
-- end_signature
WIDTH=16;
DEPTH=37;

ADDRESS_RADIX=UNS;
DATA_RADIX=BIN;

CONTENT BEGIN
	36 :	1110010101111000;
	35 :	0000101110100010;
	34 :	1111110011100111;
	33 :	1110110100000111;
	32 :	1110110000011111;
	31 :	1111000010000001;
	30 :	0000001111101011;
	29 :	1110111001000101;
	28 :	1111011011101010;
	27 :	0000001000010101;
	26 :	0000001010101011;
	25 :	0000100111000101;
	24 :	0000011101001011;
	23 :	0000100111010100;
	22 :	0000011000111111;
	21 :	0000001001001011;
	20 :	0000101000110000;
	19 :	1110110100100100;
	18 :	1110101001101111;
	17 :	1110011110110000;
	16 :	0000010100011101;
	15 :	0000000101001001;
	14 :	0000001001000011;
	13 :	0000001101000000;
	12 :	1110101010010111;
	11 :	1110100001111010;
	10 :	1110001001010010;
	9 :	1111100101101110;
	8 :	0000110100111010;
	7 :	0000011011001010;
	6 :	1111001000010000;
	5 :	0000101100011111;
	4 :	0000111000011000;
	3 :	1111010000011001;
	2 :	1110001010010000;
	1 :	1110011001111101;
	0 :	0000101011001011;
END;
