-- begin_signature
-- Weight_Memory(numWeight
-- 45
-- neuronNo
-- 4
-- layerNo
-- 2
-- addressWidth
-- 6
-- dataWidth
-- 16
-- weightFile
-- "w_2_4.mif")
-- end_signature
WIDTH=16;
DEPTH=45;

ADDRESS_RADIX=UNS;
DATA_RADIX=BIN;

CONTENT BEGIN
	44 :	0000011100001100;
	43 :	0000111010001101;
	42 :	1111111100100000;
	41 :	0000000110011101;
	40 :	0000100101010100;
	39 :	0001011111011101;
	38 :	0000010100111011;
	37 :	0000010111110101;
	36 :	0000010011111101;
	35 :	0000000100100100;
	34 :	0000100110001101;
	33 :	1111011101011000;
	32 :	1111100101111011;
	31 :	0000001111001110;
	30 :	1111010001011001;
	29 :	0000011001111001;
	28 :	1111011101001110;
	27 :	1111010101001101;
	26 :	1111101100100011;
	25 :	1110101100010000;
	24 :	1111010000101001;
	23 :	0000101000101001;
	22 :	1111010100011111;
	21 :	1111100011011011;
	20 :	0000100000110010;
	19 :	0000011001011001;
	18 :	0000101011011111;
	17 :	0000101010100000;
	16 :	1111111110100000;
	15 :	1111111000110111;
	14 :	0000001011010011;
	13 :	1111010111111111;
	12 :	1111110111110111;
	11 :	1111111010110110;
	10 :	1111100111011110;
	9 :	0001011010001111;
	8 :	1111001011001111;
	7 :	0000010010001111;
	6 :	1111011101110101;
	5 :	1111111101110011;
	4 :	0000011000111111;
	3 :	1111101010101100;
	2 :	1111110000110001;
	1 :	0000110100001111;
	0 :	0000010011001011;
END;
