-- begin_signature
-- Weight_Memory(numWeight
-- 64
-- neuronNo
-- 21
-- layerNo
-- 1
-- addressWidth
-- 6
-- dataWidth
-- 16
-- weightFile
-- "w_1_21.mif")
-- end_signature
WIDTH=16;
DEPTH=64;

ADDRESS_RADIX=UNS;
DATA_RADIX=BIN;

CONTENT BEGIN
	63 :	0001011010000101;
	62 :	0000101111011010;
	61 :	0000100110011100;
	60 :	0000010000111000;
	59 :	1111101110100011;
	58 :	1111001010000011;
	57 :	1111010100011010;
	56 :	1111111110011000;
	55 :	0001000001000101;
	54 :	1111101010011100;
	53 :	0000001011010000;
	52 :	0000010001001010;
	51 :	1111110001000111;
	50 :	1111111010011000;
	49 :	0000001100010111;
	48 :	0000011000101111;
	47 :	1111010010010010;
	46 :	1110100111110011;
	45 :	1111011011010111;
	44 :	0000010100110100;
	43 :	0000100001011011;
	42 :	0000010010011001;
	41 :	0000010000100111;
	40 :	0000010111100001;
	39 :	0000001110101100;
	38 :	1111001000101010;
	37 :	1111011001011001;
	36 :	1111111101010001;
	35 :	0000000000100001;
	34 :	1111101101110111;
	33 :	1111100111101101;
	32 :	0000000001111111;
	31 :	0000011100001000;
	30 :	0000010110101110;
	29 :	0000011101011100;
	28 :	0000011111001101;
	27 :	0000001011010101;
	26 :	0000010010100111;
	25 :	0000001100001101;
	24 :	0000001100011111;
	23 :	0000011001111100;
	22 :	0000111001110110;
	21 :	0000110100010101;
	20 :	0000100101010011;
	19 :	0000100101110000;
	18 :	0000011111011101;
	17 :	0000011000000010;
	16 :	0000010110000001;
	15 :	1111100010110011;
	14 :	1111101101101011;
	13 :	0000000010100011;
	12 :	0000001110011011;
	11 :	1111101000001000;
	10 :	1111100101001101;
	9 :	1111111000111001;
	8 :	0000001001111011;
	7 :	1111100101100101;
	6 :	1111000111011101;
	5 :	1111100001111010;
	4 :	1111011110001000;
	3 :	1111101110010111;
	2 :	1111101011000111;
	1 :	1111001101111010;
	0 :	1111110010011100;
END;
