-- begin_signature
-- Weight_Memory(numWeight
-- 64
-- neuronNo
-- 8
-- layerNo
-- 1
-- addressWidth
-- 6
-- dataWidth
-- 16
-- weightFile
-- "w_1_8.mif")
-- end_signature
WIDTH=16;
DEPTH=64;

ADDRESS_RADIX=UNS;
DATA_RADIX=BIN;

CONTENT BEGIN
	63 :	0000011011101000;
	62 :	0000011110101011;
	61 :	0000111010101100;
	60 :	0000101101100001;
	59 :	1111111000100000;
	58 :	1111100101101100;
	57 :	1111100100010000;
	56 :	0000000101101001;
	55 :	0000001001001011;
	54 :	0000101001110000;
	53 :	0000111010001111;
	52 :	0000011000000100;
	51 :	1111110111110011;
	50 :	0000001110100111;
	49 :	1111101011111110;
	48 :	1111110100110100;
	47 :	0000000101110110;
	46 :	0000000011111100;
	45 :	1111101000110110;
	44 :	0000000000111100;
	43 :	0000001110000000;
	42 :	0000010001001100;
	41 :	1111011001001101;
	40 :	1111101001000010;
	39 :	0000000101110000;
	38 :	1110101100100010;
	37 :	1111011011100110;
	36 :	0000010001101111;
	35 :	0000100001000011;
	34 :	1111110110101001;
	33 :	1111001110010011;
	32 :	1111111100100111;
	31 :	1111110010010101;
	30 :	1110100100100110;
	29 :	1111101010110110;
	28 :	0000010001000101;
	27 :	0000001110111001;
	26 :	1111001101110010;
	25 :	1111001110001000;
	24 :	1111111101110010;
	23 :	1111101011110100;
	22 :	0000010010011011;
	21 :	0000100000100000;
	20 :	0001001000011000;
	19 :	1111111110000101;
	18 :	1111010100010110;
	17 :	1111111111111000;
	16 :	0000100101110111;
	15 :	1111110100010100;
	14 :	0000000011001111;
	13 :	0000010101000001;
	12 :	0000000001101011;
	11 :	1111111100100001;
	10 :	1111101110011001;
	9 :	1111110000110010;
	8 :	1111110001000110;
	7 :	1111011001011010;
	6 :	1111000011100011;
	5 :	0000000110011000;
	4 :	1111111001111111;
	3 :	1111111110101011;
	2 :	1111011110000011;
	1 :	1111101110100011;
	0 :	1111111101101011;
END;
