-- begin_signature
-- Weight_Memory(numWeight
-- 40
-- neuronNo
-- 6
-- layerNo
-- 3
-- addressWidth
-- 6
-- dataWidth
-- 16
-- weightFile
-- "w_3_6.mif")
-- end_signature
WIDTH=16;
DEPTH=40;

ADDRESS_RADIX=UNS;
DATA_RADIX=BIN;

CONTENT BEGIN
	39 :	0001000100101001;
	38 :	1111001111101001;
	37 :	0000001011001000;
	36 :	0000001110101100;
	35 :	0000001000000010;
	34 :	1110110000111100;
	33 :	0000101000111100;
	32 :	0000010100011111;
	31 :	1110101001111011;
	30 :	1110101101001011;
	29 :	0000101001100110;
	28 :	1111001100111110;
	27 :	1110001011000111;
	26 :	0000111100110101;
	25 :	1111111011011001;
	24 :	0000000111110010;
	23 :	0000000001111001;
	22 :	0000110011111110;
	21 :	0000010000100010;
	20 :	1101111110001100;
	19 :	1111110110101110;
	18 :	0000101001111110;
	17 :	0000000111000111;
	16 :	0000011110010100;
	15 :	1111101101001101;
	14 :	1111011001000111;
	13 :	1110100111110010;
	12 :	0000000001000010;
	11 :	1110100110111101;
	10 :	1111111010111000;
	9 :	0000111101001000;
	8 :	0000101101001111;
	7 :	1111100010000011;
	6 :	1110111000001001;
	5 :	1111111010100000;
	4 :	1110100110011000;
	3 :	1111111011011111;
	2 :	1110010010111000;
	1 :	0000001010001001;
	0 :	0000010111001111;
END;
