-- begin_signature
-- Weight_Memory(numWeight
-- 45
-- neuronNo
-- 35
-- layerNo
-- 2
-- addressWidth
-- 6
-- dataWidth
-- 16
-- weightFile
-- "w_2_35.mif")
-- end_signature
WIDTH=16;
DEPTH=45;

ADDRESS_RADIX=UNS;
DATA_RADIX=BIN;

CONTENT BEGIN
	44 :	1111111100110110;
	43 :	0000000110110110;
	42 :	0000000010111101;
	41 :	1111100000101001;
	40 :	1111011100111001;
	39 :	0000000001001000;
	38 :	0000100110011101;
	37 :	0000000000001011;
	36 :	0000101111101001;
	35 :	0000010101110001;
	34 :	1111101001000000;
	33 :	0000001010110010;
	32 :	1111111000110110;
	31 :	0000101001101010;
	30 :	1111001101010111;
	29 :	1111100100111101;
	28 :	1111011001011001;
	27 :	1111111111100110;
	26 :	1111001010111010;
	25 :	0000000101100011;
	24 :	1111110100000110;
	23 :	0000110001010101;
	22 :	0000100110010111;
	21 :	0000100011010011;
	20 :	0000011101111110;
	19 :	1111011110100011;
	18 :	0000000111011001;
	17 :	0000001100111101;
	16 :	1111111111110011;
	15 :	0000100100101001;
	14 :	1111111010110011;
	13 :	1111000111101010;
	12 :	0001001000000101;
	11 :	1111111001100000;
	10 :	0000000010001110;
	9 :	1111100111010110;
	8 :	0000110001011111;
	7 :	0000010111001111;
	6 :	0000011011101001;
	5 :	1111011101101110;
	4 :	1111011011011011;
	3 :	0000010110110110;
	2 :	1111101110000101;
	1 :	1111010101100001;
	0 :	0000011000001001;
END;
