-- begin_signature
-- Weight_Memory(numWeight
-- 45
-- neuronNo
-- 0
-- layerNo
-- 2
-- addressWidth
-- 6
-- dataWidth
-- 16
-- weightFile
-- "w_2_0.mif")
-- end_signature
WIDTH=16;
DEPTH=45;

ADDRESS_RADIX=UNS;
DATA_RADIX=BIN;

CONTENT BEGIN
	44 :	0000100000100000;
	43 :	1111001001101100;
	42 :	1111110111011101;
	41 :	1111000000111010;
	40 :	1111000001110100;
	39 :	1111101001110111;
	38 :	1111111001000111;
	37 :	1111111011111000;
	36 :	0000100010000001;
	35 :	0000010111110110;
	34 :	1111101111110001;
	33 :	1111111101011000;
	32 :	1111010011011101;
	31 :	1111110100011010;
	30 :	1111110110100010;
	29 :	0000111110011011;
	28 :	1111111111110111;
	27 :	1111111001101101;
	26 :	0000101111100110;
	25 :	0000001101010001;
	24 :	1111101000101000;
	23 :	0000011101010101;
	22 :	0001000010110010;
	21 :	0000011001110001;
	20 :	1111001110110111;
	19 :	1111100100110001;
	18 :	0000010001001001;
	17 :	0000101100111011;
	16 :	0000001011001101;
	15 :	1111101111101111;
	14 :	0000000111011101;
	13 :	0000000010011000;
	12 :	1111010111010100;
	11 :	1111110010000101;
	10 :	0000011010000100;
	9 :	1111101010010111;
	8 :	0000000101011101;
	7 :	1111101100111011;
	6 :	1111111110000110;
	5 :	1111001100101110;
	4 :	1111011110111111;
	3 :	0000100110111101;
	2 :	1111011100000111;
	1 :	0000010101100001;
	0 :	0000011011010001;
END;
