-- begin_signature
-- Weight_Memory(numWeight
-- 64
-- neuronNo
-- 44
-- layerNo
-- 1
-- addressWidth
-- 6
-- dataWidth
-- 16
-- weightFile
-- "w_1_44.mif")
-- end_signature
WIDTH=16;
DEPTH=64;

ADDRESS_RADIX=UNS;
DATA_RADIX=BIN;

CONTENT BEGIN
	63 :	1111110011101010;
	62 :	1111110101010010;
	61 :	1111111010011101;
	60 :	1111100110111100;
	59 :	0000001010100100;
	58 :	0000000101111110;
	57 :	1111111001100101;
	56 :	1111100110001111;
	55 :	0000000000101010;
	54 :	1111101110111110;
	53 :	1111110010000100;
	52 :	1111111010000001;
	51 :	0000100011101010;
	50 :	1111101101000001;
	49 :	1111110101110001;
	48 :	1111101100001001;
	47 :	0000001101101000;
	46 :	0000011101001001;
	45 :	0000000001101110;
	44 :	0000100010110100;
	43 :	0000100010011111;
	42 :	1111111101100011;
	41 :	0000011001010011;
	40 :	0000010101101110;
	39 :	0000000111111000;
	38 :	0001010011011001;
	37 :	0000011011101101;
	36 :	1111110110011010;
	35 :	1111101100001100;
	34 :	0000110010010110;
	33 :	0001001000111111;
	32 :	1111111001111010;
	31 :	0000100101111100;
	30 :	0000111000111001;
	29 :	1111111011010000;
	28 :	1111011100110001;
	27 :	1111111011111110;
	26 :	0000101001110000;
	25 :	0000110000010111;
	24 :	0000001100011001;
	23 :	1111110011101010;
	22 :	1111101110010100;
	21 :	1111010001010010;
	20 :	1111010010110001;
	19 :	0000011101011111;
	18 :	0000000100011000;
	17 :	1111110001101001;
	16 :	1111011101100100;
	15 :	1111110100001110;
	14 :	1111001111111110;
	13 :	1111001100110001;
	12 :	1111101101001111;
	11 :	0000001110100010;
	10 :	1111100111101100;
	9 :	1111010010001111;
	8 :	0000000100000101;
	7 :	0000010010100001;
	6 :	0000001100100010;
	5 :	1111100111010100;
	4 :	1111111011011100;
	3 :	1111110011111100;
	2 :	0000000110000000;
	1 :	0000001100111100;
	0 :	1111111111100000;
END;
