-- begin_signature
-- Weight_Memory(numWeight
-- 37
-- neuronNo
-- 0
-- layerNo
-- 3
-- addressWidth
-- 6
-- dataWidth
-- 16
-- weightFile
-- "w_3_0.mif")
-- end_signature
WIDTH=16;
DEPTH=37;

ADDRESS_RADIX=UNS;
DATA_RADIX=BIN;

CONTENT BEGIN
	36 :	0000110001100100;
	35 :	0000001111101010;
	34 :	1111011111010111;
	33 :	0000110011100111;
	32 :	0000110111001101;
	31 :	1111011110010111;
	30 :	1110000010001111;
	29 :	0001000000001011;
	28 :	0000001110001100;
	27 :	1110010001010101;
	26 :	1111111110000001;
	25 :	1110111001000101;
	24 :	1110101111011101;
	23 :	1111100011011000;
	22 :	0000011111100010;
	21 :	0000100111010111;
	20 :	1110001010100010;
	19 :	0000110100111010;
	18 :	0000100010101001;
	17 :	1111001111110101;
	16 :	0000001000110110;
	15 :	1110101001101111;
	14 :	1111111011111100;
	13 :	0000001111001101;
	12 :	0000101001111000;
	11 :	0000001110010010;
	10 :	0000100011010011;
	9 :	1110101011110000;
	8 :	1110011011101010;
	7 :	1110100011110100;
	6 :	0000001000000010;
	5 :	0000011110100100;
	4 :	1111111110111100;
	3 :	1111001100001101;
	2 :	1110111011011011;
	1 :	0000000000001100;
	0 :	1110100001101000;
END;
