-- begin_signature
-- Weight_Memory(numWeight
-- 40
-- neuronNo
-- 9
-- layerNo
-- 3
-- addressWidth
-- 6
-- dataWidth
-- 16
-- weightFile
-- "w_3_9.mif")
-- end_signature
WIDTH=16;
DEPTH=40;

ADDRESS_RADIX=UNS;
DATA_RADIX=BIN;

CONTENT BEGIN
	39 :	1110111101111111;
	38 :	0000010100001110;
	37 :	0000000000111100;
	36 :	1110011010111110;
	35 :	0000010011110110;
	34 :	0000111100100111;
	33 :	1111101001110111;
	32 :	1110101110010000;
	31 :	0000001110000101;
	30 :	1110111111001001;
	29 :	1111001000111001;
	28 :	0000110001110001;
	27 :	1111111000011111;
	26 :	0000001011100111;
	25 :	0000010010111101;
	24 :	1111110001100100;
	23 :	0000001000101011;
	22 :	1110010100010011;
	21 :	0000011001001010;
	20 :	0000101011101110;
	19 :	1111000010100110;
	18 :	1101111101011100;
	17 :	0000100100011101;
	16 :	1111010001000010;
	15 :	1111011010110000;
	14 :	1111011010010100;
	13 :	0000011011111101;
	12 :	0000011011111100;
	11 :	1110110100101010;
	10 :	1111101111011000;
	9 :	1111101000111001;
	8 :	1111001110110100;
	7 :	0000010001111001;
	6 :	0000001101001111;
	5 :	1110001101011011;
	4 :	0000111111110100;
	3 :	0000011100011110;
	2 :	0000001010111001;
	1 :	1111000110101111;
	0 :	1111111100101010;
END;
