-- begin_signature
-- Weight_Memory(numWeight
-- 64
-- neuronNo
-- 10
-- layerNo
-- 1
-- addressWidth
-- 6
-- dataWidth
-- 16
-- weightFile
-- "w_1_10.mif")
-- end_signature
WIDTH=16;
DEPTH=64;

ADDRESS_RADIX=UNS;
DATA_RADIX=BIN;

CONTENT BEGIN
	63 :	0001001110000000;
	62 :	0000110110111000;
	61 :	0000100011000101;
	60 :	0000110001100100;
	59 :	1111110101111101;
	58 :	1111101100111100;
	57 :	0000000111010000;
	56 :	0000000110010011;
	55 :	0000011011001001;
	54 :	1111101111101100;
	53 :	0000010100100000;
	52 :	0000110011011110;
	51 :	1111100011011101;
	50 :	1111111011011110;
	49 :	0000101110100110;
	48 :	0000001001010110;
	47 :	1111010010100111;
	46 :	1110111100001010;
	45 :	1111101000101110;
	44 :	0000011000110001;
	43 :	1111110110011111;
	42 :	1111111111100111;
	41 :	1111111010011100;
	40 :	0000011100011010;
	39 :	1111110100111111;
	38 :	1110011101110111;
	37 :	1111100001011001;
	36 :	1111100111100110;
	35 :	0000010111101000;
	34 :	0000000111000101;
	33 :	1111110011000100;
	32 :	1111110011100100;
	31 :	0000011110101100;
	30 :	1110111111000000;
	29 :	1111110100110011;
	28 :	0000011111001011;
	27 :	0000110110001010;
	26 :	0000110110100011;
	25 :	0001000001110000;
	24 :	0000000011111101;
	23 :	1111100110101000;
	22 :	1111101100101010;
	21 :	1111110000111101;
	20 :	1111101111010100;
	19 :	0000110100110100;
	18 :	0001001111010011;
	17 :	0001010000011100;
	16 :	0000000100111100;
	15 :	1111011111001010;
	14 :	1111111010000001;
	13 :	1111100001000110;
	12 :	1111101101000110;
	11 :	1111111000100101;
	10 :	1111111011010100;
	9 :	0000000001000000;
	8 :	0000000000100111;
	7 :	1111010101011110;
	6 :	1111100100111011;
	5 :	0000011000011101;
	4 :	1111101111000010;
	3 :	1111001100110101;
	2 :	1111110000111010;
	1 :	1111111000011101;
	0 :	0000000001100001;
END;
