-- begin_signature
-- Weight_Memory(numWeight
-- 40
-- neuronNo
-- 3
-- layerNo
-- 3
-- addressWidth
-- 6
-- dataWidth
-- 16
-- weightFile
-- "w_3_3.mif")
-- end_signature
WIDTH=16;
DEPTH=40;

ADDRESS_RADIX=UNS;
DATA_RADIX=BIN;

CONTENT BEGIN
	39 :	0000110011010111;
	38 :	1111000101000011;
	37 :	0000100010000011;
	36 :	1111001101101000;
	35 :	0000100000110001;
	34 :	0000100000000001;
	33 :	1111110111101110;
	32 :	0000001001110111;
	31 :	1111110101110110;
	30 :	0000001011101101;
	29 :	1111011111000001;
	28 :	1111001011010010;
	27 :	1111100111110111;
	26 :	0000100111111001;
	25 :	1110111011000000;
	24 :	1111100000011100;
	23 :	0000111001100011;
	22 :	1111111000011001;
	21 :	1111100100100010;
	20 :	0000010110110011;
	19 :	1110100010000110;
	18 :	1111010000001010;
	17 :	1110100101101000;
	16 :	1111001101100011;
	15 :	0000100000110101;
	14 :	0000100101101000;
	13 :	0000010001011010;
	12 :	0000011100010101;
	11 :	0000011000001101;
	10 :	1110101010000000;
	9 :	0000011010001100;
	8 :	1111111101111001;
	7 :	1111111010101000;
	6 :	0000011011011011;
	5 :	1110111000100000;
	4 :	1111101111010011;
	3 :	1110011110101010;
	2 :	0000100001101000;
	1 :	1110010111111101;
	0 :	1111000111001010;
END;
