-- begin_signature
-- Weight_Memory(numWeight
-- 37
-- neuronNo
-- 4
-- layerNo
-- 3
-- addressWidth
-- 6
-- dataWidth
-- 16
-- weightFile
-- "w_3_4.mif")
-- end_signature
WIDTH=16;
DEPTH=37;

ADDRESS_RADIX=UNS;
DATA_RADIX=BIN;

CONTENT BEGIN
	36 :	1101001100000011;
	35 :	1111111010010010;
	34 :	0000001100100101;
	33 :	0000101111111101;
	32 :	0000011000000111;
	31 :	1110111011101101;
	30 :	1111101101011110;
	29 :	1110100111001000;
	28 :	0000110111101001;
	27 :	1111001010100110;
	26 :	1111110111100110;
	25 :	1110100001111000;
	24 :	0000000010100010;
	23 :	0000110101010001;
	22 :	0000011110011000;
	21 :	1110011010010110;
	20 :	0000000000100000;
	19 :	1111101101111101;
	18 :	0000011110100010;
	17 :	1110001010010011;
	16 :	0000001001101011;
	15 :	1110100100000110;
	14 :	0000100001001011;
	13 :	1110100000011001;
	12 :	0000101010100011;
	11 :	1110101011001111;
	10 :	0000011000001101;
	9 :	0000101110000001;
	8 :	1110110001110010;
	7 :	0000110111111101;
	6 :	0000001001001000;
	5 :	1111100111001010;
	4 :	0000011100110010;
	3 :	1111001100110111;
	2 :	1110001110101101;
	1 :	1111101100010111;
	0 :	0000100000111111;
END;
