-- begin_signature
-- Weight_Memory(numWeight
-- 64
-- neuronNo
-- 4
-- layerNo
-- 1
-- addressWidth
-- 6
-- dataWidth
-- 16
-- weightFile
-- "w_1_4.mif")
-- end_signature
WIDTH=16;
DEPTH=64;

ADDRESS_RADIX=UNS;
DATA_RADIX=BIN;

CONTENT BEGIN
	63 :	1111001110101111;
	62 :	1111101000001110;
	61 :	1111011010001001;
	60 :	1111100101000011;
	59 :	1111110001011001;
	58 :	0000010101101001;
	57 :	0000011001011110;
	56 :	0000000000100010;
	55 :	1111100111000010;
	54 :	1111101100100011;
	53 :	1111111011111010;
	52 :	0000010101010001;
	51 :	0000010111000100;
	50 :	0000000100000110;
	49 :	1111110101000011;
	48 :	1111111101000110;
	47 :	0000101001100010;
	46 :	0000110001011111;
	45 :	0000011101001111;
	44 :	0000010111011001;
	43 :	0000010111111100;
	42 :	0000101000001111;
	41 :	0000111000111111;
	40 :	0000010000011010;
	39 :	1111111000001011;
	38 :	0001001000100101;
	37 :	0000101100010100;
	36 :	0000001111110000;
	35 :	1111110110101100;
	34 :	0000011011010110;
	33 :	0001000100110101;
	32 :	1111111101011000;
	31 :	0000011000101000;
	30 :	0000111000101111;
	29 :	1111110010001011;
	28 :	1111001101100101;
	27 :	1111000101100110;
	26 :	0000001100101111;
	25 :	0000100100110111;
	24 :	1111111100010111;
	23 :	0000001001100101;
	22 :	1111101100101011;
	21 :	1111011110100000;
	20 :	1111000100111011;
	19 :	1111101111100101;
	18 :	1111110000110010;
	17 :	1111100011100111;
	16 :	1111010101100101;
	15 :	0000001100001100;
	14 :	1111110110001110;
	13 :	1111100100111110;
	12 :	0000000000011000;
	11 :	0000000010011110;
	10 :	1111111110100001;
	9 :	1111101110101010;
	8 :	1111110111001001;
	7 :	0000001110000100;
	6 :	0000100100101011;
	5 :	1111010011111001;
	4 :	0000000001100100;
	3 :	0000000000010111;
	2 :	1111110110101011;
	1 :	0000101011111011;
	0 :	0000001100101110;
END;
