-- begin_signature
-- neuron(layerNo
-- 1
-- neuronNo
-- 2
-- numWeight
-- 64
-- dataWidth
-- 16
-- sigmoidSize
-- 5
-- weightIntWidth
-- 4
-- biasFile
-- "b_1_2.mif"
-- weightFile
-- "w_1_2.mif")
-- end_signature
WIDTH=32;
DEPTH=1;

ADDRESS_RADIX=UNS;
DATA_RADIX=BIN;

CONTENT BEGIN
	0 :	00000000000000000000000100100010;
END;
