-- begin_signature
-- Weight_Memory(numWeight
-- 40
-- neuronNo
-- 1
-- layerNo
-- 3
-- addressWidth
-- 6
-- dataWidth
-- 16
-- weightFile
-- "w_3_1.mif")
-- end_signature
WIDTH=16;
DEPTH=40;

ADDRESS_RADIX=UNS;
DATA_RADIX=BIN;

CONTENT BEGIN
	39 :	1111011100110001;
	38 :	1110100111001000;
	37 :	0000100001100100;
	36 :	0000010111010101;
	35 :	0000101011111101;
	34 :	0000000100111011;
	33 :	1111011100010001;
	32 :	1110101000000101;
	31 :	0000011100101111;
	30 :	1111110110000000;
	29 :	1111111100111100;
	28 :	1111000001010101;
	27 :	0000100110100010;
	26 :	1110101111000100;
	25 :	0000001111110011;
	24 :	0000110100110101;
	23 :	1110010111111111;
	22 :	0000001001110011;
	21 :	0000001100101011;
	20 :	1111101101110101;
	19 :	1111100101110100;
	18 :	1111011101001001;
	17 :	1111110000111111;
	16 :	1110101011000000;
	15 :	1110011110100011;
	14 :	1101011110110101;
	13 :	0000010100010000;
	12 :	0000111010010010;
	11 :	0000100000000010;
	10 :	1111100000001011;
	9 :	0000100011100001;
	8 :	1110011111010011;
	7 :	0000000110110011;
	6 :	1111111111110101;
	5 :	0000000110100110;
	4 :	1111010011010110;
	3 :	1111001101000110;
	2 :	1111011001010100;
	1 :	0000100011001011;
	0 :	0000111101000000;
END;
