-- begin_signature
-- Weight_Memory(numWeight
-- 45
-- neuronNo
-- 6
-- layerNo
-- 2
-- addressWidth
-- 6
-- dataWidth
-- 16
-- weightFile
-- "w_2_6.mif")
-- end_signature
WIDTH=16;
DEPTH=45;

ADDRESS_RADIX=UNS;
DATA_RADIX=BIN;

CONTENT BEGIN
	44 :	1111011110101111;
	43 :	0000011001110010;
	42 :	0000000100001101;
	41 :	0000001100001010;
	40 :	1111110111110011;
	39 :	0000001011101010;
	38 :	0000011110001101;
	37 :	0000101010001000;
	36 :	1111001010100110;
	35 :	1111101011101010;
	34 :	0000100101111000;
	33 :	0000110010100010;
	32 :	1111111010111001;
	31 :	1111011010001110;
	30 :	1111101111001011;
	29 :	1111101011000100;
	28 :	1111011110001001;
	27 :	0000100110110000;
	26 :	1111101001011100;
	25 :	1111101011010011;
	24 :	1111111010011100;
	23 :	1111111110011111;
	22 :	1111111010000110;
	21 :	1111101111000100;
	20 :	0000111000001101;
	19 :	0000011011100010;
	18 :	1111010000000000;
	17 :	1111010100100101;
	16 :	0000100000001101;
	15 :	1111111110010011;
	14 :	0000101001101011;
	13 :	1111110000000101;
	12 :	0000110011011010;
	11 :	1111110001100111;
	10 :	1111010101011010;
	9 :	0000000001100010;
	8 :	0000100101010101;
	7 :	0000101000101100;
	6 :	0000110010010011;
	5 :	0000001101111010;
	4 :	1111101011101100;
	3 :	1111110100110011;
	2 :	0000100010011010;
	1 :	0000001011000100;
	0 :	1111110101001001;
END;
