-- begin_signature
-- Weight_Memory(numWeight
-- 64
-- neuronNo
-- 12
-- layerNo
-- 1
-- addressWidth
-- 6
-- dataWidth
-- 16
-- weightFile
-- "w_1_12.mif")
-- end_signature
WIDTH=16;
DEPTH=64;

ADDRESS_RADIX=UNS;
DATA_RADIX=BIN;

CONTENT BEGIN
	63 :	0000001000100011;
	62 :	0000011100011101;
	61 :	0000100000001011;
	60 :	0000100100000111;
	59 :	0000000100111000;
	58 :	1111110111111111;
	57 :	0000010100011100;
	56 :	0000100001111011;
	55 :	0000101110110010;
	54 :	0000111110111001;
	53 :	0000010111010001;
	52 :	0000100110111001;
	51 :	0000000110101011;
	50 :	1111101000010111;
	49 :	1111101010001100;
	48 :	1111111111111000;
	47 :	0000110111011101;
	46 :	0000101101000000;
	45 :	0000000101111101;
	44 :	1111111001000001;
	43 :	1111001110101101;
	42 :	1111001011001010;
	41 :	1111011000000010;
	40 :	1111011001000001;
	39 :	0000000000110110;
	38 :	1111101101101110;
	37 :	1111110000000100;
	36 :	1111110000101011;
	35 :	1111110110100111;
	34 :	1111011001100001;
	33 :	1111101000100111;
	32 :	1111111000011111;
	31 :	1111011111011010;
	30 :	1110110100011000;
	29 :	1111011110001011;
	28 :	1111101110110010;
	27 :	1111110000011110;
	26 :	1110110101110001;
	25 :	1111000100100000;
	24 :	1111111110000100;
	23 :	0000000001010111;
	22 :	1111110001011011;
	21 :	0000000100101011;
	20 :	0001001011000001;
	19 :	0000001110101100;
	18 :	1110110001110000;
	17 :	1111001100101110;
	16 :	1111110110011111;
	15 :	1111101101011001;
	14 :	0000001000001010;
	13 :	0000010001001001;
	12 :	0000011111011010;
	11 :	1111111101101001;
	10 :	1111110010101000;
	9 :	1111110111000011;
	8 :	1111101101000110;
	7 :	1111110111010001;
	6 :	1111101010010001;
	5 :	0000000111110110;
	4 :	0000000101001001;
	3 :	0000001111011110;
	2 :	1111011111010011;
	1 :	0000001100101101;
	0 :	1111110001110011;
END;
