-- begin_signature
-- Weight_Memory(numWeight
-- 45
-- neuronNo
-- 9
-- layerNo
-- 2
-- addressWidth
-- 6
-- dataWidth
-- 16
-- weightFile
-- "w_2_9.mif")
-- end_signature
WIDTH=16;
DEPTH=45;

ADDRESS_RADIX=UNS;
DATA_RADIX=BIN;

CONTENT BEGIN
	44 :	1111011110110111;
	43 :	1111100110011110;
	42 :	1111111101100110;
	41 :	1111111001110010;
	40 :	1111100011111110;
	39 :	1110110011101111;
	38 :	0000001001001010;
	37 :	1111100111001110;
	36 :	0000011111100000;
	35 :	0000001100001110;
	34 :	1111011100110011;
	33 :	1111111110001000;
	32 :	0000001100000010;
	31 :	1111110111011101;
	30 :	1111111111010100;
	29 :	1111100110100101;
	28 :	1111111001011100;
	27 :	0000100111011001;
	26 :	1111111011011011;
	25 :	0001000111010110;
	24 :	0000100110100111;
	23 :	1111101000100010;
	22 :	0000110101100100;
	21 :	0000000101111101;
	20 :	1111101001110001;
	19 :	1111110001101101;
	18 :	1111100001101101;
	17 :	0000001100011011;
	16 :	1111101110100101;
	15 :	0000010101100000;
	14 :	1111100110110101;
	13 :	0000001110111001;
	12 :	0000101110010011;
	11 :	1111001100001100;
	10 :	0000000111010000;
	9 :	1110110101100000;
	8 :	0001000110110101;
	7 :	0000000010100001;
	6 :	0000111101010010;
	5 :	1111101001011111;
	4 :	1111100000011000;
	3 :	0000110000010110;
	2 :	1111101101110010;
	1 :	1111100111011010;
	0 :	1111111110111011;
END;
