-- begin_signature
-- Weight_Memory(numWeight
-- 45
-- neuronNo
-- 17
-- layerNo
-- 2
-- addressWidth
-- 6
-- dataWidth
-- 16
-- weightFile
-- "w_2_17.mif")
-- end_signature
WIDTH=16;
DEPTH=45;

ADDRESS_RADIX=UNS;
DATA_RADIX=BIN;

CONTENT BEGIN
	44 :	0000011000011111;
	43 :	0000010001000000;
	42 :	0000001010000111;
	41 :	1111101110010001;
	40 :	0000000010000011;
	39 :	0000100010101111;
	38 :	1111101000010001;
	37 :	1111111111011001;
	36 :	0000111010101011;
	35 :	0000001101010000;
	34 :	0000000101000011;
	33 :	1111000111011000;
	32 :	1111101110100010;
	31 :	0000010010111000;
	30 :	1111111011001111;
	29 :	0001001011110000;
	28 :	1111110110011010;
	27 :	1111110000010010;
	26 :	0000110011111100;
	25 :	1111100011100110;
	24 :	1111101101101000;
	23 :	1111110001111101;
	22 :	0000001001100101;
	21 :	0000001110111011;
	20 :	1111101110110011;
	19 :	1111101110001101;
	18 :	0000010110011101;
	17 :	0001111100111100;
	16 :	0000000100100001;
	15 :	1111110011011001;
	14 :	1111110101011110;
	13 :	0000010011101011;
	12 :	1111011011001010;
	11 :	1111100001001001;
	10 :	0000000101100010;
	9 :	0000000111011110;
	8 :	1111010001010010;
	7 :	0000000101010101;
	6 :	1111001101111010;
	5 :	1111100101110001;
	4 :	1111111101111110;
	3 :	1111111010010000;
	2 :	1111101111001100;
	1 :	0001110100000010;
	0 :	0000100000101110;
END;
