-- begin_signature
-- Weight_Memory(numWeight
-- 37
-- neuronNo
-- 6
-- layerNo
-- 3
-- addressWidth
-- 6
-- dataWidth
-- 16
-- weightFile
-- "w_3_6.mif")
-- end_signature
WIDTH=16;
DEPTH=37;

ADDRESS_RADIX=UNS;
DATA_RADIX=BIN;

CONTENT BEGIN
	36 :	0000000011111110;
	35 :	1110000000111110;
	34 :	0000010011001001;
	33 :	0000101000101110;
	32 :	0000101001111111;
	31 :	0000110001010111;
	30 :	1111111001001010;
	29 :	1110110100010100;
	28 :	0000110110101000;
	27 :	1110100101111110;
	26 :	0000010110100000;
	25 :	0000001100011011;
	24 :	1110010110000111;
	23 :	1111000110011100;
	22 :	0000100110100011;
	21 :	1101111001101101;
	20 :	1111001111110111;
	19 :	1111110011101100;
	18 :	0000101111001011;
	17 :	0000101101101101;
	16 :	1110011011000111;
	15 :	1110110110011000;
	14 :	1110100101000101;
	13 :	1110010000011111;
	12 :	0000001010000101;
	11 :	0000010111000011;
	10 :	0000010011000001;
	9 :	0000110010110010;
	8 :	0000011111001110;
	7 :	0000001000111001;
	6 :	1111110100011101;
	5 :	1111001011100001;
	4 :	1101111011011100;
	3 :	0000110111000001;
	2 :	0000100001100011;
	1 :	1111110000110110;
	0 :	0000001100011011;
END;
