-- begin_signature
-- Weight_Memory(numWeight
-- 40
-- neuronNo
-- 2
-- layerNo
-- 3
-- addressWidth
-- 6
-- dataWidth
-- 16
-- weightFile
-- "w_3_2.mif")
-- end_signature
WIDTH=16;
DEPTH=40;

ADDRESS_RADIX=UNS;
DATA_RADIX=BIN;

CONTENT BEGIN
	39 :	0000001101100100;
	38 :	1110100011001100;
	37 :	1111101100011011;
	36 :	0000010100011111;
	35 :	0000000010010111;
	34 :	1110111010000001;
	33 :	0000001111110111;
	32 :	1111101001011100;
	31 :	0000001011111100;
	30 :	0000011000111111;
	29 :	1111010100001010;
	28 :	1111110111010000;
	27 :	1110011110000101;
	26 :	0000000101100100;
	25 :	0000100001001011;
	24 :	1111000000001100;
	23 :	1110010000101110;
	22 :	0000111100010101;
	21 :	1111011000111000;
	20 :	1111111001010001;
	19 :	0000001110000001;
	18 :	1110110110010000;
	17 :	1101011110000000;
	16 :	1110111111010110;
	15 :	0000111011110010;
	14 :	0000110101001101;
	13 :	1111111010010101;
	12 :	1101110110010001;
	11 :	0000001000000110;
	10 :	0000100110111010;
	9 :	1111111011111101;
	8 :	0000100000011011;
	7 :	0000010000101101;
	6 :	0000010000111010;
	5 :	0001010010111001;
	4 :	1110011000110011;
	3 :	1111001001110111;
	2 :	1110111011110111;
	1 :	1111111110000010;
	0 :	1111101010110001;
END;
