-- begin_signature
-- Weight_Memory(numWeight
-- 64
-- neuronNo
-- 0
-- layerNo
-- 1
-- addressWidth
-- 6
-- dataWidth
-- 16
-- weightFile
-- "w_1_0.mif")
-- end_signature
WIDTH=16;
DEPTH=64;

ADDRESS_RADIX=UNS;
DATA_RADIX=BIN;

CONTENT BEGIN
	63 :	0000101010011100;
	62 :	0000010010100011;
	61 :	0000000111111100;
	60 :	0000110111010110;
	59 :	1111111011010011;
	58 :	1111011111100110;
	57 :	1111100110010001;
	56 :	1111110110101111;
	55 :	0000101110101111;
	54 :	1111101111001111;
	53 :	1111101110001000;
	52 :	0000100111101000;
	51 :	1111010011010111;
	50 :	1111110110111000;
	49 :	0000000100101011;
	48 :	1111101101010111;
	47 :	1111001100010001;
	46 :	1111010101110001;
	45 :	1111010100100111;
	44 :	1111101000010110;
	43 :	1111100111100100;
	42 :	1111100011011011;
	41 :	1111100110101100;
	40 :	0000010110101111;
	39 :	0000001000101111;
	38 :	1111010101111000;
	37 :	1111001110001100;
	36 :	1111001111110110;
	35 :	1111111000100110;
	34 :	1111111011100101;
	33 :	1111011100000111;
	32 :	1111111011010011;
	31 :	1111111010001100;
	30 :	1111111111000010;
	29 :	0000011000100100;
	28 :	0000001010000011;
	27 :	0000111100010000;
	26 :	0000110100001101;
	25 :	0000111111011111;
	24 :	1111111110010110;
	23 :	1111010100001110;
	22 :	0000000011001101;
	21 :	0000101010001010;
	20 :	0000001010001000;
	19 :	0000110110111110;
	18 :	0000111101011011;
	17 :	0001001000000111;
	16 :	0000001000100110;
	15 :	1111100101111010;
	14 :	1111101111000101;
	13 :	1111111110011010;
	12 :	1111111111001001;
	11 :	0000001010010001;
	10 :	1111101010101111;
	9 :	1111101011110011;
	8 :	0000001000000001;
	7 :	1111011000100011;
	6 :	1111011101100101;
	5 :	1111111000011010;
	4 :	1111011010011010;
	3 :	1111110100000100;
	2 :	1111101111001011;
	1 :	1111001000010111;
	0 :	0000001101110101;
END;
