-- begin_signature
-- Weight_Memory(numWeight
-- 64
-- neuronNo
-- 33
-- layerNo
-- 1
-- addressWidth
-- 6
-- dataWidth
-- 16
-- weightFile
-- "w_1_33.mif")
-- end_signature
WIDTH=16;
DEPTH=64;

ADDRESS_RADIX=UNS;
DATA_RADIX=BIN;

CONTENT BEGIN
	63 :	0001011000111110;
	62 :	0000011101111110;
	61 :	0000000000111100;
	60 :	1111100111001110;
	59 :	0000000011100110;
	58 :	0000001100000001;
	57 :	0000011010010011;
	56 :	0000100000100110;
	55 :	0000110110000101;
	54 :	1111111000111111;
	53 :	0000001001010111;
	52 :	0000011101110100;
	51 :	0000011001100111;
	50 :	1111110100011010;
	49 :	0000000001111110;
	48 :	0000001010101010;
	47 :	1111110011000001;
	46 :	1110111100101010;
	45 :	1111101101011010;
	44 :	0000010001101001;
	43 :	0000100110001010;
	42 :	1111101101110110;
	41 :	1111011011100100;
	40 :	1111110011011101;
	39 :	0000000011001010;
	38 :	1111010011000100;
	37 :	1111101001011100;
	36 :	0000101101110011;
	35 :	0000001001100100;
	34 :	1111011101111000;
	33 :	1111010011001001;
	32 :	0000001101000111;
	31 :	1111011000110110;
	30 :	1111100000110001;
	29 :	1111101110000010;
	28 :	0000000110010111;
	27 :	1111101110000001;
	26 :	1110101100111010;
	25 :	1111001101101110;
	24 :	0000000110000111;
	23 :	0000000100101010;
	22 :	1111111111101011;
	21 :	1111111110011011;
	20 :	0001000101101101;
	19 :	1111110000110000;
	18 :	1111000111111011;
	17 :	1111101111010110;
	16 :	0000010011001111;
	15 :	0000100110010101;
	14 :	0000011011000001;
	13 :	0000011011000110;
	12 :	0000011100110011;
	11 :	1111111101011001;
	10 :	1111110110101100;
	9 :	0000101110001100;
	8 :	1111111100010110;
	7 :	0000001100100100;
	6 :	0000001110011011;
	5 :	0000101110001000;
	4 :	1111110000110000;
	3 :	0000000010000000;
	2 :	0000010010111100;
	1 :	0000001010011101;
	0 :	0000000111010101;
END;
