-- begin_signature
-- Weight_Memory(numWeight
-- 64
-- neuronNo
-- 41
-- layerNo
-- 1
-- addressWidth
-- 6
-- dataWidth
-- 16
-- weightFile
-- "w_1_41.mif")
-- end_signature
WIDTH=16;
DEPTH=64;

ADDRESS_RADIX=UNS;
DATA_RADIX=BIN;

CONTENT BEGIN
	63 :	1111000000010100;
	62 :	1111111100111010;
	61 :	0000000010000110;
	60 :	0000001111110100;
	59 :	0000010111011111;
	58 :	0000110001110111;
	57 :	0001001001000000;
	56 :	0000011000000111;
	55 :	1111011001100100;
	54 :	0000100100011100;
	53 :	0000011001011111;
	52 :	0000011011110100;
	51 :	0000010111100011;
	50 :	0000001110111000;
	49 :	1111101001100100;
	48 :	1111101111011011;
	47 :	0001000100110011;
	46 :	0001010111011010;
	45 :	0000011010000101;
	44 :	1111001000001111;
	43 :	1111010000010001;
	42 :	1111101101110011;
	41 :	1111001010100111;
	40 :	1111011010110010;
	39 :	0000000010111000;
	38 :	0000011011010001;
	37 :	1111110011100001;
	36 :	1111100000100110;
	35 :	1111010100100110;
	34 :	0000000000111001;
	33 :	0000010011110011;
	32 :	1111111111100001;
	31 :	1111011111101011;
	30 :	1111001010101011;
	29 :	1111010000000101;
	28 :	1111010100001001;
	27 :	1111011001110011;
	26 :	1111110111111111;
	25 :	0000010111101000;
	24 :	1111011010000011;
	23 :	1111011111011100;
	22 :	1111000110001111;
	21 :	1111100000001001;
	20 :	1111011010110000;
	19 :	1111100000001011;
	18 :	1111110001101101;
	17 :	1111111110101010;
	16 :	1111101001110111;
	15 :	1111101001101101;
	14 :	1111101010101110;
	13 :	1111110010110010;
	12 :	0000000111001110;
	11 :	0000010100000100;
	10 :	0000010000111110;
	9 :	0000001001001101;
	8 :	1111110010011000;
	7 :	1111011111111111;
	6 :	0000000101111101;
	5 :	1111111010111110;
	4 :	0000011101000101;
	3 :	0000011100101110;
	2 :	0000011010001111;
	1 :	0000110010111001;
	0 :	1111111011001000;
END;
