-- begin_signature
-- Weight_Memory(numWeight
-- 64
-- neuronNo
-- 19
-- layerNo
-- 1
-- addressWidth
-- 6
-- dataWidth
-- 16
-- weightFile
-- "w_1_19.mif")
-- end_signature
WIDTH=16;
DEPTH=64;

ADDRESS_RADIX=UNS;
DATA_RADIX=BIN;

CONTENT BEGIN
	63 :	1111110010010101;
	62 :	1111111000101000;
	61 :	1111100010000100;
	60 :	1111100010010100;
	59 :	0000010010010111;
	58 :	0000110010001100;
	57 :	0001011011000100;
	56 :	0000001100010101;
	55 :	1111100001001100;
	54 :	1111110011011011;
	53 :	1111111010110001;
	52 :	1111110011010101;
	51 :	1111111111000111;
	50 :	0000011011010011;
	49 :	0000101001000101;
	48 :	0000000101111000;
	47 :	1111010001101111;
	46 :	1111100010100010;
	45 :	0000000101000111;
	44 :	1111011011111110;
	43 :	1111101111000101;
	42 :	1111101001000110;
	41 :	1111111110111011;
	40 :	1111111101011100;
	39 :	1111110111101101;
	38 :	1111111101100110;
	37 :	0000000011111101;
	36 :	0000010110110011;
	35 :	0000010010101111;
	34 :	1111101100110100;
	33 :	1111100101101101;
	32 :	1111111100001111;
	31 :	1111101000010011;
	30 :	1111100001001000;
	29 :	1111101101111111;
	28 :	0000011100100010;
	27 :	1111110111100000;
	26 :	1111001110100001;
	25 :	1111001010011111;
	24 :	1111100101110101;
	23 :	1111110100011100;
	22 :	1111111010000100;
	21 :	1111101111101011;
	20 :	1111101011111001;
	19 :	1110100000110011;
	18 :	1111011111011101;
	17 :	0000010111110011;
	16 :	0000000101010000;
	15 :	0000011111110100;
	14 :	0000110100000101;
	13 :	0000011110010010;
	12 :	0000010101101101;
	11 :	0000000111001000;
	10 :	0001000001001011;
	9 :	0000111000101011;
	8 :	0000011000011111;
	7 :	0000001100100101;
	6 :	0000110010110110;
	5 :	0001000011101101;
	4 :	0000101001011000;
	3 :	0000010000010001;
	2 :	0001001000110010;
	1 :	0000111111011101;
	0 :	0000000101110000;
END;
