-- begin_signature
-- Weight_Memory(numWeight
-- 40
-- neuronNo
-- 0
-- layerNo
-- 3
-- addressWidth
-- 6
-- dataWidth
-- 16
-- weightFile
-- "w_3_0.mif")
-- end_signature
WIDTH=16;
DEPTH=40;

ADDRESS_RADIX=UNS;
DATA_RADIX=BIN;

CONTENT BEGIN
	39 :	1111000111111100;
	38 :	0000010100110011;
	37 :	1110010110010101;
	36 :	1110100010000011;
	35 :	1110111001110011;
	34 :	0001000111100001;
	33 :	0000100011110110;
	32 :	0000011000100001;
	31 :	1110001110000111;
	30 :	1110010110111000;
	29 :	1111011000101101;
	28 :	0000110101111010;
	27 :	1111010001101101;
	26 :	1111110010011110;
	25 :	1111111110110000;
	24 :	1110001111111001;
	23 :	1110010110001000;
	22 :	0000010101110101;
	21 :	0000010011010110;
	20 :	0000011101000100;
	19 :	0000001111101011;
	18 :	0000100110101110;
	17 :	1111101100011001;
	16 :	0000010001000100;
	15 :	0000111110110000;
	14 :	0000101000110101;
	13 :	1110010100010101;
	12 :	1111011111000010;
	11 :	1110011101101101;
	10 :	0000000101110000;
	9 :	1111011110100101;
	8 :	0000011101000100;
	7 :	1110110010010000;
	6 :	0000011001110101;
	5 :	0000000110001110;
	4 :	0000000011111000;
	3 :	0000011011101110;
	2 :	0000100011011110;
	1 :	0000010011101101;
	0 :	1110101110101101;
END;
