-- begin_signature
-- Weight_Memory(numWeight
-- 37
-- neuronNo
-- 8
-- layerNo
-- 3
-- addressWidth
-- 6
-- dataWidth
-- 16
-- weightFile
-- "w_3_8.mif")
-- end_signature
WIDTH=16;
DEPTH=37;

ADDRESS_RADIX=UNS;
DATA_RADIX=BIN;

CONTENT BEGIN
	36 :	0000100100000011;
	35 :	1110110010111110;
	34 :	1110001000010100;
	33 :	1110111100011000;
	32 :	1111000110100101;
	31 :	0000101100000101;
	30 :	0000000100101111;
	29 :	0000011101010100;
	28 :	1110110100111111;
	27 :	1111101101100010;
	26 :	0000011111110100;
	25 :	0000101010000000;
	24 :	1111100010110001;
	23 :	1111100110011010;
	22 :	1111001010111101;
	21 :	1111000110101110;
	20 :	1111010010110001;
	19 :	1110111010011000;
	18 :	1111000010100001;
	17 :	0000101110001111;
	16 :	0000010100001111;
	15 :	1111110110100110;
	14 :	1110101101101100;
	13 :	0000101010010001;
	12 :	0000100101010111;
	11 :	1110101100001000;
	10 :	0000001011001101;
	9 :	1111100011110010;
	8 :	1111011011100110;
	7 :	1110101000010100;
	6 :	0000010100111010;
	5 :	0000110010111111;
	4 :	0000001111001001;
	3 :	0000111110010101;
	2 :	0000000100101001;
	1 :	0000000011000011;
	0 :	0000001101010100;
END;
