-- begin_signature
-- Weight_Memory(numWeight
-- 64
-- neuronNo
-- 14
-- layerNo
-- 1
-- addressWidth
-- 6
-- dataWidth
-- 32
-- weightFile
-- "w_1_14.mif")
-- end_signature
WIDTH=32;
DEPTH=64;

ADDRESS_RADIX=UNS;
DATA_RADIX=BIN;

CONTENT BEGIN
	63 :	00000000000000000000000011110101;
	62 :	00000000000000000000000000001001;
	61 :	00000000000000000000000000000010;
	60 :	00000000000000000000000000000100;
	59 :	00000000000000000000000000000000;
	58 :	00000000000000000000000000000001;
	57 :	00000000000000000000000011111011;
	56 :	00000000000000000000000000000101;
	55 :	00000000000000000000000011111101;
	54 :	00000000000000000000000000001011;
	53 :	00000000000000000000000000000101;
	52 :	00000000000000000000000000000100;
	51 :	00000000000000000000000000000111;
	50 :	00000000000000000000000000000100;
	49 :	00000000000000000000000000000001;
	48 :	00000000000000000000000000000000;
	47 :	00000000000000000000000000001000;
	46 :	00000000000000000000000000001101;
	45 :	00000000000000000000000000000011;
	44 :	00000000000000000000000011110111;
	43 :	00000000000000000000000011111111;
	42 :	00000000000000000000000000000000;
	41 :	00000000000000000000000000000100;
	40 :	00000000000000000000000011111010;
	39 :	00000000000000000000000011111111;
	38 :	00000000000000000000000000001000;
	37 :	00000000000000000000000000000000;
	36 :	00000000000000000000000011110000;
	35 :	00000000000000000000000011111001;
	34 :	00000000000000000000000000000001;
	33 :	00000000000000000000000000000110;
	32 :	00000000000000000000000000000010;
	31 :	00000000000000000000000000000010;
	30 :	00000000000000000000000000001100;
	29 :	00000000000000000000000000000010;
	28 :	00000000000000000000000011110110;
	27 :	00000000000000000000000011110110;
	26 :	00000000000000000000000000000010;
	25 :	00000000000000000000000011111111;
	24 :	00000000000000000000000011111100;
	23 :	00000000000000000000000000000001;
	22 :	00000000000000000000000000000000;
	21 :	00000000000000000000000000000100;
	20 :	00000000000000000000000011111000;
	19 :	00000000000000000000000011111110;
	18 :	00000000000000000000000000000010;
	17 :	00000000000000000000000011110111;
	16 :	00000000000000000000000011111100;
	15 :	00000000000000000000000011111101;
	14 :	00000000000000000000000011110100;
	13 :	00000000000000000000000011111011;
	12 :	00000000000000000000000000000001;
	11 :	00000000000000000000000000000001;
	10 :	00000000000000000000000011111101;
	9 :	00000000000000000000000011111101;
	8 :	00000000000000000000000011111101;
	7 :	00000000000000000000000011111011;
	6 :	00000000000000000000000011110110;
	5 :	00000000000000000000000011101101;
	4 :	00000000000000000000000011111111;
	3 :	00000000000000000000000000000001;
	2 :	00000000000000000000000011111100;
	1 :	00000000000000000000000000000010;
	0 :	00000000000000000000000011111111;
END;
