-- begin_signature
-- Weight_Memory(numWeight
-- 16
-- neuronNo
-- 3
-- layerNo
-- 2
-- addressWidth
-- 4
-- dataWidth
-- 32
-- weightFile
-- "w_2_3.mif")
-- end_signature
WIDTH=32;
DEPTH=16;

ADDRESS_RADIX=UNS;
DATA_RADIX=BIN;

CONTENT BEGIN
	15 :	00000000000000000000000011111111;
	14 :	00000000000000000000000011111110;
	13 :	00000000000000000000000000010101;
	12 :	00000000000000000000000011111111;
	11 :	00000000000000000000000000001111;
	10 :	00000000000000000000000000000000;
	9 :	00000000000000000000000011110110;
	8 :	00000000000000000000000011111001;
	7 :	00000000000000000000000000000011;
	6 :	00000000000000000000000000001100;
	5 :	00000000000000000000000000000000;
	4 :	00000000000000000000000000001000;
	3 :	00000000000000000000000011110000;
	2 :	00000000000000000000000000000011;
	1 :	00000000000000000000000011101000;
	0 :	00000000000000000000000011111111;
END;
