-- begin_signature
-- Weight_Memory(numWeight
-- 10
-- neuronNo
-- 7
-- layerNo
-- 3
-- addressWidth
-- 4
-- dataWidth
-- 16
-- weightFile
-- "w_4_7.mif")
-- end_signature
WIDTH=16;
DEPTH=10;

ADDRESS_RADIX=UNS;
DATA_RADIX=BIN;

CONTENT BEGIN
	9 :	1111111111110100;
	8 :	0000001011100011;
	7 :	1111110100011010;
	6 :	1111100110111001;
	5 :	1111101010011101;
	4 :	0000010100000101;
	3 :	0000001010011110;
	2 :	1111100011111010;
	1 :	0000000101101100;
	0 :	1111110011000001;
END;
