-- begin_signature
-- Weight_Memory(numWeight
-- 30
-- neuronNo
-- 24
-- layerNo
-- 2
-- addressWidth
-- 5
-- dataWidth
-- 16
-- weightFile
-- "w_2_24.mif")
-- end_signature
WIDTH=16;
DEPTH=30;

ADDRESS_RADIX=UNS;
DATA_RADIX=BIN;

CONTENT BEGIN
	29 :	0000001111111010;
	28 :	0000010011001000;
	27 :	0000000101011010;
	26 :	0000010010101101;
	25 :	1111110111111000;
	24 :	1111111100110000;
	23 :	1111110011010011;
	22 :	1111111001010000;
	21 :	1111110001010001;
	20 :	1111110010100101;
	19 :	0000001111110100;
	18 :	0000010101000011;
	17 :	0000001000101000;
	16 :	1111110100010010;
	15 :	1111101111111010;
	14 :	1111110100101010;
	13 :	1111111111000100;
	12 :	0000000001001001;
	11 :	0000001000011101;
	10 :	0000000111111100;
	9 :	1111101110001101;
	8 :	0000000010010101;
	7 :	1111110101111001;
	6 :	0000010101011110;
	5 :	1111101111110101;
	4 :	0000000101011101;
	3 :	0000010101110100;
	2 :	0000001010001111;
	1 :	0000001000010001;
	0 :	1111111001001011;
END;
