-- begin_signature
-- Weight_Memory(numWeight
-- 45
-- neuronNo
-- 18
-- layerNo
-- 2
-- addressWidth
-- 6
-- dataWidth
-- 16
-- weightFile
-- "w_2_18.mif")
-- end_signature
WIDTH=16;
DEPTH=45;

ADDRESS_RADIX=UNS;
DATA_RADIX=BIN;

CONTENT BEGIN
	44 :	0000011010001110;
	43 :	1111100101010000;
	42 :	0000011001000011;
	41 :	1111100111011010;
	40 :	1111110011100101;
	39 :	1111011000011011;
	38 :	0000001000101101;
	37 :	1111101111111011;
	36 :	1111100111100010;
	35 :	1111011110011010;
	34 :	0000110101001011;
	33 :	0000000000111110;
	32 :	1111110111011011;
	31 :	0000011001100100;
	30 :	0000100110000111;
	29 :	1111111010011011;
	28 :	0001100101000011;
	27 :	0000101111010011;
	26 :	0000011010001010;
	25 :	0000010011001110;
	24 :	1111101100110000;
	23 :	1111101100001010;
	22 :	0000011000100111;
	21 :	1111111111000100;
	20 :	1111011101010000;
	19 :	0001000110101001;
	18 :	1111101010100111;
	17 :	1111011111011000;
	16 :	1111011011111101;
	15 :	0001100001001001;
	14 :	0000111100001101;
	13 :	0000100010110001;
	12 :	0000110111011010;
	11 :	0000110101011111;
	10 :	1111101011101010;
	9 :	0000000011110011;
	8 :	1111001001101110;
	7 :	1111110000100000;
	6 :	1111111111100010;
	5 :	1111110010000100;
	4 :	1111010101010000;
	3 :	1111110010110101;
	2 :	0000010100010111;
	1 :	1111101101000110;
	0 :	0000000010100000;
END;
