-- begin_signature
-- Weight_Memory(numWeight
-- 16
-- neuronNo
-- 3
-- layerNo
-- 2
-- addressWidth
-- 4
-- dataWidth
-- 16
-- weightFile
-- "C:/Users/Ohmen/Desktop/Desktop/School/Thesis/tensorflow/w_b/w_2_3.mif")
-- end_signature
WIDTH=16;
DEPTH=16;

ADDRESS_RADIX=UNS;
DATA_RADIX=BIN;

CONTENT BEGIN
	15 :	0000001010101110;
	14 :	0000001100111110;
	13 :	1111011111100011;
	12 :	0000101110110010;
	11 :	1111010100000011;
	10 :	0000101000011101;
	9 :	0000101011011010;
	8 :	0000001001001110;
	7 :	0000111010000010;
	6 :	1111101110101101;
	5 :	0000101010111101;
	4 :	1111011000110001;
	3 :	0000001110110101;
	2 :	0000001011000001;
	1 :	0000001010110101;
	0 :	1111111011000100;
END;
