-- begin_signature
-- Weight_Memory(numWeight
-- 64
-- neuronNo
-- 6
-- layerNo
-- 1
-- addressWidth
-- 6
-- dataWidth
-- 32
-- weightFile
-- "w_1_6.mif")
-- end_signature
WIDTH=32;
DEPTH=64;

ADDRESS_RADIX=UNS;
DATA_RADIX=BIN;

CONTENT BEGIN
	63 :	00000000000000000000000000000000;
	62 :	00000000000000000000000011111101;
	61 :	00000000000000000000000000000100;
	60 :	00000000000000000000000011111101;
	59 :	00000000000000000000000011110111;
	58 :	00000000000000000000000011110101;
	57 :	00000000000000000000000011110001;
	56 :	00000000000000000000000011111001;
	55 :	00000000000000000000000000001010;
	54 :	00000000000000000000000000000111;
	53 :	00000000000000000000000011110101;
	52 :	00000000000000000000000011101101;
	51 :	00000000000000000000000011110110;
	50 :	00000000000000000000000011111010;
	49 :	00000000000000000000000011111100;
	48 :	00000000000000000000000000000000;
	47 :	00000000000000000000000011111101;
	46 :	00000000000000000000000000000101;
	45 :	00000000000000000000000000000001;
	44 :	00000000000000000000000000001001;
	43 :	00000000000000000000000000000100;
	42 :	00000000000000000000000000000011;
	41 :	00000000000000000000000000000010;
	40 :	00000000000000000000000000001010;
	39 :	00000000000000000000000000000011;
	38 :	00000000000000000000000000001100;
	37 :	00000000000000000000000000010000;
	36 :	00000000000000000000000000001001;
	35 :	00000000000000000000000000010010;
	34 :	00000000000000000000000000001001;
	33 :	00000000000000000000000011111000;
	32 :	00000000000000000000000000000010;
	31 :	00000000000000000000000000000011;
	30 :	00000000000000000000000000000111;
	29 :	00000000000000000000000000010000;
	28 :	00000000000000000000000000010100;
	27 :	00000000000000000000000000010011;
	26 :	00000000000000000000000000001010;
	25 :	00000000000000000000000011111011;
	24 :	00000000000000000000000000000100;
	23 :	00000000000000000000000000001000;
	22 :	00000000000000000000000000000100;
	21 :	00000000000000000000000000000100;
	20 :	00000000000000000000000000000011;
	19 :	00000000000000000000000000001100;
	18 :	00000000000000000000000000000010;
	17 :	00000000000000000000000011111100;
	16 :	00000000000000000000000000001000;
	15 :	00000000000000000000000000001110;
	14 :	00000000000000000000000000000011;
	13 :	00000000000000000000000011110111;
	12 :	00000000000000000000000011110110;
	11 :	00000000000000000000000011111111;
	10 :	00000000000000000000000011111011;
	9 :	00000000000000000000000011110101;
	8 :	00000000000000000000000000000001;
	7 :	00000000000000000000000000010010;
	6 :	00000000000000000000000000000010;
	5 :	00000000000000000000000011111100;
	4 :	00000000000000000000000011111010;
	3 :	00000000000000000000000011111010;
	2 :	00000000000000000000000011110111;
	1 :	00000000000000000000000011110010;
	0 :	00000000000000000000000011111111;
END;
