-- begin_signature
-- Weight_Memory(numWeight
-- 16
-- neuronNo
-- 5
-- layerNo
-- 2
-- addressWidth
-- 4
-- dataWidth
-- 16
-- weightFile
-- "w_2_5.mif")
-- end_signature
WIDTH=16;
DEPTH=16;

ADDRESS_RADIX=UNS;
DATA_RADIX=BIN;

CONTENT BEGIN
	15 :	1111101110011010;
	14 :	1111101111110011;
	13 :	0000010111011000;
	12 :	0000011000000010;
	11 :	1111100001110000;
	10 :	1111101111101010;
	9 :	0000011010100010;
	8 :	1111111100111000;
	7 :	0000010100100101;
	6 :	1111111110000000;
	5 :	0000100101101100;
	4 :	0000100001100100;
	3 :	1111100100011101;
	2 :	0000001011011000;
	1 :	1111101101000000;
	0 :	1111110100010100;
END;
