-- begin_signature
-- Weight_Memory(numWeight
-- 64
-- neuronNo
-- 4
-- layerNo
-- 1
-- addressWidth
-- 6
-- dataWidth
-- 16
-- weightFile
-- "w_1_4.mif")
-- end_signature
WIDTH=16;
DEPTH=64;

ADDRESS_RADIX=UNS;
DATA_RADIX=BIN;

CONTENT BEGIN
	63 :	1111111000001001;
	62 :	1111101001010001;
	61 :	1111111001101110;
	60 :	1111101110110000;
	59 :	1111101000000011;
	58 :	1111010110110101;
	57 :	1110111101100110;
	56 :	1111100110010110;
	55 :	0000011001101000;
	54 :	1111100011110011;
	53 :	1111100110011101;
	52 :	1110111001000111;
	51 :	1111001001111001;
	50 :	1111111010001111;
	49 :	1111011101011100;
	48 :	1111111101010000;
	47 :	1111110101000000;
	46 :	0000011110010100;
	45 :	0000011101001101;
	44 :	0000001100001100;
	43 :	0000000100000101;
	42 :	0000110110110001;
	41 :	0000001011100011;
	40 :	0000011111011001;
	39 :	1111110101110111;
	38 :	0001000110010111;
	37 :	0000010000110111;
	36 :	0000000100111011;
	35 :	0000011101011001;
	34 :	0000110111101101;
	33 :	1111110011010100;
	32 :	1111110010111011;
	31 :	0000000101011110;
	30 :	0001010110011110;
	29 :	0000110001101011;
	28 :	0000001111100100;
	27 :	0000111000001110;
	26 :	0000111011111111;
	25 :	1111101110011110;
	24 :	0000010010010011;
	23 :	0000100010011001;
	22 :	0000111010100110;
	21 :	0000110111110111;
	20 :	1111111100100111;
	19 :	0000011100101101;
	18 :	0000100110010001;
	17 :	1111110110001101;
	16 :	0000001000001111;
	15 :	0000011011000000;
	14 :	1111111110111111;
	13 :	0000000001101011;
	12 :	1111100100011001;
	11 :	1111101100111110;
	10 :	1111111011111101;
	9 :	1111011111010010;
	8 :	0000001010000110;
	7 :	0000100101110011;
	6 :	1111110111010001;
	5 :	1111010100010110;
	4 :	1111101001101110;
	3 :	0000000010000100;
	2 :	1111101011011011;
	1 :	1110111011001010;
	0 :	0000000101011010;
END;
