-- begin_signature
-- neuron(layerNo
-- 2
-- neuronNo
-- 8
-- numWeight
-- 16
-- dataWidth
-- 16
-- weightIntWidth
-- 4
-- biasFile
-- "b_2_8.mif"
-- weightFile
-- "w_2_8.mif")
-- end_signature
WIDTH=32;
DEPTH=1;

ADDRESS_RADIX=UNS;
DATA_RADIX=BIN;

CONTENT BEGIN
	0 :	00000000000000000000000101011000;
END;
