-- begin_signature
-- Weight_Memory(numWeight
-- 64
-- neuronNo
-- 12
-- layerNo
-- 1
-- addressWidth
-- 6
-- dataWidth
-- 32
-- weightFile
-- "w_1_12.mif")
-- end_signature
WIDTH=32;
DEPTH=64;

ADDRESS_RADIX=UNS;
DATA_RADIX=BIN;

CONTENT BEGIN
	63 :	00000000000000000000000000010001;
	62 :	00000000000000000000000000001101;
	61 :	00000000000000000000000000000101;
	60 :	00000000000000000000000000000000;
	59 :	00000000000000000000000011110110;
	58 :	00000000000000000000000011110111;
	57 :	00000000000000000000000000000001;
	56 :	00000000000000000000000000000000;
	55 :	00000000000000000000000000001101;
	54 :	00000000000000000000000011111011;
	53 :	00000000000000000000000000000010;
	52 :	00000000000000000000000000001101;
	51 :	00000000000000000000000000001001;
	50 :	00000000000000000000000011111000;
	49 :	00000000000000000000000011111101;
	48 :	00000000000000000000000000000011;
	47 :	00000000000000000000000000000001;
	46 :	00000000000000000000000011110010;
	45 :	00000000000000000000000011111001;
	44 :	00000000000000000000000000001010;
	43 :	00000000000000000000000000001011;
	42 :	00000000000000000000000000000000;
	41 :	00000000000000000000000011111111;
	40 :	00000000000000000000000000000100;
	39 :	00000000000000000000000011111111;
	38 :	00000000000000000000000000000000;
	37 :	00000000000000000000000000000110;
	36 :	00000000000000000000000000000100;
	35 :	00000000000000000000000011111001;
	34 :	00000000000000000000000000000010;
	33 :	00000000000000000000000000010000;
	32 :	00000000000000000000000011111110;
	31 :	00000000000000000000000000000110;
	30 :	00000000000000000000000000001001;
	29 :	00000000000000000000000011111110;
	28 :	00000000000000000000000011111010;
	27 :	00000000000000000000000011111100;
	26 :	00000000000000000000000000000101;
	25 :	00000000000000000000000000001000;
	24 :	00000000000000000000000000000100;
	23 :	00000000000000000000000000000111;
	22 :	00000000000000000000000011111111;
	21 :	00000000000000000000000011111011;
	20 :	00000000000000000000000000000101;
	19 :	00000000000000000000000000001101;
	18 :	00000000000000000000000000000001;
	17 :	00000000000000000000000000000000;
	16 :	00000000000000000000000011111101;
	15 :	00000000000000000000000011111011;
	14 :	00000000000000000000000011111001;
	13 :	00000000000000000000000011111010;
	12 :	00000000000000000000000000000011;
	11 :	00000000000000000000000011111010;
	10 :	00000000000000000000000011110010;
	9 :	00000000000000000000000011111100;
	8 :	00000000000000000000000011110111;
	7 :	00000000000000000000000000000011;
	6 :	00000000000000000000000011111010;
	5 :	00000000000000000000000011110111;
	4 :	00000000000000000000000011111000;
	3 :	00000000000000000000000011111000;
	2 :	00000000000000000000000011111011;
	1 :	00000000000000000000000011111100;
	0 :	00000000000000000000000000000000;
END;
