-- begin_signature
-- Weight_Memory(numWeight
-- 64
-- neuronNo
-- 38
-- layerNo
-- 1
-- addressWidth
-- 6
-- dataWidth
-- 16
-- weightFile
-- "w_1_38.mif")
-- end_signature
WIDTH=16;
DEPTH=64;

ADDRESS_RADIX=UNS;
DATA_RADIX=BIN;

CONTENT BEGIN
	63 :	0000001001100010;
	62 :	1111100010110101;
	61 :	0000001101101010;
	60 :	0000000001000101;
	59 :	1111110010001000;
	58 :	1111101000111011;
	57 :	1111110101011000;
	56 :	1111100010000110;
	55 :	0000010010100111;
	54 :	1111110110010001;
	53 :	1111110001011100;
	52 :	1111110001101001;
	51 :	1111111110110010;
	50 :	1111110001001011;
	49 :	1111111100110001;
	48 :	0000010001110101;
	47 :	0000011010110110;
	46 :	0000001000001100;
	45 :	0000010011110110;
	44 :	0000111100010010;
	43 :	0000011001100000;
	42 :	0000001010101100;
	41 :	1111011001000111;
	40 :	0000011111010100;
	39 :	0000000111010001;
	38 :	1111110111110101;
	37 :	0000001101110101;
	36 :	0000100011101111;
	35 :	0000001011011001;
	34 :	0000010001001011;
	33 :	0000011000001000;
	32 :	0000000001000000;
	31 :	0000100101110010;
	30 :	1111011010001010;
	29 :	1111110000100001;
	28 :	0000010111000101;
	27 :	0000110010111111;
	26 :	0000111000000001;
	25 :	0000110011000001;
	24 :	0000000010101111;
	23 :	0000010010001100;
	22 :	1111000011101100;
	21 :	1110101100101000;
	20 :	1111010010110101;
	19 :	0000101000010111;
	18 :	0000101100110111;
	17 :	1111111100110101;
	16 :	1111111010001111;
	15 :	1111110011100011;
	14 :	1111111100111100;
	13 :	1111100101001101;
	12 :	1111001100010001;
	11 :	1111101000011101;
	10 :	1111100010111010;
	9 :	1111101110111100;
	8 :	0000000101100000;
	7 :	0000001100110001;
	6 :	1111111111100101;
	5 :	0000010000101101;
	4 :	1111100100110010;
	3 :	1111100101011010;
	2 :	1111101011110101;
	1 :	1111101010011010;
	0 :	1111111011100000;
END;
