-- begin_signature
-- Weight_Memory(numWeight
-- 30
-- neuronNo
-- 9
-- layerNo
-- 3
-- addressWidth
-- 5
-- dataWidth
-- 16
-- weightFile
-- "w_3_9.mif")
-- end_signature
WIDTH=16;
DEPTH=30;

ADDRESS_RADIX=UNS;
DATA_RADIX=BIN;

CONTENT BEGIN
	29 :	1111110001100000;
	28 :	1111111010010100;
	27 :	1111100011110111;
	26 :	0000000110010101;
	25 :	0000010001110001;
	24 :	0000010111100011;
	23 :	1111100011100001;
	22 :	1111101000011011;
	21 :	1111101001101001;
	20 :	0000001001100011;
	19 :	1111110100010100;
	18 :	1111110110101011;
	17 :	0000001100100111;
	16 :	1111101010100000;
	15 :	1111110001101010;
	14 :	0000000111111110;
	13 :	0000010110110011;
	12 :	1111111110100000;
	11 :	1111110111100111;
	10 :	1111101001011100;
	9 :	0000010110100110;
	8 :	0000001111111001;
	7 :	0000000101001101;
	6 :	1111100110101110;
	5 :	0000000101100011;
	4 :	1111110100111101;
	3 :	0000010001100010;
	2 :	1111100111000000;
	1 :	1111111010111101;
	0 :	0000001010001001;
END;
