-- begin_signature
-- Weight_Memory(numWeight
-- 64
-- neuronNo
-- 7
-- layerNo
-- 1
-- addressWidth
-- 6
-- dataWidth
-- 16
-- weightFile
-- "C:/Users/Ohmen/Desktop/Desktop/School/Thesis/rtl/w_1_7.mif")
-- end_signature
WIDTH=16;
DEPTH=64;

ADDRESS_RADIX=UNS;
DATA_RADIX=BIN;

CONTENT BEGIN
	63 :	0000000110001001;
	62 :	1111111110000101;
	61 :	1111100001001001;
	60 :	0000001100110011;
	59 :	1111101101100111;
	58 :	1111111100111001;
	57 :	0000000111010000;
	56 :	0000000001010100;
	55 :	1111111010111001;
	54 :	0000000101011110;
	53 :	1111010111101001;
	52 :	0000010010100101;
	51 :	1111001100000110;
	50 :	1111111011110110;
	49 :	0000000000001000;
	48 :	1111111000011101;
	47 :	1111111100111010;
	46 :	1111110000010100;
	45 :	1111110100011110;
	44 :	0000100001111000;
	43 :	0000000111101101;
	42 :	0000001011001111;
	41 :	0000001111101101;
	40 :	1111111101110110;
	39 :	1111110110000001;
	38 :	0000000001011010;
	37 :	0000010000111000;
	36 :	0000000010100101;
	35 :	1111011001010111;
	34 :	1111110000111111;
	33 :	1111111000101000;
	32 :	0000001011000101;
	31 :	0000000010001100;
	30 :	0000000101100111;
	29 :	0000100011110101;
	28 :	0000001010011101;
	27 :	1111101011101011;
	26 :	1111011111111010;
	25 :	1111100101100011;
	24 :	0000001110011000;
	23 :	0000000001000101;
	22 :	0000010011001100;
	21 :	1111111100011010;
	20 :	0000001100100110;
	19 :	0000010111000101;
	18 :	0000000101010110;
	17 :	1111101111111011;
	16 :	0000000001001011;
	15 :	0000010100100100;
	14 :	0000001111010101;
	13 :	1111010011000101;
	12 :	0000011011101110;
	11 :	0000100111010101;
	10 :	0000001011111101;
	9 :	1111111000001111;
	8 :	1111111011000110;
	7 :	0000001100101001;
	6 :	0000010010010001;
	5 :	1111111100010100;
	4 :	1111100100000001;
	3 :	0000000010110100;
	2 :	0000001011110011;
	1 :	0000000100001000;
	0 :	0000000101111011;
END;
