-- begin_signature
-- Weight_Memory(numWeight
-- 64
-- neuronNo
-- 29
-- layerNo
-- 1
-- addressWidth
-- 6
-- dataWidth
-- 16
-- weightFile
-- "w_1_29.mif")
-- end_signature
WIDTH=16;
DEPTH=64;

ADDRESS_RADIX=UNS;
DATA_RADIX=BIN;

CONTENT BEGIN
	63 :	1110101100010011;
	62 :	1111011001111001;
	61 :	0000001100110110;
	60 :	0000011011110111;
	59 :	0000111001111110;
	58 :	0000100101000111;
	57 :	0000110000011110;
	56 :	0000001110110001;
	55 :	1111000100101011;
	54 :	0000101101011010;
	53 :	0001000000110010;
	52 :	0000001110001001;
	51 :	1111110101101100;
	50 :	0000111011010001;
	49 :	0000000011001000;
	48 :	0000000000110001;
	47 :	0000111000011111;
	46 :	0001100010110110;
	45 :	0000011010001011;
	44 :	1111000001000011;
	43 :	1111001101011110;
	42 :	0000100011111010;
	41 :	1111101101100001;
	40 :	1111011100001001;
	39 :	0000000100100100;
	38 :	1111100000010110;
	37 :	1111011000011001;
	36 :	1111100011111101;
	35 :	1111110101110001;
	34 :	1111111011110100;
	33 :	1111101010010010;
	32 :	0000001100000010;
	31 :	1111101010011101;
	30 :	1110111111010111;
	29 :	1111011110000111;
	28 :	1111100100101010;
	27 :	1111111100100100;
	26 :	1111110001111111;
	25 :	1111111010101000;
	24 :	1111100110001111;
	23 :	1111100001101010;
	22 :	1111100100101001;
	21 :	0000001010100101;
	20 :	1110110111101010;
	19 :	1110101110001011;
	18 :	0000010011010011;
	17 :	0000001100100000;
	16 :	1111100011011010;
	15 :	1111001110101000;
	14 :	0000010011001101;
	13 :	0000100001111000;
	12 :	1111101111100100;
	11 :	1111111011110010;
	10 :	0001000011111000;
	9 :	0000110101011111;
	8 :	0000010011111111;
	7 :	1111010000101110;
	6 :	1111101101110111;
	5 :	0000001001011110;
	4 :	0000100100000110;
	3 :	0000001111010101;
	2 :	0000011010111110;
	1 :	0000011001111111;
	0 :	1111111010001111;
END;
