-- begin_signature
-- Weight_Memory(numWeight
-- 64
-- neuronNo
-- 3
-- layerNo
-- 1
-- addressWidth
-- 6
-- dataWidth
-- 16
-- weightFile
-- "C:/Users/Ohmen/Desktop/Desktop/School/Thesis/tensorflow/w_b/w_1_3.mif")
-- end_signature
WIDTH=16;
DEPTH=64;

ADDRESS_RADIX=UNS;
DATA_RADIX=BIN;

CONTENT BEGIN
	63 :	1111101101101100;
	62 :	0000000001011010;
	61 :	0000000110001000;
	60 :	0000011010101100;
	59 :	0000001000011011;
	58 :	1111110101001001;
	57 :	1111101111111111;
	56 :	0000010101101000;
	55 :	0000011100001110;
	54 :	1111111110010010;
	53 :	1111111111011000;
	52 :	0000001111101111;
	51 :	0000000011101100;
	50 :	0000011011001100;
	49 :	0000000010001110;
	48 :	1111110110001110;
	47 :	0000001100001100;
	46 :	0000000110100110;
	45 :	0000000110011011;
	44 :	1111010100011000;
	43 :	1111110101111110;
	42 :	0000000011001101;
	41 :	0000001001000111;
	40 :	0000000110110011;
	39 :	1111110010000111;
	38 :	0000011000101010;
	37 :	1111110000011011;
	36 :	1110101110011011;
	35 :	1111101000010100;
	34 :	0000010000110101;
	33 :	0000000010110000;
	32 :	1111110000100011;
	31 :	1111101000011110;
	30 :	0000100110010010;
	29 :	0000011011000010;
	28 :	1111100000010001;
	27 :	1111101100111000;
	26 :	1111111010000111;
	25 :	1111110011000100;
	24 :	1111100110110000;
	23 :	1111101010110111;
	22 :	0000001101000010;
	21 :	0001000001111111;
	20 :	1111101111001101;
	19 :	1111111111011011;
	18 :	0000001010100000;
	17 :	1111101101000010;
	16 :	1111111110001110;
	15 :	0000000110111010;
	14 :	1111101001111000;
	13 :	0000001011100010;
	12 :	0000010010000111;
	11 :	0000010100011111;
	10 :	1111111011110110;
	9 :	1111111010010011;
	8 :	1111110010000110;
	7 :	1111111110100000;
	6 :	1111101000010011;
	5 :	1111001010001011;
	4 :	0000000110010010;
	3 :	0000001100010101;
	2 :	1111110000011111;
	1 :	1111111000100001;
	0 :	1111110000111111;
END;
