-- begin_signature
-- Weight_Memory(numWeight
-- 16
-- neuronNo
-- 4
-- layerNo
-- 2
-- addressWidth
-- 4
-- dataWidth
-- 32
-- weightFile
-- "w_2_4.mif")
-- end_signature
WIDTH=32;
DEPTH=16;

ADDRESS_RADIX=UNS;
DATA_RADIX=BIN;

CONTENT BEGIN
	15 :	00000000000000000000000011111000;
	14 :	00000000000000000000000000000101;
	13 :	00000000000000000000000000010101;
	12 :	00000000000000000000000011111110;
	11 :	00000000000000000000000000000110;
	10 :	00000000000000000000000000000101;
	9 :	00000000000000000000000000000010;
	8 :	00000000000000000000000000000001;
	7 :	00000000000000000000000000000001;
	6 :	00000000000000000000000000000110;
	5 :	00000000000000000000000011111011;
	4 :	00000000000000000000000000000110;
	3 :	00000000000000000000000011111101;
	2 :	00000000000000000000000000000011;
	1 :	00000000000000000000000000000001;
	0 :	00000000000000000000000011111110;
END;
