-- begin_signature
-- Weight_Memory(numWeight
-- 64
-- neuronNo
-- 5
-- layerNo
-- 1
-- addressWidth
-- 6
-- dataWidth
-- 16
-- weightFile
-- "C:/Users/Ohmen/Desktop/Desktop/School/Thesis/tensorflow/w_b/w_1_5.mif")
-- end_signature
WIDTH=16;
DEPTH=64;

ADDRESS_RADIX=UNS;
DATA_RADIX=BIN;

CONTENT BEGIN
	63 :	0000000110111011;
	62 :	0000100110011000;
	61 :	0000010110100001;
	60 :	0000010011111000;
	59 :	0000000100010010;
	58 :	0000000101000101;
	57 :	0000010001100010;
	56 :	0000001101100011;
	55 :	0000000010010101;
	54 :	0000011010111101;
	53 :	0000101010100001;
	52 :	0000001110111000;
	51 :	0000001101000001;
	50 :	0000001000010101;
	49 :	0000001100111011;
	48 :	0000001000101110;
	47 :	0000100000101010;
	46 :	1111101011001000;
	45 :	1111100100011011;
	44 :	1111111011010100;
	43 :	0000010110010111;
	42 :	0000011001001000;
	41 :	1111111011111101;
	40 :	1111101110011101;
	39 :	0000000101000111;
	38 :	1111110010011110;
	37 :	1111110111000010;
	36 :	1111101010110010;
	35 :	0000011101100011;
	34 :	1111101100001000;
	33 :	1111111010111010;
	32 :	1111111010001001;
	31 :	1111110010011011;
	30 :	1111101001100001;
	29 :	0000000110100100;
	28 :	1111111111110110;
	27 :	0000001101100111;
	26 :	1111101010011110;
	25 :	1111011011010111;
	24 :	0000000001001011;
	23 :	1111010100111100;
	22 :	0000001011101110;
	21 :	0000000101010110;
	20 :	0000000111001110;
	19 :	1111110000001111;
	18 :	0000011101000101;
	17 :	0000001011110110;
	16 :	0000000111011001;
	15 :	1111110110000110;
	14 :	0000000010001101;
	13 :	0000001011100111;
	12 :	0000001001011111;
	11 :	1111110111100010;
	10 :	0000001100101101;
	9 :	0000000110101011;
	8 :	0000000110110011;
	7 :	1111111010110101;
	6 :	1111101010110010;
	5 :	0000010000101100;
	4 :	1111110100000011;
	3 :	0000001001001000;
	2 :	0000001001100101;
	1 :	1111101000101000;
	0 :	0000001100100001;
END;
