-- begin_signature
-- Weight_Memory(numWeight
-- 16
-- neuronNo
-- 9
-- layerNo
-- 2
-- addressWidth
-- 4
-- dataWidth
-- 32
-- weightFile
-- "w_2_9.mif")
-- end_signature
WIDTH=32;
DEPTH=16;

ADDRESS_RADIX=UNS;
DATA_RADIX=BIN;

CONTENT BEGIN
	15 :	00000000000000000000000011110101;
	14 :	00000000000000000000000011110100;
	13 :	00000000000000000000000011111100;
	12 :	00000000000000000000000000000000;
	11 :	00000000000000000000000000001000;
	10 :	00000000000000000000000011110011;
	9 :	00000000000000000000000000000011;
	8 :	00000000000000000000000011111001;
	7 :	00000000000000000000000000000111;
	6 :	00000000000000000000000000000010;
	5 :	00000000000000000000000000000111;
	4 :	00000000000000000000000011111101;
	3 :	00000000000000000000000011101111;
	2 :	00000000000000000000000000000100;
	1 :	00000000000000000000000011110010;
	0 :	00000000000000000000000011110110;
END;
