-- begin_signature
-- Weight_Memory(numWeight
-- 30
-- neuronNo
-- 14
-- layerNo
-- 2
-- addressWidth
-- 5
-- dataWidth
-- 16
-- weightFile
-- "w_2_14.mif")
-- end_signature
WIDTH=16;
DEPTH=30;

ADDRESS_RADIX=UNS;
DATA_RADIX=BIN;

CONTENT BEGIN
	29 :	1111110011000000;
	28 :	1111100101001100;
	27 :	0000010010101000;
	26 :	1111111011100111;
	25 :	0000001111000000;
	24 :	1111101110011110;
	23 :	0000010110000100;
	22 :	0000001111111111;
	21 :	0000000011001111;
	20 :	1111110011100010;
	19 :	0000001001000000;
	18 :	1111111001010000;
	17 :	0000001000101101;
	16 :	1111111100010100;
	15 :	0000001111111110;
	14 :	1111110011111101;
	13 :	0000000010101001;
	12 :	1111111110110101;
	11 :	0000001001111110;
	10 :	1111011011110100;
	9 :	1111110101111101;
	8 :	0000000101111001;
	7 :	1111111010001000;
	6 :	1111101111001000;
	5 :	0000000101101101;
	4 :	0000000110110111;
	3 :	0000010111011101;
	2 :	1111100100000111;
	1 :	1111111101100111;
	0 :	0000001101010001;
END;
