-- begin_signature
-- Weight_Memory(numWeight
-- 64
-- neuronNo
-- 30
-- layerNo
-- 1
-- addressWidth
-- 6
-- dataWidth
-- 16
-- weightFile
-- "w_1_30.mif")
-- end_signature
WIDTH=16;
DEPTH=64;

ADDRESS_RADIX=UNS;
DATA_RADIX=BIN;

CONTENT BEGIN
	63 :	0001001101010011;
	62 :	0000110110100100;
	61 :	0000110110000100;
	60 :	0000100001101010;
	59 :	1111110010111100;
	58 :	0000001111010000;
	57 :	0000011101000000;
	56 :	0000010001001011;
	55 :	0001001010111000;
	54 :	0000110100000101;
	53 :	0000011000110110;
	52 :	0001000011100110;
	51 :	0000000101010001;
	50 :	1111100001010000;
	49 :	0000001010010111;
	48 :	0000000111001110;
	47 :	1111110010111100;
	46 :	0000001111010001;
	45 :	1111011111001000;
	44 :	1111100100101101;
	43 :	1111011010111100;
	42 :	1110110111100100;
	41 :	0000000110100010;
	40 :	1111110001011100;
	39 :	0000000110111110;
	38 :	0000100000100110;
	37 :	1111111110010000;
	36 :	1111011011100100;
	35 :	1111011000001100;
	34 :	1111010101000010;
	33 :	1111101001000101;
	32 :	0000001001010101;
	31 :	1111111001110100;
	30 :	0000010100110110;
	29 :	0000010010010000;
	28 :	1111111110001010;
	27 :	1111011001100000;
	26 :	1111101011110001;
	25 :	1111100011001011;
	24 :	0000001000001100;
	23 :	1111110011100000;
	22 :	0000011000000110;
	21 :	0000101000000001;
	20 :	0001000101010010;
	19 :	1111111110011010;
	18 :	1111010000010000;
	17 :	1111110110010110;
	16 :	1111101100111101;
	15 :	1111100110100011;
	14 :	1111111011010010;
	13 :	0000010101111101;
	12 :	0000011010100100;
	11 :	1111110010111010;
	10 :	1111100011011000;
	9 :	0000000101000100;
	8 :	1111101011111110;
	7 :	1111100101010100;
	6 :	1111110101100101;
	5 :	1111101001011100;
	4 :	1111101111111101;
	3 :	0000010000110111;
	2 :	1111111110111010;
	1 :	0000001101110100;
	0 :	1111111010011001;
END;
