-- begin_signature
-- Weight_Memory(numWeight
-- 37
-- neuronNo
-- 4
-- layerNo
-- 3
-- addressWidth
-- 6
-- dataWidth
-- 16
-- weightFile
-- "w_3_4.mif")
-- end_signature
WIDTH=16;
DEPTH=37;

ADDRESS_RADIX=UNS;
DATA_RADIX=BIN;

CONTENT BEGIN
	36 :	1110010010111011;
	35 :	1110010000100101;
	34 :	0000110110101001;
	33 :	0000100001111000;
	32 :	1111100100111001;
	31 :	1111101111101000;
	30 :	0000010111111100;
	29 :	0000000011110111;
	28 :	0000000011101111;
	27 :	1110011111011101;
	26 :	1101110111001011;
	25 :	1111010011111111;
	24 :	1101111111110000;
	23 :	1110110000100010;
	22 :	0000101011011111;
	21 :	0000001110111001;
	20 :	0000100011110000;
	19 :	0000010000101110;
	18 :	0000100011110111;
	17 :	1110101000011010;
	16 :	1110011010110001;
	15 :	1111101100111001;
	14 :	1111001101001100;
	13 :	0000100001000000;
	12 :	0000011110011011;
	11 :	0000111011110101;
	10 :	1101110101101001;
	9 :	0000100110010001;
	8 :	0000011110001100;
	7 :	0000100001000000;
	6 :	1111010101001111;
	5 :	1111101111001001;
	4 :	1111011010110000;
	3 :	1110111100001011;
	2 :	0000010001001001;
	1 :	0000100110101010;
	0 :	1110010010001010;
END;
