-- begin_signature
-- Weight_Memory(numWeight
-- 64
-- neuronNo
-- 1
-- layerNo
-- 1
-- addressWidth
-- 6
-- dataWidth
-- 32
-- weightFile
-- "w_1_1.mif")
-- end_signature
WIDTH=32;
DEPTH=64;

ADDRESS_RADIX=UNS;
DATA_RADIX=BIN;

CONTENT BEGIN
	63 :	00000000000000000000000011111000;
	62 :	00000000000000000000000000001010;
	61 :	00000000000000000000000000000101;
	60 :	00000000000000000000000000000010;
	59 :	00000000000000000000000000000100;
	58 :	00000000000000000000000000001000;
	57 :	00000000000000000000000000001101;
	56 :	00000000000000000000000000001000;
	55 :	00000000000000000000000011111011;
	54 :	00000000000000000000000000001101;
	53 :	00000000000000000000000000000101;
	52 :	00000000000000000000000000001010;
	51 :	00000000000000000000000000000111;
	50 :	00000000000000000000000000000011;
	49 :	00000000000000000000000000000010;
	48 :	00000000000000000000000000000100;
	47 :	00000000000000000000000011111111;
	46 :	00000000000000000000000000001100;
	45 :	00000000000000000000000011111100;
	44 :	00000000000000000000000011110010;
	43 :	00000000000000000000000011110001;
	42 :	00000000000000000000000011110100;
	41 :	00000000000000000000000000000011;
	40 :	00000000000000000000000011111001;
	39 :	00000000000000000000000000000011;
	38 :	00000000000000000000000000000111;
	37 :	00000000000000000000000000000000;
	36 :	00000000000000000000000011101111;
	35 :	00000000000000000000000011110101;
	34 :	00000000000000000000000011110010;
	33 :	00000000000000000000000000000000;
	32 :	00000000000000000000000000000000;
	31 :	00000000000000000000000011111001;
	30 :	00000000000000000000000000000110;
	29 :	00000000000000000000000011111100;
	28 :	00000000000000000000000011111010;
	27 :	00000000000000000000000011110010;
	26 :	00000000000000000000000011110011;
	25 :	00000000000000000000000011111010;
	24 :	00000000000000000000000011111111;
	23 :	00000000000000000000000011111111;
	22 :	00000000000000000000000000000001;
	21 :	00000000000000000000000000001011;
	20 :	00000000000000000000000000000101;
	19 :	00000000000000000000000011110100;
	18 :	00000000000000000000000011110111;
	17 :	00000000000000000000000011111100;
	16 :	00000000000000000000000011111000;
	15 :	00000000000000000000000011111100;
	14 :	00000000000000000000000011111011;
	13 :	00000000000000000000000000000101;
	12 :	00000000000000000000000000001010;
	11 :	00000000000000000000000000000011;
	10 :	00000000000000000000000000000011;
	9 :	00000000000000000000000000001001;
	8 :	00000000000000000000000011110111;
	7 :	00000000000000000000000011111110;
	6 :	00000000000000000000000011110111;
	5 :	00000000000000000000000011110100;
	4 :	00000000000000000000000000000011;
	3 :	00000000000000000000000000001011;
	2 :	00000000000000000000000000000111;
	1 :	00000000000000000000000000001110;
	0 :	00000000000000000000000000000011;
END;
