-- begin_signature
-- Weight_Memory(numWeight
-- 64
-- neuronNo
-- 41
-- layerNo
-- 1
-- addressWidth
-- 6
-- dataWidth
-- 16
-- weightFile
-- "w_1_41.mif")
-- end_signature
WIDTH=16;
DEPTH=64;

ADDRESS_RADIX=UNS;
DATA_RADIX=BIN;

CONTENT BEGIN
	63 :	0000100010010011;
	62 :	0000010110101110;
	61 :	0000101111011111;
	60 :	0000101010110011;
	59 :	0000000111000101;
	58 :	1111011000000101;
	57 :	1111001111001001;
	56 :	1111110101100101;
	55 :	0000110111000110;
	54 :	0000011111100011;
	53 :	0000010011011110;
	52 :	0000011010100101;
	51 :	1111101101011000;
	50 :	1111100101000100;
	49 :	1111010110010010;
	48 :	1111100001010100;
	47 :	1111110111100110;
	46 :	0000010011110011;
	45 :	1111101000010001;
	44 :	1111110110110001;
	43 :	1111000011000000;
	42 :	1111101011111111;
	41 :	1110111111111001;
	40 :	1111010001001110;
	39 :	1111110010101111;
	38 :	1111100111000110;
	37 :	1111101111101001;
	36 :	1111011110101110;
	35 :	1111111110111111;
	34 :	1111101011100011;
	33 :	1111001001011100;
	32 :	0000000100111100;
	31 :	1111010110000100;
	30 :	1111111001100000;
	29 :	0000001011111111;
	28 :	1111110010011010;
	27 :	0000011000110101;
	26 :	0000000110001101;
	25 :	1111100111010001;
	24 :	0000000100100000;
	23 :	1111100000110111;
	22 :	0000010001010100;
	21 :	0001000111111000;
	20 :	0000110101110111;
	19 :	0000100101000110;
	18 :	1111100100110011;
	17 :	1111110011000000;
	16 :	0000000110011010;
	15 :	1111110001111110;
	14 :	1111111000111111;
	13 :	0000100110111110;
	12 :	0000011100100001;
	11 :	1111110010010111;
	10 :	1111011110011011;
	9 :	1111010001001111;
	8 :	1111100111101111;
	7 :	1111011101001111;
	6 :	1111101000010100;
	5 :	1111110111001000;
	4 :	1111110000011111;
	3 :	0000010000101110;
	2 :	1111001111010100;
	1 :	1111101111011100;
	0 :	0000000110010111;
END;
