-- begin_signature
-- Weight_Memory(numWeight
-- 45
-- neuronNo
-- 36
-- layerNo
-- 2
-- addressWidth
-- 6
-- dataWidth
-- 16
-- weightFile
-- "w_2_36.mif")
-- end_signature
WIDTH=16;
DEPTH=45;

ADDRESS_RADIX=UNS;
DATA_RADIX=BIN;

CONTENT BEGIN
	44 :	0000001010011111;
	43 :	1111110010110111;
	42 :	0000110000101111;
	41 :	0000100111010010;
	40 :	0001010101001110;
	39 :	0000000010110000;
	38 :	1111101011111010;
	37 :	1111111001000001;
	36 :	1111011111101000;
	35 :	0000110100110110;
	34 :	1111111100001010;
	33 :	1111100111111011;
	32 :	1111110001111110;
	31 :	1111111011110011;
	30 :	0000000011000000;
	29 :	0001100101100011;
	28 :	0000010000001011;
	27 :	1111100101001110;
	26 :	0000110000110001;
	25 :	1110101101100000;
	24 :	0001000111000001;
	23 :	0001001000010000;
	22 :	1111001111000011;
	21 :	0000000001001000;
	20 :	0000011000100111;
	19 :	1111111001010111;
	18 :	1111101100100110;
	17 :	1111001101110101;
	16 :	0000100001111110;
	15 :	0000011011001110;
	14 :	0000110100110011;
	13 :	1111001110001010;
	12 :	0000100011101000;
	11 :	1110010101110001;
	10 :	1111110100011110;
	9 :	0000100111101000;
	8 :	1111101110001101;
	7 :	0000101011111001;
	6 :	1111001110011110;
	5 :	1111100010101010;
	4 :	1111110110001100;
	3 :	0000010010110011;
	2 :	1111100010000110;
	1 :	0000000100011110;
	0 :	0000001000001011;
END;
