-- begin_signature
-- Weight_Memory(numWeight
-- 10
-- neuronNo
-- 7
-- layerNo
-- 3
-- addressWidth
-- 4
-- dataWidth
-- 32
-- weightFile
-- "w_3_7.mif")
-- end_signature
WIDTH=32;
DEPTH=10;

ADDRESS_RADIX=UNS;
DATA_RADIX=BIN;

CONTENT BEGIN
	9 :	00000000000000000000000000001011;
	8 :	00000000000000000000000011111010;
	7 :	00000000000000000000000000000011;
	6 :	00000000000000000000000000000000;
	5 :	00000000000000000000000011110111;
	4 :	00000000000000000000000011100000;
	3 :	00000000000000000000000011100011;
	2 :	00000000000000000000000011100111;
	1 :	00000000000000000000000000001100;
	0 :	00000000000000000000000000001010;
END;
