-- begin_signature
-- Weight_Memory(numWeight
-- 64
-- neuronNo
-- 4
-- layerNo
-- 1
-- addressWidth
-- 6
-- dataWidth
-- 16
-- weightFile
-- "C:/Users/Ohmen/Desktop/Desktop/School/Thesis/tensorflow/w_b/w_1_4.mif")
-- end_signature
WIDTH=16;
DEPTH=64;

ADDRESS_RADIX=UNS;
DATA_RADIX=BIN;

CONTENT BEGIN
	63 :	1111111101101000;
	62 :	1111110000111000;
	61 :	0000001000100000;
	60 :	0000010110000010;
	59 :	0000000000101000;
	58 :	1111101011100000;
	57 :	1111111101111010;
	56 :	1111100111100000;
	55 :	0000000000111001;
	54 :	1111011100111011;
	53 :	1111111010110110;
	52 :	0000010101101010;
	51 :	1111110011011011;
	50 :	0000010110110111;
	49 :	1111110101111101;
	48 :	1111100111000101;
	47 :	1111111101010010;
	46 :	0000010100010011;
	45 :	0000010110101111;
	44 :	0000100011100110;
	43 :	0000001110100101;
	42 :	0000001011000111;
	41 :	0000001011110111;
	40 :	0000100000011101;
	39 :	0000001010111111;
	38 :	0000000110000000;
	37 :	0000001001000010;
	36 :	1111111101111101;
	35 :	0000000011111110;
	34 :	0000001111011101;
	33 :	0000100010001111;
	32 :	1111110100110110;
	31 :	0000000101011001;
	30 :	0000001110110111;
	29 :	0000000011100111;
	28 :	1111101010010110;
	27 :	0000011101000001;
	26 :	0000100000110011;
	25 :	0000110010100110;
	24 :	0000001111001101;
	23 :	0000000011101010;
	22 :	1111010101011011;
	21 :	1111100010111010;
	20 :	1111100010110010;
	19 :	0000100100010010;
	18 :	0000100111110110;
	17 :	1111111011100011;
	16 :	1111110011010110;
	15 :	1111101110100100;
	14 :	1111100111111100;
	13 :	1111110111101111;
	12 :	1111101001111000;
	11 :	0000001000101000;
	10 :	1111101001100011;
	9 :	1111110000111001;
	8 :	1111111011110010;
	7 :	1111011111001000;
	6 :	1111101110100000;
	5 :	1111111011000100;
	4 :	0000000011011001;
	3 :	1111101111110101;
	2 :	1111111101000110;
	1 :	0000000000100000;
	0 :	0000001011110111;
END;
