-- begin_signature
-- Weight_Memory(numWeight
-- 30
-- neuronNo
-- 4
-- layerNo
-- 2
-- addressWidth
-- 5
-- dataWidth
-- 16
-- weightFile
-- "w_2_4.mif")
-- end_signature
WIDTH=16;
DEPTH=30;

ADDRESS_RADIX=UNS;
DATA_RADIX=BIN;

CONTENT BEGIN
	29 :	1111110011101000;
	28 :	1111111110100101;
	27 :	0000001110011101;
	26 :	0000010001010001;
	25 :	1111101011001101;
	24 :	1111110101000100;
	23 :	1111111001111100;
	22 :	1111101010111010;
	21 :	1111110001000111;
	20 :	0000010000000110;
	19 :	1111110111001000;
	18 :	1111110110001110;
	17 :	0000001010001101;
	16 :	1111101100001011;
	15 :	1111101011111100;
	14 :	1111111100010011;
	13 :	0000001010100111;
	12 :	0000000010100101;
	11 :	0000000001101101;
	10 :	1111110000101010;
	9 :	0000000000100100;
	8 :	1111111111100010;
	7 :	0000001000000011;
	6 :	1111110101100101;
	5 :	1111111100001111;
	4 :	1111101111010000;
	3 :	0000000011110010;
	2 :	0000001110101011;
	1 :	0000001000011011;
	0 :	1111110111000011;
END;
