-- begin_signature
-- neuron(layerNo
-- 3
-- neuronNo
-- 6
-- numWeight
-- 10
-- dataWidth
-- 16
-- weightIntWidth
-- 4
-- biasFile
-- "b_4_6.mif"
-- weightFile
-- "w_4_6.mif")
-- end_signature
WIDTH=32;
DEPTH=1;

ADDRESS_RADIX=UNS;
DATA_RADIX=BIN;

CONTENT BEGIN
	0 :	00000000000000001111111110100000;
END;
