-- begin_signature
-- Weight_Memory(numWeight
-- 64
-- neuronNo
-- 23
-- layerNo
-- 1
-- addressWidth
-- 6
-- dataWidth
-- 16
-- weightFile
-- "w_1_23.mif")
-- end_signature
WIDTH=16;
DEPTH=64;

ADDRESS_RADIX=UNS;
DATA_RADIX=BIN;

CONTENT BEGIN
	63 :	1111010001001001;
	62 :	0000000011100110;
	61 :	0000001010100101;
	60 :	0000001010100101;
	59 :	0000011100110000;
	58 :	0000010111110110;
	57 :	1111101000111000;
	56 :	0000011100111010;
	55 :	1111110100110101;
	54 :	0000100011001001;
	53 :	0000001011101101;
	52 :	0000000100000101;
	51 :	0000001110111001;
	50 :	0000100110011100;
	49 :	1111111101110110;
	48 :	1111110001110001;
	47 :	0000000100010100;
	46 :	0000110011101000;
	45 :	0000001011001011;
	44 :	1110110000111001;
	43 :	1110111000100110;
	42 :	0000000111011100;
	41 :	1111110111011110;
	40 :	1111110010000001;
	39 :	0000000101110011;
	38 :	0000001100101010;
	37 :	1111110010001101;
	36 :	1111000100101100;
	35 :	1111001111011010;
	34 :	1111101010011011;
	33 :	1111110011011111;
	32 :	1111111101100000;
	31 :	1111110000101001;
	30 :	0000001011011110;
	29 :	1111101110001110;
	28 :	1111010101111001;
	27 :	1111010100011011;
	26 :	1111011010011010;
	25 :	1111110111011101;
	24 :	1111111101101000;
	23 :	1111100101011000;
	22 :	0000001010110001;
	21 :	0000101011000001;
	20 :	0000001100011001;
	19 :	1111100000101111;
	18 :	1111110101000101;
	17 :	1111111011010000;
	16 :	1111110100111110;
	15 :	1111110000111100;
	14 :	1111010110111110;
	13 :	0000010100001101;
	12 :	0000010010100111;
	11 :	0000001001101110;
	10 :	0000100000000010;
	9 :	1111101110100111;
	8 :	1111101000010010;
	7 :	1111110001010000;
	6 :	1110100001101110;
	5 :	1111000001100100;
	4 :	0000010001110011;
	3 :	0000011111011111;
	2 :	1111111110001111;
	1 :	0000000010100111;
	0 :	0000000111101100;
END;
