-- begin_signature
-- Weight_Memory(numWeight
-- 64
-- neuronNo
-- 2
-- layerNo
-- 1
-- addressWidth
-- 6
-- dataWidth
-- 16
-- weightFile
-- "C:/Users/Ohmen/Desktop/Desktop/School/Thesis/rtl/w_1_2.mif")
-- end_signature
WIDTH=16;
DEPTH=64;

ADDRESS_RADIX=UNS;
DATA_RADIX=BIN;

CONTENT BEGIN
	63 :	1111100010010000;
	62 :	1111110001100010;
	61 :	1111111110111101;
	60 :	1111101110010001;
	59 :	1111101101010000;
	58 :	1111000001000011;
	57 :	1111101111001011;
	56 :	1111111011001011;
	55 :	1111101010111011;
	54 :	0000110001111110;
	53 :	0000001001000111;
	52 :	1110100000001100;
	51 :	1111111011110110;
	50 :	0000110100000000;
	49 :	1111110101110111;
	48 :	1111111110100101;
	47 :	0000000011101000;
	46 :	0000011110101100;
	45 :	0000011100111000;
	44 :	1111111011010010;
	43 :	1111011011111001;
	42 :	0000010100011101;
	41 :	1111101100001111;
	40 :	1111111000111001;
	39 :	0000000100110010;
	38 :	1111100010101100;
	37 :	1111100000001000;
	36 :	1111101011110110;
	35 :	0001100011000011;
	34 :	1111111000100110;
	33 :	1110101011111100;
	32 :	0000001000010001;
	31 :	0000001010001001;
	30 :	1111011001010010;
	29 :	0000011111000001;
	28 :	0000100110011011;
	27 :	0001001011000101;
	26 :	1111111010001111;
	25 :	1111100100101101;
	24 :	1111111111011000;
	23 :	0000000011010111;
	22 :	1111111111110101;
	21 :	0000101000001000;
	20 :	1111000011000101;
	19 :	0000000101101010;
	18 :	0000100000010001;
	17 :	0000001110010001;
	16 :	0000000010001011;
	15 :	0000000000111010;
	14 :	0000000111100111;
	13 :	1111111100011000;
	12 :	1111001010110001;
	11 :	0000100100000011;
	10 :	0000000100110010;
	9 :	1111011001001101;
	8 :	0000000011100101;
	7 :	1111110100000011;
	6 :	1111011101011110;
	5 :	1111011101000001;
	4 :	0000010000110010;
	3 :	1111011001100111;
	2 :	1111010101000000;
	1 :	0000000011110010;
	0 :	1111111001111100;
END;
