-- begin_signature
-- Weight_Memory(numWeight
-- 45
-- neuronNo
-- 8
-- layerNo
-- 2
-- addressWidth
-- 6
-- dataWidth
-- 16
-- weightFile
-- "w_2_8.mif")
-- end_signature
WIDTH=16;
DEPTH=45;

ADDRESS_RADIX=UNS;
DATA_RADIX=BIN;

CONTENT BEGIN
	44 :	1111101101111010;
	43 :	0000111011001100;
	42 :	1111100010100100;
	41 :	1111110111011010;
	40 :	0000010010000001;
	39 :	1111010111000010;
	38 :	0000011100011011;
	37 :	0000101000000111;
	36 :	0000110010100010;
	35 :	0000010100110000;
	34 :	0000000101001001;
	33 :	0000101000001010;
	32 :	0000000010111110;
	31 :	0000010010101000;
	30 :	1111001011100111;
	29 :	0000000100111001;
	28 :	1111100011011111;
	27 :	0000100010110100;
	26 :	1111011100001001;
	25 :	1111011100111010;
	24 :	1111101101110110;
	23 :	0000001011011100;
	22 :	1111101110110111;
	21 :	1111011111100110;
	20 :	1111101001111101;
	19 :	0000000110011010;
	18 :	1111111101110111;
	17 :	0000100000111100;
	16 :	0000101010011011;
	15 :	1111101101001110;
	14 :	1110110101000101;
	13 :	0000011011111111;
	12 :	1111011010010010;
	11 :	0000001110110100;
	10 :	1111110111100000;
	9 :	1111110100101110;
	8 :	1111110101011010;
	7 :	1111001011001000;
	6 :	1111100111101011;
	5 :	1111111110101010;
	4 :	0000111001100100;
	3 :	1111010100110100;
	2 :	0000011010011100;
	1 :	1111011101000111;
	0 :	0000001010001000;
END;
