-- begin_signature
-- Weight_Memory(numWeight
-- 16
-- neuronNo
-- 6
-- layerNo
-- 2
-- addressWidth
-- 4
-- dataWidth
-- 16
-- weightFile
-- "w_2_6.mif")
-- end_signature
WIDTH=16;
DEPTH=16;

ADDRESS_RADIX=UNS;
DATA_RADIX=BIN;

CONTENT BEGIN
	15 :	0000000010110001;
	14 :	0000100110111010;
	13 :	1111001011010010;
	12 :	1111110001111111;
	11 :	1111111111010101;
	10 :	1111101000001100;
	9 :	1111110001001000;
	8 :	0000000001100000;
	7 :	0000111011100111;
	6 :	1111100001011100;
	5 :	0000010011110101;
	4 :	1111000011001001;
	3 :	0000101011010111;
	2 :	0000011010110111;
	1 :	1111101000100101;
	0 :	0000001010001010;
END;
