-- begin_signature
-- Weight_Memory(numWeight
-- 64
-- neuronNo
-- 5
-- layerNo
-- 1
-- addressWidth
-- 6
-- dataWidth
-- 32
-- weightFile
-- "w_1_5.mif")
-- end_signature
WIDTH=32;
DEPTH=64;

ADDRESS_RADIX=UNS;
DATA_RADIX=BIN;

CONTENT BEGIN
	63 :	00000000000000000000000000001110;
	62 :	00000000000000000000000000000100;
	61 :	00000000000000000000000011111101;
	60 :	00000000000000000000000011111110;
	59 :	00000000000000000000000000000011;
	58 :	00000000000000000000000000010000;
	57 :	00000000000000000000000000001011;
	56 :	00000000000000000000000000000101;
	55 :	00000000000000000000000000000110;
	54 :	00000000000000000000000000000011;
	53 :	00000000000000000000000011111011;
	52 :	00000000000000000000000000000000;
	51 :	00000000000000000000000000000101;
	50 :	00000000000000000000000011111111;
	49 :	00000000000000000000000011111100;
	48 :	00000000000000000000000000000011;
	47 :	00000000000000000000000011110110;
	46 :	00000000000000000000000011111001;
	45 :	00000000000000000000000011111101;
	44 :	00000000000000000000000011111111;
	43 :	00000000000000000000000011110111;
	42 :	00000000000000000000000011110100;
	41 :	00000000000000000000000011110111;
	40 :	00000000000000000000000000000000;
	39 :	00000000000000000000000011111110;
	38 :	00000000000000000000000011111010;
	37 :	00000000000000000000000011111011;
	36 :	00000000000000000000000000000110;
	35 :	00000000000000000000000000000011;
	34 :	00000000000000000000000011110111;
	33 :	00000000000000000000000011110100;
	32 :	00000000000000000000000000000001;
	31 :	00000000000000000000000011111011;
	30 :	00000000000000000000000011110100;
	29 :	00000000000000000000000000000010;
	28 :	00000000000000000000000000001100;
	27 :	00000000000000000000000000000000;
	26 :	00000000000000000000000011110101;
	25 :	00000000000000000000000011110101;
	24 :	00000000000000000000000011111111;
	23 :	00000000000000000000000011111011;
	22 :	00000000000000000000000011111011;
	21 :	00000000000000000000000011111100;
	20 :	00000000000000000000000000001100;
	19 :	00000000000000000000000011110111;
	18 :	00000000000000000000000011110110;
	17 :	00000000000000000000000000000110;
	16 :	00000000000000000000000000000111;
	15 :	00000000000000000000000000000010;
	14 :	00000000000000000000000000001000;
	13 :	00000000000000000000000000000101;
	12 :	00000000000000000000000000001001;
	11 :	00000000000000000000000000000010;
	10 :	00000000000000000000000000001011;
	9 :	00000000000000000000000000001000;
	8 :	00000000000000000000000000001000;
	7 :	00000000000000000000000000000010;
	6 :	00000000000000000000000000001100;
	5 :	00000000000000000000000000010000;
	4 :	00000000000000000000000000000010;
	3 :	00000000000000000000000000000111;
	2 :	00000000000000000000000000001110;
	1 :	00000000000000000000000000001100;
	0 :	00000000000000000000000000000001;
END;
