-- begin_signature
-- Weight_Memory(numWeight
-- 16
-- neuronNo
-- 8
-- layerNo
-- 2
-- addressWidth
-- 4
-- dataWidth
-- 32
-- weightFile
-- "w_2_8.mif")
-- end_signature
WIDTH=32;
DEPTH=16;

ADDRESS_RADIX=UNS;
DATA_RADIX=BIN;

CONTENT BEGIN
	15 :	00000000000000000000000000000011;
	14 :	00000000000000000000000000000000;
	13 :	00000000000000000000000000001000;
	12 :	00000000000000000000000011111111;
	11 :	00000000000000000000000000000100;
	10 :	00000000000000000000000011111010;
	9 :	00000000000000000000000000000000;
	8 :	00000000000000000000000011111001;
	7 :	00000000000000000000000000001110;
	6 :	00000000000000000000000000000010;
	5 :	00000000000000000000000000000100;
	4 :	00000000000000000000000000001000;
	3 :	00000000000000000000000000000000;
	2 :	00000000000000000000000000000000;
	1 :	00000000000000000000000000000000;
	0 :	00000000000000000000000011111000;
END;
