-- begin_signature
-- neuron(layerNo
-- 3
-- neuronNo
-- 1
-- numWeight
-- 37
-- dataWidth
-- 16
-- sigmoidSize
-- 5
-- weightIntWidth
-- 4
-- biasFile
-- "b_3_1.mif"
-- weightFile
-- "w_3_1.mif")
-- end_signature
WIDTH=32;
DEPTH=1;

ADDRESS_RADIX=UNS;
DATA_RADIX=BIN;

CONTENT BEGIN
	0 :	00000000000000000000000000000000;
END;
