-- begin_signature
-- Weight_Memory(numWeight
-- 16
-- neuronNo
-- 2
-- layerNo
-- 2
-- addressWidth
-- 4
-- dataWidth
-- 32
-- weightFile
-- "w_2_2.mif")
-- end_signature
WIDTH=32;
DEPTH=16;

ADDRESS_RADIX=UNS;
DATA_RADIX=BIN;

CONTENT BEGIN
	15 :	00000000000000000000000000000101;
	14 :	00000000000000000000000000001001;
	13 :	00000000000000000000000000000011;
	12 :	00000000000000000000000000000011;
	11 :	00000000000000000000000000000011;
	10 :	00000000000000000000000011111110;
	9 :	00000000000000000000000000000010;
	8 :	00000000000000000000000000001000;
	7 :	00000000000000000000000011110100;
	6 :	00000000000000000000000011111101;
	5 :	00000000000000000000000011111001;
	4 :	00000000000000000000000011111110;
	3 :	00000000000000000000000000001011;
	2 :	00000000000000000000000011111101;
	1 :	00000000000000000000000000001000;
	0 :	00000000000000000000000000000001;
END;
