-- begin_signature
-- Weight_Memory(numWeight
-- 64
-- neuronNo
-- 33
-- layerNo
-- 1
-- addressWidth
-- 6
-- dataWidth
-- 16
-- weightFile
-- "w_1_33.mif")
-- end_signature
WIDTH=16;
DEPTH=64;

ADDRESS_RADIX=UNS;
DATA_RADIX=BIN;

CONTENT BEGIN
	63 :	0001000111010011;
	62 :	0000100101111010;
	61 :	0000100001010101;
	60 :	0000010001010100;
	59 :	1111100000000001;
	58 :	1111010011111101;
	57 :	1111101011001000;
	56 :	1111110111010100;
	55 :	0000010111010000;
	54 :	0000001011101111;
	53 :	0000011110001000;
	52 :	0000001110001110;
	51 :	0000100100100100;
	50 :	0000010001010111;
	49 :	0000000001110001;
	48 :	0000000101010101;
	47 :	0000100111110100;
	46 :	0000001000110011;
	45 :	0000000000101111;
	44 :	0000010110100000;
	43 :	0001110010001000;
	42 :	0001110001001001;
	41 :	0001000100000010;
	40 :	0000010101010101;
	39 :	0000000010110101;
	38 :	0000001010010100;
	37 :	0000010111000101;
	36 :	0000101101000111;
	35 :	0000000001110000;
	34 :	1111111111100011;
	33 :	0000101010010100;
	32 :	1111110111010011;
	31 :	0000100100001101;
	30 :	0000011100100111;
	29 :	0000000000110110;
	28 :	1111110101101100;
	27 :	1111100000010001;
	26 :	1111011010110011;
	25 :	1111111001000110;
	24 :	0000011110111111;
	23 :	0000001000110101;
	22 :	0000011001100010;
	21 :	0000010010111000;
	20 :	0000011101101011;
	19 :	0000011011100111;
	18 :	1111101000110101;
	17 :	1111110010110100;
	16 :	0000000111000000;
	15 :	0000010110001111;
	14 :	1111011011101000;
	13 :	1111111101000011;
	12 :	0000000111001001;
	11 :	1111111001100000;
	10 :	1111011101100001;
	9 :	1111111011011110;
	8 :	1111101110110000;
	7 :	0000010110110111;
	6 :	1111000001011011;
	5 :	1111100111110010;
	4 :	1111101100110011;
	3 :	1111101101101011;
	2 :	1111001110011100;
	1 :	1111010011011001;
	0 :	0000000001110000;
END;
