-- begin_signature
-- Weight_Memory(numWeight
-- 45
-- neuronNo
-- 34
-- layerNo
-- 2
-- addressWidth
-- 6
-- dataWidth
-- 16
-- weightFile
-- "w_2_34.mif")
-- end_signature
WIDTH=16;
DEPTH=45;

ADDRESS_RADIX=UNS;
DATA_RADIX=BIN;

CONTENT BEGIN
	44 :	0000100000100101;
	43 :	0000010110100101;
	42 :	1111111000101001;
	41 :	0000101000101001;
	40 :	1111111000111010;
	39 :	1111010010100000;
	38 :	0000100101101010;
	37 :	0000011101010110;
	36 :	0000011100000011;
	35 :	1110011100001011;
	34 :	0000111010100001;
	33 :	0000101001110101;
	32 :	1111110010011110;
	31 :	1111001101010100;
	30 :	0000011011101101;
	29 :	1110100111111101;
	28 :	0000100110110111;
	27 :	0000011110010001;
	26 :	1111111101111011;
	25 :	1111110010011111;
	24 :	1111001100111101;
	23 :	0000001011010000;
	22 :	1111101000110011;
	21 :	1111101101011000;
	20 :	1111111001101111;
	19 :	0000111011010100;
	18 :	1111101111100001;
	17 :	1110110010100101;
	16 :	0000100111101010;
	15 :	0000011001010100;
	14 :	1111010001100011;
	13 :	0001000011111111;
	12 :	1111011010011010;
	11 :	0000111111110011;
	10 :	1111100010011111;
	9 :	0000001011010110;
	8 :	1111011100000110;
	7 :	1111110100110101;
	6 :	0001010110010110;
	5 :	1111101100000001;
	4 :	1111111110100101;
	3 :	1111110110000000;
	2 :	0000111101010100;
	1 :	1111111011100111;
	0 :	1111101000100001;
END;
