-- begin_signature
-- Weight_Memory(numWeight
-- 16
-- neuronNo
-- 9
-- layerNo
-- 2
-- addressWidth
-- 4
-- dataWidth
-- 16
-- weightFile
-- "w_2_9.mif")
-- end_signature
WIDTH=16;
DEPTH=16;

ADDRESS_RADIX=UNS;
DATA_RADIX=BIN;

CONTENT BEGIN
	15 :	0000000111100111;
	14 :	0000010110110011;
	13 :	0000111101110100;
	12 :	0000000101011001;
	11 :	1111010110010110;
	10 :	0000100000011011;
	9 :	0000000111101110;
	8 :	0000101001001001;
	7 :	0000101110100110;
	6 :	1111010110011000;
	5 :	0000000011110011;
	4 :	0001000001001111;
	3 :	1111101101110100;
	2 :	1111111001001000;
	1 :	0000011000111110;
	0 :	1111010101010101;
END;
