-- begin_signature
-- Weight_Memory(numWeight
-- 16
-- neuronNo
-- 5
-- layerNo
-- 2
-- addressWidth
-- 4
-- dataWidth
-- 16
-- weightFile
-- "C:/Users/Ohmen/Desktop/Desktop/School/Thesis/rtl/w_2_5.mif")
-- end_signature
WIDTH=16;
DEPTH=16;

ADDRESS_RADIX=UNS;
DATA_RADIX=BIN;

CONTENT BEGIN
	15 :	0000000110010010;
	14 :	0001000011000011;
	13 :	0000010000000001;
	12 :	0000111111111001;
	11 :	0001000001101010;
	10 :	1111110111110010;
	9 :	1111111001011101;
	8 :	1111101010100100;
	7 :	0000110001101010;
	6 :	0000111001010100;
	5 :	0000001100110010;
	4 :	0000001010110111;
	3 :	1111111111110001;
	2 :	0000100111011001;
	1 :	1111111010111111;
	0 :	1111010001110110;
END;
