-- begin_signature
-- neuron(layerNo
-- 1
-- neuronNo
-- 27
-- numWeight
-- 64
-- dataWidth
-- 16
-- weightIntWidth
-- 4
-- biasFile
-- "b_1_27.mif"
-- weightFile
-- "w_1_27.mif")
-- end_signature
WIDTH=32;
DEPTH=1;

ADDRESS_RADIX=UNS;
DATA_RADIX=BIN;

CONTENT BEGIN
	0 :	00000000000000001111111110101100;
END;
