-- begin_signature
-- Weight_Memory(numWeight
-- 16
-- neuronNo
-- 2
-- layerNo
-- 2
-- addressWidth
-- 4
-- dataWidth
-- 16
-- weightFile
-- "w_2_2.mif")
-- end_signature
WIDTH=16;
DEPTH=16;

ADDRESS_RADIX=UNS;
DATA_RADIX=BIN;

CONTENT BEGIN
	15 :	0001001010010010;
	14 :	0000000010111101;
	13 :	0000100111100010;
	12 :	0000101010010010;
	11 :	1111111011111010;
	10 :	1111011111110011;
	9 :	1111100100100000;
	8 :	1111101101111101;
	7 :	0000100011011001;
	6 :	1111101100110000;
	5 :	0001000010101110;
	4 :	1111101010101100;
	3 :	0000001111011110;
	2 :	1111101010010000;
	1 :	0000000010000101;
	0 :	0000100000011101;
END;
