-- begin_signature
-- Weight_Memory(numWeight
-- 64
-- neuronNo
-- 12
-- layerNo
-- 1
-- addressWidth
-- 6
-- dataWidth
-- 16
-- weightFile
-- "C:/Users/Ohmen/Desktop/Desktop/School/Thesis/rtl/w_1_12.mif")
-- end_signature
WIDTH=16;
DEPTH=64;

ADDRESS_RADIX=UNS;
DATA_RADIX=BIN;

CONTENT BEGIN
	63 :	1111110101101111;
	62 :	1111101100101100;
	61 :	1111110001111110;
	60 :	0000011100101011;
	59 :	0000000011111011;
	58 :	1111101111001111;
	57 :	1111110101001000;
	56 :	0000000110011110;
	55 :	1111111111110011;
	54 :	0000011110111100;
	53 :	1111001010111100;
	52 :	1111110100000110;
	51 :	1111111000000110;
	50 :	1111110000010011;
	49 :	0000011101101001;
	48 :	0000001001110110;
	47 :	1111111001000000;
	46 :	1111110010100001;
	45 :	1111010011111100;
	44 :	1111000000011100;
	43 :	1110101110000101;
	42 :	1101011011001010;
	41 :	1111100001100000;
	40 :	1111111111011101;
	39 :	0000000001011001;
	38 :	1111010100101110;
	37 :	0000001001111101;
	36 :	1110101100111000;
	35 :	1111110110101010;
	34 :	1111010100100110;
	33 :	1110110111110101;
	32 :	1111110111100010;
	31 :	0000001001011111;
	30 :	1111101101001110;
	29 :	0001101001100110;
	28 :	0000100011111100;
	27 :	0000011101001101;
	26 :	0001010101101110;
	25 :	1111110111011111;
	24 :	0000000001101011;
	23 :	0000001000010001;
	22 :	0000101100110001;
	21 :	0000101010101110;
	20 :	1111101101011101;
	19 :	0000001001000110;
	18 :	0001100111010000;
	17 :	0000100000000000;
	16 :	0000001000110101;
	15 :	0000010110010001;
	14 :	0000110101001110;
	13 :	0000000101011100;
	12 :	1111110100010011;
	11 :	0000010011010000;
	10 :	0000100011100001;
	9 :	0000001111101111;
	8 :	0000001000011111;
	7 :	0000001111001011;
	6 :	0000011000111101;
	5 :	1111101110111000;
	4 :	1111001010110111;
	3 :	1111111100001000;
	2 :	0000001111101001;
	1 :	1111111110001101;
	0 :	1111110111110010;
END;
