-- begin_signature
-- Weight_Memory(numWeight
-- 64
-- neuronNo
-- 15
-- layerNo
-- 1
-- addressWidth
-- 6
-- dataWidth
-- 16
-- weightFile
-- "w_1_15.mif")
-- end_signature
WIDTH=16;
DEPTH=64;

ADDRESS_RADIX=UNS;
DATA_RADIX=BIN;

CONTENT BEGIN
	63 :	1111000010100000;
	62 :	1111111011111110;
	61 :	1111110000011010;
	60 :	1111110110100010;
	59 :	0000001001110001;
	58 :	0000101001010101;
	57 :	0001001101000000;
	56 :	0000100001010101;
	55 :	1111011110101001;
	54 :	0000010100110001;
	53 :	0000001011100000;
	52 :	0000011110111111;
	51 :	0000011010110000;
	50 :	1111111001010101;
	49 :	1111111000000101;
	48 :	0000000011101101;
	47 :	0000110010000011;
	46 :	0000110000000111;
	45 :	0000010000010101;
	44 :	0000001000000001;
	43 :	1111110110001000;
	42 :	1111111001010011;
	41 :	1111001001101011;
	40 :	1111110011100011;
	39 :	1111110011110101;
	38 :	0000011100100101;
	37 :	0000010101100000;
	36 :	0000001011111001;
	35 :	1111100110000100;
	34 :	0000001101100101;
	33 :	0000100101000110;
	32 :	0000000001100100;
	31 :	0000011110010001;
	30 :	1110100101100010;
	29 :	1111001110100000;
	28 :	1111110011100011;
	27 :	0000000000100100;
	26 :	0000010101101101;
	25 :	0000100010000011;
	24 :	1111101010110010;
	23 :	1111101000100010;
	22 :	1101111001101100;
	21 :	1101010101000010;
	20 :	1110000011111100;
	19 :	0000001000110111;
	18 :	0000001110110100;
	17 :	1111111011111111;
	16 :	1111011001111110;
	15 :	1111110101100000;
	14 :	1111110100111100;
	13 :	1111000011011110;
	12 :	1111100111011111;
	11 :	0000000111010000;
	10 :	1111111011010111;
	9 :	1111111111011011;
	8 :	1111111000000011;
	7 :	1111011101100101;
	6 :	0000111010011100;
	5 :	0000110011100101;
	4 :	0000000010011101;
	3 :	1111110001000101;
	2 :	0000010110001101;
	1 :	0000110000001010;
	0 :	1111111001011001;
END;
