-- begin_signature
-- Weight_Memory(numWeight
-- 30
-- neuronNo
-- 18
-- layerNo
-- 2
-- addressWidth
-- 5
-- dataWidth
-- 16
-- weightFile
-- "w_2_18.mif")
-- end_signature
WIDTH=16;
DEPTH=30;

ADDRESS_RADIX=UNS;
DATA_RADIX=BIN;

CONTENT BEGIN
	29 :	0000001001001011;
	28 :	1111101010010010;
	27 :	0000001111110100;
	26 :	1111111011011010;
	25 :	1111101001010100;
	24 :	0000001100011010;
	23 :	0000011100011100;
	22 :	1111110001100100;
	21 :	0000011011011001;
	20 :	0000011110001001;
	19 :	1111101101000010;
	18 :	0000000110100010;
	17 :	1111011110000010;
	16 :	1111101010111001;
	15 :	0000001100111010;
	14 :	1111110110001111;
	13 :	1111111001100011;
	12 :	1111111100010111;
	11 :	1111101101100100;
	10 :	1111111001000011;
	9 :	1111111100101110;
	8 :	0000000011111101;
	7 :	0000001010110001;
	6 :	1111111001101000;
	5 :	0000010100011110;
	4 :	1111110010111000;
	3 :	0000000000001100;
	2 :	0000000011010011;
	1 :	1111111010001100;
	0 :	1111110010110011;
END;
