-- begin_signature
-- Weight_Memory(numWeight
-- 45
-- neuronNo
-- 3
-- layerNo
-- 2
-- addressWidth
-- 6
-- dataWidth
-- 16
-- weightFile
-- "w_2_3.mif")
-- end_signature
WIDTH=16;
DEPTH=45;

ADDRESS_RADIX=UNS;
DATA_RADIX=BIN;

CONTENT BEGIN
	44 :	0000100101100001;
	43 :	1111001110111011;
	42 :	1111110111101010;
	41 :	0000011010111101;
	40 :	1111001010010001;
	39 :	1111111110100101;
	38 :	1111100010101000;
	37 :	0000000101011010;
	36 :	1111011110110001;
	35 :	0000011110110001;
	34 :	0000010101110000;
	33 :	1110111000110111;
	32 :	0000011111000110;
	31 :	0000111000011011;
	30 :	0000001100000110;
	29 :	0000011010111000;
	28 :	0000001101101111;
	27 :	1110111111111100;
	26 :	1111100101101010;
	25 :	0000101101101111;
	24 :	0000111001111110;
	23 :	0001000001001010;
	22 :	1111110101010001;
	21 :	0000001111101110;
	20 :	0001000010110011;
	19 :	1111001100011011;
	18 :	1111101011000001;
	17 :	0000011100101011;
	16 :	1111011010111001;
	15 :	0000000111100111;
	14 :	0000010011010010;
	13 :	0000001101101101;
	12 :	0000000110100100;
	11 :	1111111001001101;
	10 :	0000001110111110;
	9 :	1111101111011000;
	8 :	1111110111100110;
	7 :	0000110111011001;
	6 :	1111111100011101;
	5 :	1111100000010001;
	4 :	1111100111000011;
	3 :	1111100000110101;
	2 :	1111011110100111;
	1 :	0000000110001110;
	0 :	1111100111110011;
END;
