-- begin_signature
-- Weight_Memory(numWeight
-- 30
-- neuronNo
-- 23
-- layerNo
-- 2
-- addressWidth
-- 5
-- dataWidth
-- 16
-- weightFile
-- "w_2_23.mif")
-- end_signature
WIDTH=16;
DEPTH=30;

ADDRESS_RADIX=UNS;
DATA_RADIX=BIN;

CONTENT BEGIN
	29 :	1111101111010100;
	28 :	1111100001000011;
	27 :	0000011111101100;
	26 :	0000000100110011;
	25 :	1111101110000000;
	24 :	0000011101101111;
	23 :	0000100010111011;
	22 :	0000001010111001;
	21 :	0000000000010011;
	20 :	0000011011111001;
	19 :	1111111110110101;
	18 :	1111101000011011;
	17 :	1111100110001010;
	16 :	1111110100001110;
	15 :	1111110001011100;
	14 :	0000001010100011;
	13 :	0000010010100111;
	12 :	0000001100011111;
	11 :	1111110110111111;
	10 :	1111111100101011;
	9 :	1111110001110101;
	8 :	0000001100000000;
	7 :	0000000010010100;
	6 :	0000000010010111;
	5 :	0000011011011011;
	4 :	1111101101100010;
	3 :	0000000100110010;
	2 :	1111111011111110;
	1 :	0000100011111111;
	0 :	0000000111110000;
END;
