-- begin_signature
-- Weight_Memory(numWeight
-- 16
-- neuronNo
-- 0
-- layerNo
-- 2
-- addressWidth
-- 4
-- dataWidth
-- 16
-- weightFile
-- "C:/Users/Ohmen/Desktop/Desktop/School/Thesis/tensorflow/w_b/w_2_0.mif")
-- end_signature
WIDTH=16;
DEPTH=16;

ADDRESS_RADIX=UNS;
DATA_RADIX=BIN;

CONTENT BEGIN
	15 :	0000011000000100;
	14 :	1111110101011111;
	13 :	1111110111101011;
	12 :	1111101001001101;
	11 :	1111111000101010;
	10 :	1111110011111011;
	9 :	1111111001110110;
	8 :	1111110110001010;
	7 :	1111101101111010;
	6 :	1111101111011100;
	5 :	1111110111100110;
	4 :	1111100011000010;
	3 :	0000010111101101;
	2 :	1111110101000111;
	1 :	0000001110011000;
	0 :	0000011001100100;
END;
