-- begin_signature
-- Weight_Memory(numWeight
-- 30
-- neuronNo
-- 9
-- layerNo
-- 2
-- addressWidth
-- 5
-- dataWidth
-- 16
-- weightFile
-- "w_2_9.mif")
-- end_signature
WIDTH=16;
DEPTH=30;

ADDRESS_RADIX=UNS;
DATA_RADIX=BIN;

CONTENT BEGIN
	29 :	1111101100110100;
	28 :	0000001111010110;
	27 :	0000010111100111;
	26 :	1111110101100000;
	25 :	0000100001110010;
	24 :	0000101000000100;
	23 :	0000001111001001;
	22 :	1111110110110111;
	21 :	0000000001100110;
	20 :	1111100010100101;
	19 :	0000001011110111;
	18 :	1111111011111001;
	17 :	1111101100101001;
	16 :	1111101000100100;
	15 :	1111111110000001;
	14 :	1111110010100111;
	13 :	0000010111100001;
	12 :	0000011110111010;
	11 :	1111100000101100;
	10 :	0000001110110000;
	9 :	0000001011100101;
	8 :	0000000100101100;
	7 :	1111111100010111;
	6 :	1111110011110001;
	5 :	1111110011010001;
	4 :	0000000110100101;
	3 :	1111011001000101;
	2 :	0000010010101100;
	1 :	0000100011100010;
	0 :	0000000000001001;
END;
