-- begin_signature
-- Weight_Memory(numWeight
-- 37
-- neuronNo
-- 1
-- layerNo
-- 3
-- addressWidth
-- 6
-- dataWidth
-- 16
-- weightFile
-- "w_3_1.mif")
-- end_signature
WIDTH=16;
DEPTH=37;

ADDRESS_RADIX=UNS;
DATA_RADIX=BIN;

CONTENT BEGIN
	36 :	1111100100011000;
	35 :	1110010100111100;
	34 :	0001010101111110;
	33 :	0000101101001101;
	32 :	1101011111000001;
	31 :	0000000011010010;
	30 :	0000100101100011;
	29 :	0000000100010101;
	28 :	1110110111101011;
	27 :	0000010101100101;
	26 :	1111011111110100;
	25 :	0000001010000011;
	24 :	1110111001111001;
	23 :	0000011000000111;
	22 :	1111110001000101;
	21 :	0000010111110001;
	20 :	1110110001010101;
	19 :	1110110100110111;
	18 :	1111100000101011;
	17 :	0000100110100000;
	16 :	0000001011010111;
	15 :	0000000111110100;
	14 :	0000001010110000;
	13 :	0000100010111011;
	12 :	1111110000010011;
	11 :	0000110001001101;
	10 :	1111100000111110;
	9 :	1111000000111000;
	8 :	1111100011001110;
	7 :	0000000101000001;
	6 :	0000101001000101;
	5 :	1110100010100111;
	4 :	0000100100010100;
	3 :	1111010110101101;
	2 :	1111000010101101;
	1 :	0000101110100001;
	0 :	1110100100100001;
END;
