-- begin_signature
-- Weight_Memory(numWeight
-- 64
-- neuronNo
-- 11
-- layerNo
-- 1
-- addressWidth
-- 6
-- dataWidth
-- 32
-- weightFile
-- "w_1_11.mif")
-- end_signature
WIDTH=32;
DEPTH=64;

ADDRESS_RADIX=UNS;
DATA_RADIX=BIN;

CONTENT BEGIN
	63 :	00000000000000000000000011111101;
	62 :	00000000000000000000000011110110;
	61 :	00000000000000000000000011111111;
	60 :	00000000000000000000000000000001;
	59 :	00000000000000000000000000000011;
	58 :	00000000000000000000000000000000;
	57 :	00000000000000000000000000000010;
	56 :	00000000000000000000000011111001;
	55 :	00000000000000000000000011111101;
	54 :	00000000000000000000000011111011;
	53 :	00000000000000000000000011111110;
	52 :	00000000000000000000000011110101;
	51 :	00000000000000000000000011111111;
	50 :	00000000000000000000000000000011;
	49 :	00000000000000000000000011111100;
	48 :	00000000000000000000000011111101;
	47 :	00000000000000000000000000001101;
	46 :	00000000000000000000000000000101;
	45 :	00000000000000000000000000000010;
	44 :	00000000000000000000000000001010;
	43 :	00000000000000000000000000000110;
	42 :	00000000000000000000000000000110;
	41 :	00000000000000000000000011111000;
	40 :	00000000000000000000000000000010;
	39 :	00000000000000000000000000000000;
	38 :	00000000000000000000000011110111;
	37 :	00000000000000000000000000000101;
	36 :	00000000000000000000000000001011;
	35 :	00000000000000000000000000001010;
	34 :	00000000000000000000000000001001;
	33 :	00000000000000000000000000000011;
	32 :	00000000000000000000000000000000;
	31 :	00000000000000000000000000000111;
	30 :	00000000000000000000000011101100;
	29 :	00000000000000000000000011110111;
	28 :	00000000000000000000000000000000;
	27 :	00000000000000000000000000001101;
	26 :	00000000000000000000000000001000;
	25 :	00000000000000000000000000000111;
	24 :	00000000000000000000000011111011;
	23 :	00000000000000000000000000000011;
	22 :	00000000000000000000000011110000;
	21 :	00000000000000000000000011101010;
	20 :	00000000000000000000000011110010;
	19 :	00000000000000000000000000001000;
	18 :	00000000000000000000000000000100;
	17 :	00000000000000000000000011111110;
	16 :	00000000000000000000000000000000;
	15 :	00000000000000000000000000000000;
	14 :	00000000000000000000000011111000;
	13 :	00000000000000000000000011110110;
	12 :	00000000000000000000000011111010;
	11 :	00000000000000000000000011111111;
	10 :	00000000000000000000000011111110;
	9 :	00000000000000000000000011111110;
	8 :	00000000000000000000000000000100;
	7 :	00000000000000000000000000000000;
	6 :	00000000000000000000000011111111;
	5 :	00000000000000000000000000000110;
	4 :	00000000000000000000000000000000;
	3 :	00000000000000000000000011111100;
	2 :	00000000000000000000000000000001;
	1 :	00000000000000000000000000000000;
	0 :	00000000000000000000000000000001;
END;
