-- begin_signature
-- Weight_Memory(numWeight
-- 64
-- neuronNo
-- 2
-- layerNo
-- 1
-- addressWidth
-- 6
-- dataWidth
-- 32
-- weightFile
-- "w_1_2.mif")
-- end_signature
WIDTH=32;
DEPTH=64;

ADDRESS_RADIX=UNS;
DATA_RADIX=BIN;

CONTENT BEGIN
	63 :	00000000000000000000000011111100;
	62 :	00000000000000000000000011111000;
	61 :	00000000000000000000000011111110;
	60 :	00000000000000000000000011111001;
	59 :	00000000000000000000000011111111;
	58 :	00000000000000000000000011111100;
	57 :	00000000000000000000000011110000;
	56 :	00000000000000000000000011111110;
	55 :	00000000000000000000000000000110;
	54 :	00000000000000000000000011111100;
	53 :	00000000000000000000000011110111;
	52 :	00000000000000000000000011101100;
	51 :	00000000000000000000000011110101;
	50 :	00000000000000000000000011111011;
	49 :	00000000000000000000000011111100;
	48 :	00000000000000000000000011111110;
	47 :	00000000000000000000000011110010;
	46 :	00000000000000000000000011111101;
	45 :	00000000000000000000000000000100;
	44 :	00000000000000000000000000000011;
	43 :	00000000000000000000000011110111;
	42 :	00000000000000000000000011111000;
	41 :	00000000000000000000000011111110;
	40 :	00000000000000000000000000001000;
	39 :	00000000000000000000000011111101;
	38 :	00000000000000000000000000000000;
	37 :	00000000000000000000000000000101;
	36 :	00000000000000000000000000000011;
	35 :	00000000000000000000000000001000;
	34 :	00000000000000000000000000000000;
	33 :	00000000000000000000000011110101;
	32 :	00000000000000000000000000000000;
	31 :	00000000000000000000000011111000;
	30 :	00000000000000000000000000000100;
	29 :	00000000000000000000000000001001;
	28 :	00000000000000000000000000010010;
	27 :	00000000000000000000000000001101;
	26 :	00000000000000000000000011111110;
	25 :	00000000000000000000000011110101;
	24 :	00000000000000000000000000000000;
	23 :	00000000000000000000000011111101;
	22 :	00000000000000000000000000000001;
	21 :	00000000000000000000000000010001;
	20 :	00000000000000000000000000010000;
	19 :	00000000000000000000000011111111;
	18 :	00000000000000000000000011111111;
	17 :	00000000000000000000000011111111;
	16 :	00000000000000000000000000001000;
	15 :	00000000000000000000000000000110;
	14 :	00000000000000000000000000000110;
	13 :	00000000000000000000000000001001;
	12 :	00000000000000000000000000000001;
	11 :	00000000000000000000000000000000;
	10 :	00000000000000000000000011111110;
	9 :	00000000000000000000000011110110;
	8 :	00000000000000000000000000000010;
	7 :	00000000000000000000000000001011;
	6 :	00000000000000000000000011111111;
	5 :	00000000000000000000000011111111;
	4 :	00000000000000000000000011111111;
	3 :	00000000000000000000000000000000;
	2 :	00000000000000000000000011111010;
	1 :	00000000000000000000000011110000;
	0 :	00000000000000000000000000000000;
END;
