-- begin_signature
-- neuron(layerNo
-- 1
-- neuronNo
-- 36
-- numWeight
-- 64
-- dataWidth
-- 16
-- weightIntWidth
-- 4
-- biasFile
-- "b_1_36.mif"
-- weightFile
-- "w_1_36.mif")
-- end_signature
WIDTH=32;
DEPTH=1;

ADDRESS_RADIX=UNS;
DATA_RADIX=BIN;

CONTENT BEGIN
	0 :	00000000000000001111111111111111;
END;
