-- begin_signature
-- Weight_Memory(numWeight
-- 30
-- neuronNo
-- 0
-- layerNo
-- 2
-- addressWidth
-- 5
-- dataWidth
-- 16
-- weightFile
-- "w_2_0.mif")
-- end_signature
WIDTH=16;
DEPTH=30;

ADDRESS_RADIX=UNS;
DATA_RADIX=BIN;

CONTENT BEGIN
	29 :	1111111001101111;
	28 :	1111111010011000;
	27 :	1111111000001001;
	26 :	1111101110111101;
	25 :	1111110001101000;
	24 :	1111111000100110;
	23 :	1111101010010111;
	22 :	1111110011100010;
	21 :	1111111001001011;
	20 :	1111110101111110;
	19 :	0000001010011100;
	18 :	1111110011001111;
	17 :	1111110100011011;
	16 :	0000001111111101;
	15 :	1111110100011110;
	14 :	0000000011010011;
	13 :	0000001111000110;
	12 :	0000001101110010;
	11 :	0000000010100110;
	10 :	1111110011011100;
	9 :	1111110101010010;
	8 :	1111111101000111;
	7 :	0000000000011101;
	6 :	0000000100111011;
	5 :	0000000000011111;
	4 :	1111101010011000;
	3 :	0000001110111011;
	2 :	0000001011100000;
	1 :	1111101110110001;
	0 :	0000010000001110;
END;
