-- begin_signature
-- Weight_Memory(numWeight
-- 64
-- neuronNo
-- 5
-- layerNo
-- 1
-- addressWidth
-- 6
-- dataWidth
-- 16
-- weightFile
-- "w_1_5.mif")
-- end_signature
WIDTH=16;
DEPTH=64;

ADDRESS_RADIX=UNS;
DATA_RADIX=BIN;

CONTENT BEGIN
	63 :	0001000011100001;
	62 :	0000010101010101;
	61 :	0000011101000100;
	60 :	1111110011010000;
	59 :	1111111111011010;
	58 :	0000000011110000;
	57 :	1111110111100100;
	56 :	0000000101000011;
	55 :	0000100001101110;
	54 :	1111101101010110;
	53 :	0000010001001000;
	52 :	1111101011000111;
	51 :	0000010010101001;
	50 :	0000001111110110;
	49 :	1111110010101001;
	48 :	1111111100110011;
	47 :	1111010111101010;
	46 :	1111000010010110;
	45 :	1111110000110100;
	44 :	0000100001000010;
	43 :	0000111001001010;
	42 :	0000010110111001;
	41 :	1111011100010111;
	40 :	1111110101000010;
	39 :	1111111101111110;
	38 :	1111010000101010;
	37 :	1111100110100011;
	36 :	0000100110010000;
	35 :	0000011111110011;
	34 :	1111010010110001;
	33 :	1110111101110100;
	32 :	1111110011110000;
	31 :	1111110011110111;
	30 :	1111010100110011;
	29 :	1111110000111100;
	28 :	0000100101001010;
	27 :	0000000011001111;
	26 :	1111000100001100;
	25 :	1111000011000111;
	24 :	0000001111001001;
	23 :	0000001100000010;
	22 :	0000001010100010;
	21 :	1111110010001000;
	20 :	0000110011101010;
	19 :	1111101101101100;
	18 :	1111100011101010;
	17 :	1111110100010000;
	16 :	0000100010000010;
	15 :	0000100011010001;
	14 :	0000001111000001;
	13 :	0000101001100111;
	12 :	0000011101001100;
	11 :	1111101001011001;
	10 :	1111111010110110;
	9 :	0000001100110100;
	8 :	0000011001010110;
	7 :	0000100110100101;
	6 :	0000000011001001;
	5 :	0000101110101111;
	4 :	0000001100001100;
	3 :	0000000100001101;
	2 :	1111110101110001;
	1 :	1111101001000001;
	0 :	1111111101011101;
END;
