-- begin_signature
-- Weight_Memory(numWeight
-- 10
-- neuronNo
-- 9
-- layerNo
-- 3
-- addressWidth
-- 4
-- dataWidth
-- 32
-- weightFile
-- "w_3_9.mif")
-- end_signature
WIDTH=32;
DEPTH=10;

ADDRESS_RADIX=UNS;
DATA_RADIX=BIN;

CONTENT BEGIN
	9 :	00000000000000000000000011110101;
	8 :	00000000000000000000000011111110;
	7 :	00000000000000000000000011100011;
	6 :	00000000000000000000000000001000;
	5 :	00000000000000000000000011111000;
	4 :	00000000000000000000000000001010;
	3 :	00000000000000000000000000000110;
	2 :	00000000000000000000000000001100;
	1 :	00000000000000000000000000000001;
	0 :	00000000000000000000000011101111;
END;
