-- begin_signature
-- Weight_Memory(numWeight
-- 16
-- neuronNo
-- 7
-- layerNo
-- 2
-- addressWidth
-- 4
-- dataWidth
-- 16
-- weightFile
-- "C:/Users/Ohmen/Desktop/Desktop/School/Thesis/tensorflow/w_b/w_2_7.mif")
-- end_signature
WIDTH=16;
DEPTH=16;

ADDRESS_RADIX=UNS;
DATA_RADIX=BIN;

CONTENT BEGIN
	15 :	1111100011101100;
	14 :	1111110011000101;
	13 :	1111101001001010;
	12 :	0000000111101000;
	11 :	0000100011000010;
	10 :	0000111010000111;
	9 :	0000000100010101;
	8 :	1111011000100001;
	7 :	1111011111000001;
	6 :	1111010010110001;
	5 :	0000010100011011;
	4 :	0000000101001110;
	3 :	1111110010111101;
	2 :	0000101100110000;
	1 :	0000010111100011;
	0 :	1111111101001010;
END;
