-- begin_signature
-- Weight_Memory(numWeight
-- 30
-- neuronNo
-- 8
-- layerNo
-- 3
-- addressWidth
-- 5
-- dataWidth
-- 16
-- weightFile
-- "w_3_8.mif")
-- end_signature
WIDTH=16;
DEPTH=30;

ADDRESS_RADIX=UNS;
DATA_RADIX=BIN;

CONTENT BEGIN
	29 :	0000010000010100;
	28 :	1111110110101000;
	27 :	0000001111001110;
	26 :	1111111111111000;
	25 :	1111101101010001;
	24 :	1111111001011010;
	23 :	1111100101100111;
	22 :	1111111000100010;
	21 :	0000010001001100;
	20 :	0000000001000110;
	19 :	1111110110011111;
	18 :	1111110100001100;
	17 :	1111101100111010;
	16 :	1111100010101110;
	15 :	1111111101101011;
	14 :	0000010011101101;
	13 :	0000001101101010;
	12 :	0000010101111011;
	11 :	1111100100111111;
	10 :	0000001001001001;
	9 :	1111110011110011;
	8 :	1111101110010011;
	7 :	1111101001001111;
	6 :	1111110001110011;
	5 :	1111101000100111;
	4 :	0000000001100011;
	3 :	0000001001110101;
	2 :	1111110100011100;
	1 :	1111111011110111;
	0 :	0000000001001000;
END;
