-- begin_signature
-- Weight_Memory(numWeight
-- 30
-- neuronNo
-- 28
-- layerNo
-- 2
-- addressWidth
-- 5
-- dataWidth
-- 16
-- weightFile
-- "w_2_28.mif")
-- end_signature
WIDTH=16;
DEPTH=30;

ADDRESS_RADIX=UNS;
DATA_RADIX=BIN;

CONTENT BEGIN
	29 :	0000001011100000;
	28 :	0000001011110011;
	27 :	1111110100110110;
	26 :	0000000000010010;
	25 :	1111111111110000;
	24 :	1111101110110011;
	23 :	1111110011111111;
	22 :	1111101101111101;
	21 :	1111111111001000;
	20 :	0000001010100110;
	19 :	1111111100000011;
	18 :	1111101011111001;
	17 :	0000001100110111;
	16 :	1111101110011011;
	15 :	1111110110001110;
	14 :	0000000010000011;
	13 :	1111110100101000;
	12 :	1111111111011000;
	11 :	1111111110000111;
	10 :	1111111010100000;
	9 :	1111111011111000;
	8 :	1111110100100011;
	7 :	1111110001011001;
	6 :	0000000110001101;
	5 :	1111111100010111;
	4 :	0000000100011010;
	3 :	1111101101011101;
	2 :	0000010000000101;
	1 :	1111111111011110;
	0 :	1111101101110100;
END;
