-- begin_signature
-- Weight_Memory(numWeight
-- 30
-- neuronNo
-- 6
-- layerNo
-- 3
-- addressWidth
-- 5
-- dataWidth
-- 16
-- weightFile
-- "w_3_6.mif")
-- end_signature
WIDTH=16;
DEPTH=30;

ADDRESS_RADIX=UNS;
DATA_RADIX=BIN;

CONTENT BEGIN
	29 :	1111111110110010;
	28 :	1111111101101011;
	27 :	0000010011111010;
	26 :	1111101011110011;
	25 :	1111101111010100;
	24 :	0000010010100110;
	23 :	0000001010001010;
	22 :	1111100110001101;
	21 :	0000001000100000;
	20 :	1111110101100011;
	19 :	1111100101111010;
	18 :	1111111001110001;
	17 :	1111110101110010;
	16 :	0000000001000010;
	15 :	0000010000110000;
	14 :	0000001100111100;
	13 :	1111110011010010;
	12 :	1111111001011001;
	11 :	0000000011001010;
	10 :	0000001001011100;
	9 :	0000000000111100;
	8 :	0000001100001011;
	7 :	1111100110011011;
	6 :	1111111110101011;
	5 :	0000010011010101;
	4 :	0000000111111011;
	3 :	0000000000111000;
	2 :	1111101011011000;
	1 :	1111101010110101;
	0 :	1111110111110101;
END;
