-- begin_signature
-- Weight_Memory(numWeight
-- 30
-- neuronNo
-- 6
-- layerNo
-- 2
-- addressWidth
-- 5
-- dataWidth
-- 16
-- weightFile
-- "w_2_6.mif")
-- end_signature
WIDTH=16;
DEPTH=30;

ADDRESS_RADIX=UNS;
DATA_RADIX=BIN;

CONTENT BEGIN
	29 :	0000010011011111;
	28 :	0000010010100111;
	27 :	0000000010011100;
	26 :	1111110101010101;
	25 :	1111110100011101;
	24 :	0000000011110100;
	23 :	1111100101011000;
	22 :	0000010011100100;
	21 :	1111101101001011;
	20 :	1111111011001111;
	19 :	0000100101011010;
	18 :	0000000110101111;
	17 :	0000000010110001;
	16 :	0000011100010010;
	15 :	1111100011000001;
	14 :	1111110000100000;
	13 :	0000011000000011;
	12 :	1111110111011001;
	11 :	1111110011001011;
	10 :	0000011001010001;
	9 :	1111111000111010;
	8 :	1111111000111000;
	7 :	0000100000000100;
	6 :	0000010010010111;
	5 :	1111111100010011;
	4 :	1111101110100000;
	3 :	1111111010111001;
	2 :	0000100010100110;
	1 :	0000010100000000;
	0 :	0000010011010010;
END;
