-- begin_signature
-- Weight_Memory(numWeight
-- 10
-- neuronNo
-- 2
-- layerNo
-- 3
-- addressWidth
-- 4
-- dataWidth
-- 16
-- weightFile
-- "w_2_2.mif")
-- end_signature
WIDTH=16;
DEPTH=10;

ADDRESS_RADIX=UNS;
DATA_RADIX=BIN;

CONTENT BEGIN
	9 :	0000010010110100;
	8 :	1111111101101001;
	7 :	0000000001001000;
	6 :	1111101011100100;
	5 :	0000000100001101;
	4 :	1111111001010000;
	3 :	0000011010011111;
	2 :	1111111111101100;
	1 :	0000001100100110;
	0 :	0000000011001000;
END;
