-- begin_signature
-- Weight_Memory(numWeight
-- 30
-- neuronNo
-- 26
-- layerNo
-- 2
-- addressWidth
-- 5
-- dataWidth
-- 16
-- weightFile
-- "w_2_26.mif")
-- end_signature
WIDTH=16;
DEPTH=30;

ADDRESS_RADIX=UNS;
DATA_RADIX=BIN;

CONTENT BEGIN
	29 :	0000000011001100;
	28 :	0000011010111100;
	27 :	1111101011000110;
	26 :	0000100010100010;
	25 :	0000001010110111;
	24 :	1111110001110011;
	23 :	1111101101100101;
	22 :	0000011011101101;
	21 :	0000001001110011;
	20 :	1111101010000101;
	19 :	0000101111001010;
	18 :	0000101100110110;
	17 :	0000100101101101;
	16 :	1111111011011110;
	15 :	0000000100111100;
	14 :	0000000011001110;
	13 :	1111111010000110;
	12 :	1111101010000010;
	11 :	0000010100111011;
	10 :	0000010000111110;
	9 :	1111111100010000;
	8 :	0000001011000001;
	7 :	1111111011110001;
	6 :	0000000011010001;
	5 :	1111101110010101;
	4 :	0000000100010011;
	3 :	0000001111000011;
	2 :	0000100011000101;
	1 :	0000000101101111;
	0 :	0000001011001010;
END;
