-- begin_signature
-- Weight_Memory(numWeight
-- 64
-- neuronNo
-- 4
-- layerNo
-- 1
-- addressWidth
-- 6
-- dataWidth
-- 32
-- weightFile
-- "w_1_4.mif")
-- end_signature
WIDTH=32;
DEPTH=64;

ADDRESS_RADIX=UNS;
DATA_RADIX=BIN;

CONTENT BEGIN
	63 :	00000000000000000000000000010011;
	62 :	00000000000000000000000000001100;
	61 :	00000000000000000000000000001101;
	60 :	00000000000000000000000000001101;
	59 :	00000000000000000000000011111101;
	58 :	00000000000000000000000011110001;
	57 :	00000000000000000000000011111011;
	56 :	00000000000000000000000000000011;
	55 :	00000000000000000000000000000101;
	54 :	00000000000000000000000000000011;
	53 :	00000000000000000000000000001111;
	52 :	00000000000000000000000000001101;
	51 :	00000000000000000000000000001000;
	50 :	00000000000000000000000000001101;
	49 :	00000000000000000000000000000000;
	48 :	00000000000000000000000000000000;
	47 :	00000000000000000000000000001011;
	46 :	00000000000000000000000011110100;
	45 :	00000000000000000000000011111010;
	44 :	00000000000000000000000000000000;
	43 :	00000000000000000000000000001101;
	42 :	00000000000000000000000000010111;
	41 :	00000000000000000000000000000000;
	40 :	00000000000000000000000011110100;
	39 :	00000000000000000000000011111111;
	38 :	00000000000000000000000011101011;
	37 :	00000000000000000000000011110100;
	36 :	00000000000000000000000000000000;
	35 :	00000000000000000000000011111111;
	34 :	00000000000000000000000011111111;
	33 :	00000000000000000000000000000000;
	32 :	00000000000000000000000011111111;
	31 :	00000000000000000000000000000011;
	30 :	00000000000000000000000011111000;
	29 :	00000000000000000000000011111010;
	28 :	00000000000000000000000011111001;
	27 :	00000000000000000000000011111111;
	26 :	00000000000000000000000000000000;
	25 :	00000000000000000000000000000100;
	24 :	00000000000000000000000011111110;
	23 :	00000000000000000000000000000001;
	22 :	00000000000000000000000000000111;
	21 :	00000000000000000000000000000000;
	20 :	00000000000000000000000011111011;
	19 :	00000000000000000000000000000110;
	18 :	00000000000000000000000000000111;
	17 :	00000000000000000000000000000000;
	16 :	00000000000000000000000000000000;
	15 :	00000000000000000000000011111000;
	14 :	00000000000000000000000000000000;
	13 :	00000000000000000000000000000010;
	12 :	00000000000000000000000011111101;
	11 :	00000000000000000000000011111100;
	10 :	00000000000000000000000011111110;
	9 :	00000000000000000000000011111011;
	8 :	00000000000000000000000011111111;
	7 :	00000000000000000000000011111001;
	6 :	00000000000000000000000011110000;
	5 :	00000000000000000000000011111100;
	4 :	00000000000000000000000011111001;
	3 :	00000000000000000000000011111100;
	2 :	00000000000000000000000011110100;
	1 :	00000000000000000000000011111000;
	0 :	00000000000000000000000000000001;
END;
