-- begin_signature
-- Weight_Memory(numWeight
-- 64
-- neuronNo
-- 0
-- layerNo
-- 1
-- addressWidth
-- 6
-- dataWidth
-- 16
-- weightFile
-- "w_1_0.mif")
-- end_signature
WIDTH=16;
DEPTH=64;

ADDRESS_RADIX=UNS;
DATA_RADIX=BIN;

CONTENT BEGIN
	63 :	0000011111011011;
	62 :	0000000110110111;
	61 :	0000000101010100;
	60 :	1111110011000001;
	59 :	0000010011110110;
	58 :	0000100010010101;
	57 :	0001100010011000;
	56 :	0000100001010111;
	55 :	1111100110111101;
	54 :	1111111101110100;
	53 :	0000101011100000;
	52 :	1111110101110111;
	51 :	0000111000010010;
	50 :	0000011111001010;
	49 :	1111011000100000;
	48 :	0000000111100001;
	47 :	0000100111010001;
	46 :	1111110110101010;
	45 :	0000000011011111;
	44 :	0000000000000101;
	43 :	0000111110001111;
	42 :	0001010010110001;
	41 :	1111100110001110;
	40 :	1111100011111111;
	39 :	0000001101010001;
	38 :	1111011011100000;
	37 :	1111110000101110;
	36 :	0000100000000110;
	35 :	0000001101010001;
	34 :	0000010010011110;
	33 :	1111110010100000;
	32 :	1111111001101101;
	31 :	1111100110001101;
	30 :	1111000001110001;
	29 :	1111010001011100;
	28 :	1111101111100001;
	27 :	1111110100010100;
	26 :	1111010101100110;
	25 :	1111001110101101;
	24 :	1111011111110001;
	23 :	0000000100110001;
	22 :	1111011010000100;
	21 :	1110110010000110;
	20 :	1111100101011101;
	19 :	1111011010111110;
	18 :	1111110100101010;
	17 :	1111100111111011;
	16 :	1111110011011111;
	15 :	0000010100111001;
	14 :	0000001111111110;
	13 :	0000010001100010;
	12 :	0000001100011010;
	11 :	0000001011010000;
	10 :	0000001000011001;
	9 :	0000001101011011;
	8 :	0000010111000000;
	7 :	0000101100100000;
	6 :	0000100100010101;
	5 :	0001000010010111;
	4 :	0000000101101010;
	3 :	0000000111111011;
	2 :	0000010011111100;
	1 :	0001000100001000;
	0 :	0000000110111000;
END;
