-- begin_signature
-- Weight_Memory(numWeight
-- 16
-- neuronNo
-- 1
-- layerNo
-- 2
-- addressWidth
-- 4
-- dataWidth
-- 16
-- weightFile
-- "w_2_1.mif")
-- end_signature
WIDTH=16;
DEPTH=16;

ADDRESS_RADIX=UNS;
DATA_RADIX=BIN;

CONTENT BEGIN
	15 :	1111101011101101;
	14 :	1111111010100110;
	13 :	0000000010011100;
	12 :	1111011000010001;
	11 :	1111011010010111;
	10 :	0000111000110101;
	9 :	1111110010110011;
	8 :	0000010001010010;
	7 :	0000110111100000;
	6 :	1111100110100110;
	5 :	0000011011000101;
	4 :	0000011100001110;
	3 :	0000010000000011;
	2 :	1111011101101010;
	1 :	0000000001100100;
	0 :	0000110000100000;
END;
