-- begin_signature
-- Weight_Memory(numWeight
-- 64
-- neuronNo
-- 39
-- layerNo
-- 1
-- addressWidth
-- 6
-- dataWidth
-- 16
-- weightFile
-- "w_1_39.mif")
-- end_signature
WIDTH=16;
DEPTH=64;

ADDRESS_RADIX=UNS;
DATA_RADIX=BIN;

CONTENT BEGIN
	63 :	0000010001001000;
	62 :	1111111100001010;
	61 :	1111101100000110;
	60 :	0000000001101011;
	59 :	0000100001001000;
	58 :	0001100001101101;
	57 :	0000110100010010;
	56 :	0000000001001011;
	55 :	0000100001111000;
	54 :	1111100110000111;
	53 :	0000001100010110;
	52 :	1111111001100101;
	51 :	0000000011101110;
	50 :	0000011111110100;
	49 :	1111101001000111;
	48 :	1111110111110101;
	47 :	1111001011101110;
	46 :	1111000111111000;
	45 :	1111101111001110;
	44 :	1111001101000001;
	43 :	1111100010010000;
	42 :	1111010000000110;
	41 :	1111011100111110;
	40 :	1111111001011010;
	39 :	0000000111101100;
	38 :	1111011001111100;
	37 :	1111011111011111;
	36 :	1111101001101111;
	35 :	1111110000010001;
	34 :	1111001100000101;
	33 :	1111000011000100;
	32 :	1111111000111000;
	31 :	1111010101100010;
	30 :	1111101000110000;
	29 :	0000001001010000;
	28 :	0000100100010001;
	27 :	0000001000011011;
	26 :	1111100110100110;
	25 :	1111100101110001;
	24 :	1111110010111110;
	23 :	1111011010111100;
	22 :	1111111011011100;
	21 :	0001001011011110;
	20 :	0000101110101011;
	19 :	1111010010101011;
	18 :	1111111101111011;
	17 :	0001000100010110;
	16 :	0000010001111111;
	15 :	1111110100010101;
	14 :	0000100100111011;
	13 :	0001011010010100;
	12 :	0000101010001110;
	11 :	0000001110100100;
	10 :	0001001000000101;
	9 :	0001101010011001;
	8 :	0000001100100010;
	7 :	1111110000100011;
	6 :	0000101101010011;
	5 :	0001011010110000;
	4 :	0000001001100011;
	3 :	0000100101001001;
	2 :	0001111010100110;
	1 :	0000111101100000;
	0 :	1111111011111111;
END;
