-- begin_signature
-- Weight_Memory(numWeight
-- 30
-- neuronNo
-- 10
-- layerNo
-- 2
-- addressWidth
-- 5
-- dataWidth
-- 16
-- weightFile
-- "w_2_10.mif")
-- end_signature
WIDTH=16;
DEPTH=30;

ADDRESS_RADIX=UNS;
DATA_RADIX=BIN;

CONTENT BEGIN
	29 :	1111110100011110;
	28 :	1111111101010010;
	27 :	0000000011011011;
	26 :	1111011100001100;
	25 :	0000100000110111;
	24 :	0000011100100110;
	23 :	0000001100101100;
	22 :	0000010101101001;
	21 :	0000011010010111;
	20 :	1111111100011110;
	19 :	1111100110011010;
	18 :	0000100010100111;
	17 :	1111111000001110;
	16 :	1111111011111010;
	15 :	0000010110001001;
	14 :	0000010000001000;
	13 :	0000000110010011;
	12 :	1111111100011110;
	11 :	1111111111100101;
	10 :	0000000011100100;
	9 :	1111111111011011;
	8 :	0000000101010000;
	7 :	1111110010111110;
	6 :	1111101100101000;
	5 :	1111011111100011;
	4 :	0000001100001001;
	3 :	1111110001101110;
	2 :	0000011000100010;
	1 :	0000010001000111;
	0 :	1111101100001110;
END;
