-- begin_signature
-- Weight_Memory(numWeight
-- 10
-- neuronNo
-- 8
-- layerNo
-- 3
-- addressWidth
-- 4
-- dataWidth
-- 16
-- weightFile
-- "w_2_8.mif")
-- end_signature
WIDTH=16;
DEPTH=10;

ADDRESS_RADIX=UNS;
DATA_RADIX=BIN;

CONTENT BEGIN
	9 :	1111111000011011;
	8 :	1111101010001001;
	7 :	0000001001111000;
	6 :	0000001101010100;
	5 :	1111110111011100;
	4 :	0000000111010000;
	3 :	0000000010001000;
	2 :	0000001010001010;
	1 :	0000010110001110;
	0 :	0000001001101011;
END;
