-- begin_signature
-- Weight_Memory(numWeight
-- 30
-- neuronNo
-- 5
-- layerNo
-- 2
-- addressWidth
-- 5
-- dataWidth
-- 16
-- weightFile
-- "w_2_5.mif")
-- end_signature
WIDTH=16;
DEPTH=30;

ADDRESS_RADIX=UNS;
DATA_RADIX=BIN;

CONTENT BEGIN
	29 :	0000000011010111;
	28 :	1111110001000000;
	27 :	0000001001110011;
	26 :	0000001111101111;
	25 :	1111101010101000;
	24 :	0000001101101000;
	23 :	0000000100110010;
	22 :	1111101110010110;
	21 :	0000000100000011;
	20 :	1111110111001001;
	19 :	1111110111000001;
	18 :	0000000101100110;
	17 :	0000000011100011;
	16 :	1111101100010101;
	15 :	0000010000001010;
	14 :	1111111111111111;
	13 :	1111110000010000;
	12 :	0000000010110001;
	11 :	1111110101110110;
	10 :	0000000111000111;
	9 :	0000010001000101;
	8 :	0000010000110000;
	7 :	0000001101111101;
	6 :	0000000000110010;
	5 :	0000000110001010;
	4 :	1111111000011000;
	3 :	1111110101001110;
	2 :	1111111110111001;
	1 :	1111111010100010;
	0 :	1111111001010001;
END;
