-- begin_signature
-- Weight_Memory(numWeight
-- 64
-- neuronNo
-- 12
-- layerNo
-- 1
-- addressWidth
-- 6
-- dataWidth
-- 16
-- weightFile
-- "C:/Users/Ohmen/Desktop/Desktop/School/Thesis/tensorflow/w_b/w_1_12.mif")
-- end_signature
WIDTH=16;
DEPTH=64;

ADDRESS_RADIX=UNS;
DATA_RADIX=BIN;

CONTENT BEGIN
	63 :	1111010101001000;
	62 :	1111110011010100;
	61 :	1111101100111000;
	60 :	1111100011000000;
	59 :	0000001011011010;
	58 :	0000100110110010;
	57 :	1111101110110100;
	56 :	1111110010000110;
	55 :	1111101100000011;
	54 :	0000010110001001;
	53 :	1111101000101101;
	52 :	1111101010101111;
	51 :	0000000111011011;
	50 :	1111101100101000;
	49 :	1111100110001111;
	48 :	1111111010010011;
	47 :	1111110001100101;
	46 :	0000011010100011;
	45 :	0000000110000101;
	44 :	0000000001001001;
	43 :	1111011100100011;
	42 :	1111010001111100;
	41 :	0000000001111110;
	40 :	1111111110010111;
	39 :	1111110000111000;
	38 :	0000101000010100;
	37 :	0000101000001011;
	36 :	0000010101110101;
	35 :	1111110111110001;
	34 :	1111111001010111;
	33 :	0000010110101101;
	32 :	1111111011001010;
	31 :	1111110000111010;
	30 :	0000101011110111;
	29 :	0000001101000101;
	28 :	0000001101101101;
	27 :	1111100000001010;
	26 :	1111011101001011;
	25 :	1111110010110110;
	24 :	0000000111110000;
	23 :	0000000111100110;
	22 :	0000011001100111;
	21 :	0000010111100001;
	20 :	0000111000110011;
	19 :	1111100111011101;
	18 :	1111100010000110;
	17 :	1111110100000100;
	16 :	1111101010010001;
	15 :	0000101001110011;
	14 :	0000010101101000;
	13 :	0000010101111000;
	12 :	0000100000011111;
	11 :	0000001000100001;
	10 :	0000001001100001;
	9 :	0000100110100100;
	8 :	1111110101101000;
	7 :	0000100110111000;
	6 :	0000011101001101;
	5 :	1111110101010110;
	4 :	0000100001011101;
	3 :	0000011000000111;
	2 :	0000000011001000;
	1 :	0000011100111010;
	0 :	1111110010010001;
END;
