-- begin_signature
-- Weight_Memory(numWeight
-- 45
-- neuronNo
-- 7
-- layerNo
-- 2
-- addressWidth
-- 6
-- dataWidth
-- 16
-- weightFile
-- "w_2_7.mif")
-- end_signature
WIDTH=16;
DEPTH=45;

ADDRESS_RADIX=UNS;
DATA_RADIX=BIN;

CONTENT BEGIN
	44 :	1111111100100010;
	43 :	0000000010011001;
	42 :	1111110010101101;
	41 :	1111101011111010;
	40 :	0000000100011100;
	39 :	0000100001011011;
	38 :	0000010000001101;
	37 :	0001000111111000;
	36 :	0000110011010011;
	35 :	1111111110001011;
	34 :	0000001000101110;
	33 :	1111100011110001;
	32 :	0000100110000111;
	31 :	0000111110011001;
	30 :	1111001011101001;
	29 :	1111101001101111;
	28 :	1111000000110111;
	27 :	1111011111101101;
	26 :	1111100000111011;
	25 :	1111111110000000;
	24 :	1111111101010111;
	23 :	1111010111101010;
	22 :	1111001001000110;
	21 :	0000101101100101;
	20 :	1111111101010110;
	19 :	1110111101111010;
	18 :	0000011000000111;
	17 :	0000101001000101;
	16 :	0000010001001000;
	15 :	1111000110100111;
	14 :	1111101100011110;
	13 :	1111101011111101;
	12 :	1111101111101111;
	11 :	0001000110010010;
	10 :	0000100100010010;
	9 :	1111010010110000;
	8 :	0000101110001010;
	7 :	1111111100100100;
	6 :	0000101100111011;
	5 :	1111110110110101;
	4 :	0000111010001110;
	3 :	1111110111111110;
	2 :	1111100100100111;
	1 :	1111011001100101;
	0 :	1111101101001010;
END;
