-- begin_signature
-- Weight_Memory(numWeight
-- 16
-- neuronNo
-- 7
-- layerNo
-- 2
-- addressWidth
-- 4
-- dataWidth
-- 32
-- weightFile
-- "w_2_7.mif")
-- end_signature
WIDTH=32;
DEPTH=16;

ADDRESS_RADIX=UNS;
DATA_RADIX=BIN;

CONTENT BEGIN
	15 :	00000000000000000000000000000011;
	14 :	00000000000000000000000000000000;
	13 :	00000000000000000000000011110101;
	12 :	00000000000000000000000000001011;
	11 :	00000000000000000000000000001010;
	10 :	00000000000000000000000011111111;
	9 :	00000000000000000000000000000000;
	8 :	00000000000000000000000011111110;
	7 :	00000000000000000000000000000001;
	6 :	00000000000000000000000011111011;
	5 :	00000000000000000000000011111110;
	4 :	00000000000000000000000000000110;
	3 :	00000000000000000000000000001100;
	2 :	00000000000000000000000011110111;
	1 :	00000000000000000000000011110101;
	0 :	00000000000000000000000000010101;
END;
