-- begin_signature
-- Weight_Memory(numWeight
-- 30
-- neuronNo
-- 2
-- layerNo
-- 2
-- addressWidth
-- 5
-- dataWidth
-- 16
-- weightFile
-- "w_2_2.mif")
-- end_signature
WIDTH=16;
DEPTH=30;

ADDRESS_RADIX=UNS;
DATA_RADIX=BIN;

CONTENT BEGIN
	29 :	0000010011010111;
	28 :	1111101010101100;
	27 :	0000001100110000;
	26 :	1111111001111011;
	25 :	1111101100010111;
	24 :	0000000111000111;
	23 :	0000001000001000;
	22 :	0000001111000011;
	21 :	0000001101000011;
	20 :	0000011000100110;
	19 :	1111101011111010;
	18 :	0000000111001110;
	17 :	1111011111001110;
	16 :	0000000011011000;
	15 :	0000011111111010;
	14 :	1111110111001110;
	13 :	0000001011000010;
	12 :	0000010011010111;
	11 :	0000011100001100;
	10 :	0000000110010100;
	9 :	1111111100100101;
	8 :	1111110110110100;
	7 :	1111110011100000;
	6 :	1111110101111011;
	5 :	0000011000010110;
	4 :	1111111001010101;
	3 :	0000000100010110;
	2 :	1111101110001100;
	1 :	1111101111101100;
	0 :	1111101010111110;
END;
