-- begin_signature
-- Weight_Memory(numWeight
-- 30
-- neuronNo
-- 21
-- layerNo
-- 2
-- addressWidth
-- 5
-- dataWidth
-- 16
-- weightFile
-- "w_2_21.mif")
-- end_signature
WIDTH=16;
DEPTH=30;

ADDRESS_RADIX=UNS;
DATA_RADIX=BIN;

CONTENT BEGIN
	29 :	1111111000101110;
	28 :	0000001100000011;
	27 :	0000000010010100;
	26 :	0000001001101101;
	25 :	0000000011010111;
	24 :	1111110011110100;
	23 :	0000011100101010;
	22 :	0000000000110110;
	21 :	0000000010110111;
	20 :	1111100111100101;
	19 :	1111101000001000;
	18 :	1111111011011110;
	17 :	0000000100110100;
	16 :	1111101100100110;
	15 :	0000011111101011;
	14 :	0000000011101100;
	13 :	0000010101101100;
	12 :	1111111011101011;
	11 :	0000010100011010;
	10 :	1111101000001001;
	9 :	1111110000101010;
	8 :	0000001001010100;
	7 :	1111100010111111;
	6 :	1111110010001100;
	5 :	0000001101101100;
	4 :	0000011000000101;
	3 :	0000100011000010;
	2 :	1111101111100101;
	1 :	0000000101110101;
	0 :	0000000110001101;
END;
