-- begin_signature
-- Weight_Memory(numWeight
-- 64
-- neuronNo
-- 6
-- layerNo
-- 1
-- addressWidth
-- 6
-- dataWidth
-- 16
-- weightFile
-- "C:/Users/Ohmen/Desktop/Desktop/School/Thesis/tensorflow/w_b/w_1_6.mif")
-- end_signature
WIDTH=16;
DEPTH=64;

ADDRESS_RADIX=UNS;
DATA_RADIX=BIN;

CONTENT BEGIN
	63 :	1111010110101010;
	62 :	1111111100001110;
	61 :	1111110111100111;
	60 :	1111110101011011;
	59 :	0000001110011100;
	58 :	0000011010110000;
	57 :	0000000111000010;
	56 :	0000000011110111;
	55 :	0000000010011001;
	54 :	1111100101101100;
	53 :	0000001010110010;
	52 :	1111111011011101;
	51 :	1111111111010010;
	50 :	1111111101010000;
	49 :	1111110000000111;
	48 :	0000000001010000;
	47 :	0000011010110111;
	46 :	0000010100011100;
	45 :	0000010101000000;
	44 :	1111101110101111;
	43 :	1110111110000001;
	42 :	1111101101000111;
	41 :	1111010011011001;
	40 :	1111101010001010;
	39 :	0000000000001110;
	38 :	0000010010011000;
	37 :	1111111111001100;
	36 :	1111101000001011;
	35 :	0000000010110110;
	34 :	0000010100000110;
	33 :	0000010111011100;
	32 :	1111110011110010;
	31 :	1111100110010110;
	30 :	1111110110000111;
	29 :	1111110101011010;
	28 :	0000000101000100;
	27 :	1111110111111001;
	26 :	0000100011100110;
	25 :	0000000100010101;
	24 :	1111111000000001;
	23 :	1111011101100100;
	22 :	1111100001101001;
	21 :	1111101111000100;
	20 :	1111010100001110;
	19 :	0000000100000100;
	18 :	0000011111100000;
	17 :	0000000011100011;
	16 :	1111011110110011;
	15 :	1111101000101111;
	14 :	0000001011000101;
	13 :	1111110110110000;
	12 :	0000001110101100;
	11 :	0000010100100001;
	10 :	0000011001101100;
	9 :	1111101111001101;
	8 :	1111111000111111;
	7 :	1111110001101010;
	6 :	0000011011001110;
	5 :	0000010001101001;
	4 :	1111111100010101;
	3 :	0000000100001101;
	2 :	0000011000100101;
	1 :	0000011100001100;
	0 :	1111111111010000;
END;
