-- begin_signature
-- Weight_Memory(numWeight
-- 30
-- neuronNo
-- 22
-- layerNo
-- 2
-- addressWidth
-- 5
-- dataWidth
-- 16
-- weightFile
-- "w_2_22.mif")
-- end_signature
WIDTH=16;
DEPTH=30;

ADDRESS_RADIX=UNS;
DATA_RADIX=BIN;

CONTENT BEGIN
	29 :	1111110001111101;
	28 :	1111110010111100;
	27 :	0000001110001000;
	26 :	1111101011101110;
	25 :	0000011010101101;
	24 :	1111100111010100;
	23 :	0000010000010111;
	22 :	1111111001011110;
	21 :	0000000111011000;
	20 :	1111101001111111;
	19 :	1111101111110011;
	18 :	1111111101110111;
	17 :	0000000000101011;
	16 :	0000000000101111;
	15 :	1111110110100110;
	14 :	0000010100010010;
	13 :	0000010111111000;
	12 :	1111110110101011;
	11 :	0000000101110110;
	10 :	1111101110110101;
	9 :	0000000101111101;
	8 :	0000010011011111;
	7 :	1111100101111111;
	6 :	1111101010011101;
	5 :	1111100000101111;
	4 :	0000001110110100;
	3 :	0000011111001110;
	2 :	1111110000100100;
	1 :	0000010111000111;
	0 :	0000001111111100;
END;
