-- begin_signature
-- Weight_Memory(numWeight
-- 64
-- neuronNo
-- 8
-- layerNo
-- 1
-- addressWidth
-- 6
-- dataWidth
-- 16
-- weightFile
-- "C:/Users/Ohmen/Desktop/Desktop/School/Thesis/tensorflow/w_b/w_1_8.mif")
-- end_signature
WIDTH=16;
DEPTH=64;

ADDRESS_RADIX=UNS;
DATA_RADIX=BIN;

CONTENT BEGIN
	63 :	1111100100100110;
	62 :	1111111100111001;
	61 :	0000001110001010;
	60 :	0000000111100100;
	59 :	0000000001101011;
	58 :	0000001101000001;
	57 :	0000001101001100;
	56 :	0000000100101111;
	55 :	0000001101011000;
	54 :	0000001000110000;
	53 :	1111110001100001;
	52 :	0000001010110100;
	51 :	1111101001000100;
	50 :	1111111110011000;
	49 :	1111110001100100;
	48 :	0000001101011111;
	47 :	0000000001010110;
	46 :	1111111000000110;
	45 :	1111111011000111;
	44 :	1111111001010001;
	43 :	1111001011101110;
	42 :	1111011010000011;
	41 :	1111011100000110;
	40 :	1111111110100011;
	39 :	1111101110100011;
	38 :	1111110001110110;
	37 :	1111111100101111;
	36 :	1111110111100000;
	35 :	0000001001011101;
	34 :	1111111000111010;
	33 :	1111000111111011;
	32 :	0000001010100101;
	31 :	1111100011000011;
	30 :	1111110110111101;
	29 :	0000010111110110;
	28 :	0000001011000110;
	27 :	0000011000110000;
	26 :	0000011110000110;
	25 :	0000001010010010;
	24 :	1111100010011111;
	23 :	1111011110111101;
	22 :	1111111001110101;
	21 :	0000011010110011;
	20 :	1111110011000011;
	19 :	1111111110100010;
	18 :	0000001111010000;
	17 :	0000001101100011;
	16 :	1111110000110001;
	15 :	1111101011001111;
	14 :	0000010000010001;
	13 :	1111111001000111;
	12 :	1111110101101101;
	11 :	1111111111101001;
	10 :	0000100000000001;
	9 :	0000001011110101;
	8 :	0000100010100001;
	7 :	1111110001011101;
	6 :	0000001110010111;
	5 :	1111111100000101;
	4 :	0000010110011011;
	3 :	0000010000101011;
	2 :	0000000001000110;
	1 :	1111111000011111;
	0 :	0000000001101011;
END;
