-- begin_signature
-- Weight_Memory(numWeight
-- 64
-- neuronNo
-- 9
-- layerNo
-- 1
-- addressWidth
-- 6
-- dataWidth
-- 16
-- weightFile
-- "C:/Users/Ohmen/Desktop/Desktop/School/Thesis/tensorflow/w_b/w_1_9.mif")
-- end_signature
WIDTH=16;
DEPTH=64;

ADDRESS_RADIX=UNS;
DATA_RADIX=BIN;

CONTENT BEGIN
	63 :	1111010000110110;
	62 :	0000000111000100;
	61 :	1111110111100011;
	60 :	0000010001000000;
	59 :	1111110010111101;
	58 :	1111101110001110;
	57 :	1111100100001001;
	56 :	1111110111011110;
	55 :	1111101110101101;
	54 :	0000000111101100;
	53 :	0000010010000101;
	52 :	1111110111110000;
	51 :	1111010011001110;
	50 :	0000010111010111;
	49 :	0000010001100101;
	48 :	1111110110001110;
	47 :	1111101101100000;
	46 :	0000001011101000;
	45 :	0000101001000110;
	44 :	0000100010000010;
	43 :	0000001100101101;
	42 :	0000100110101110;
	41 :	0000011011011000;
	40 :	0000011101111111;
	39 :	1111101111001110;
	38 :	1111111101110001;
	37 :	1111110001011101;
	36 :	0000000011111101;
	35 :	0000011101110101;
	34 :	0000010001101101;
	33 :	0000000110001010;
	32 :	1111110011011101;
	31 :	0000010110100111;
	30 :	0000010111010100;
	29 :	0000000001001010;
	28 :	0000001101101101;
	27 :	0000101101001100;
	26 :	0000001011101010;
	25 :	0000000111011000;
	24 :	0000001110010100;
	23 :	1111111000010001;
	22 :	0000100110010011;
	21 :	0000101000100001;
	20 :	0000010000100100;
	19 :	0000010100010011;
	18 :	0000011010101000;
	17 :	0000000100011010;
	16 :	0000100000100000;
	15 :	1111101111111110;
	14 :	0000000100110110;
	13 :	0000000001000011;
	12 :	1111100010110110;
	11 :	0000001001001010;
	10 :	1111111101010111;
	9 :	0000000000111100;
	8 :	0000100011010111;
	7 :	1111111111011111;
	6 :	1111000101100101;
	5 :	1111100101101011;
	4 :	0000000011010110;
	3 :	1111110011000001;
	2 :	1111100001101011;
	1 :	1111100011110011;
	0 :	0000000101000100;
END;
