-- begin_signature
-- Weight_Memory(numWeight
-- 64
-- neuronNo
-- 13
-- layerNo
-- 1
-- addressWidth
-- 6
-- dataWidth
-- 16
-- weightFile
-- "C:/Users/Ohmen/Desktop/Desktop/School/Thesis/tensorflow/w_b/w_1_13.mif")
-- end_signature
WIDTH=16;
DEPTH=64;

ADDRESS_RADIX=UNS;
DATA_RADIX=BIN;

CONTENT BEGIN
	63 :	1111011110111100;
	62 :	1111011010000010;
	61 :	1111111000000110;
	60 :	0000000001100100;
	59 :	0000001011001111;
	58 :	0000000110011010;
	57 :	0000000100000101;
	56 :	1111110110110000;
	55 :	1111100111100010;
	54 :	1111101001011100;
	53 :	1111101110110101;
	52 :	1111110110011111;
	51 :	1111110000101010;
	50 :	1111110011011010;
	49 :	1111111000011110;
	48 :	0000000001010111;
	47 :	1111011101001010;
	46 :	0000100100110100;
	45 :	0000011001110101;
	44 :	0000001110010000;
	43 :	1111110011101010;
	42 :	0000001100000001;
	41 :	0000001110100101;
	40 :	0000011100000000;
	39 :	1111110000010001;
	38 :	0000100011000000;
	37 :	0000101010010111;
	36 :	0000010101100010;
	35 :	1111110110110001;
	34 :	0000011101101011;
	33 :	0000101000100001;
	32 :	1111111001010011;
	31 :	0000001100100001;
	30 :	0000011000011100;
	29 :	1111101000001000;
	28 :	0000000101011000;
	27 :	0000000000111100;
	26 :	0000011100111111;
	25 :	0000010111110011;
	24 :	0000010110001001;
	23 :	0000000100111010;
	22 :	1111101101011011;
	21 :	0000001100000001;
	20 :	0000001101000010;
	19 :	0000000000011101;
	18 :	1111111110110110;
	17 :	0000010001100010;
	16 :	1111110001111101;
	15 :	0000010000010111;
	14 :	1111110110010100;
	13 :	0000000100011011;
	12 :	0000000011100011;
	11 :	1111111001101100;
	10 :	1111110100110000;
	9 :	0000001111111000;
	8 :	0000000110100100;
	7 :	0000001001000011;
	6 :	0000000010110101;
	5 :	0000000000101000;
	4 :	0000000111111010;
	3 :	1111111110111000;
	2 :	1111111110111000;
	1 :	0000010111100010;
	0 :	1111110001111010;
END;
