-- begin_signature
-- Weight_Memory(numWeight
-- 16
-- neuronNo
-- 6
-- layerNo
-- 2
-- addressWidth
-- 4
-- dataWidth
-- 32
-- weightFile
-- "w_2_6.mif")
-- end_signature
WIDTH=32;
DEPTH=16;

ADDRESS_RADIX=UNS;
DATA_RADIX=BIN;

CONTENT BEGIN
	15 :	00000000000000000000000011110110;
	14 :	00000000000000000000000000000010;
	13 :	00000000000000000000000000000001;
	12 :	00000000000000000000000011110101;
	11 :	00000000000000000000000011111011;
	10 :	00000000000000000000000000001001;
	9 :	00000000000000000000000000000001;
	8 :	00000000000000000000000000000000;
	7 :	00000000000000000000000011110111;
	6 :	00000000000000000000000011111101;
	5 :	00000000000000000000000000000000;
	4 :	00000000000000000000000011111011;
	3 :	00000000000000000000000011110111;
	2 :	00000000000000000000000000000101;
	1 :	00000000000000000000000011111011;
	0 :	00000000000000000000000000001011;
END;
