-- begin_signature
-- Weight_Memory(numWeight
-- 10
-- neuronNo
-- 3
-- layerNo
-- 3
-- addressWidth
-- 4
-- dataWidth
-- 32
-- weightFile
-- "w_3_3.mif")
-- end_signature
WIDTH=32;
DEPTH=10;

ADDRESS_RADIX=UNS;
DATA_RADIX=BIN;

CONTENT BEGIN
	9 :	00000000000000000000000000000100;
	8 :	00000000000000000000000000001011;
	7 :	00000000000000000000000011101110;
	6 :	00000000000000000000000011110111;
	5 :	00000000000000000000000000001000;
	4 :	00000000000000000000000000000000;
	3 :	00000000000000000000000011111110;
	2 :	00000000000000000000000011110001;
	1 :	00000000000000000000000011111110;
	0 :	00000000000000000000000011111011;
END;
