-- begin_signature
-- Weight_Memory(numWeight
-- 16
-- neuronNo
-- 8
-- layerNo
-- 2
-- addressWidth
-- 4
-- dataWidth
-- 16
-- weightFile
-- "w_2_8.mif")
-- end_signature
WIDTH=16;
DEPTH=16;

ADDRESS_RADIX=UNS;
DATA_RADIX=BIN;

CONTENT BEGIN
	15 :	0000011101110001;
	14 :	0000100001101110;
	13 :	0000001111110111;
	12 :	0000010111100100;
	11 :	0000100010011000;
	10 :	1111111001110000;
	9 :	1111101001010000;
	8 :	1111111000001010;
	7 :	0000010001001000;
	6 :	0000011001110111;
	5 :	1111110100001000;
	4 :	0000100110011111;
	3 :	1111100000101001;
	2 :	0000000001001010;
	1 :	0000011111110000;
	0 :	1111010101100101;
END;
