-- begin_signature
-- Weight_Memory(numWeight
-- 10
-- neuronNo
-- 6
-- layerNo
-- 3
-- addressWidth
-- 4
-- dataWidth
-- 16
-- weightFile
-- "w_2_6.mif")
-- end_signature
WIDTH=16;
DEPTH=10;

ADDRESS_RADIX=UNS;
DATA_RADIX=BIN;

CONTENT BEGIN
	9 :	0000001011100000;
	8 :	0000000101110011;
	7 :	0000001000010011;
	6 :	1111111100011110;
	5 :	1111111100101111;
	4 :	1111100011011100;
	3 :	1111110001110111;
	2 :	0000000000010110;
	1 :	1111110000111001;
	0 :	0000000100010110;
END;
