-- begin_signature
-- Weight_Memory(numWeight
-- 64
-- neuronNo
-- 13
-- layerNo
-- 1
-- addressWidth
-- 6
-- dataWidth
-- 32
-- weightFile
-- "w_1_13.mif")
-- end_signature
WIDTH=32;
DEPTH=64;

ADDRESS_RADIX=UNS;
DATA_RADIX=BIN;

CONTENT BEGIN
	63 :	00000000000000000000000011101010;
	62 :	00000000000000000000000011110001;
	61 :	00000000000000000000000011111111;
	60 :	00000000000000000000000000001010;
	59 :	00000000000000000000000000000011;
	58 :	00000000000000000000000011111000;
	57 :	00000000000000000000000011111110;
	56 :	00000000000000000000000000000010;
	55 :	00000000000000000000000011101111;
	54 :	00000000000000000000000000001101;
	53 :	00000000000000000000000000001011;
	52 :	00000000000000000000000011110110;
	51 :	00000000000000000000000011110101;
	50 :	00000000000000000000000000001010;
	49 :	00000000000000000000000011111010;
	48 :	00000000000000000000000011111100;
	47 :	00000000000000000000000000001101;
	46 :	00000000000000000000000000011001;
	45 :	00000000000000000000000000001001;
	44 :	00000000000000000000000011111011;
	43 :	00000000000000000000000011110010;
	42 :	00000000000000000000000000000111;
	41 :	00000000000000000000000011110101;
	40 :	00000000000000000000000011110111;
	39 :	00000000000000000000000000000010;
	38 :	00000000000000000000000011101111;
	37 :	00000000000000000000000011110111;
	36 :	00000000000000000000000011111111;
	35 :	00000000000000000000000000001000;
	34 :	00000000000000000000000000000000;
	33 :	00000000000000000000000011110001;
	32 :	00000000000000000000000000000000;
	31 :	00000000000000000000000011111001;
	30 :	00000000000000000000000011100101;
	29 :	00000000000000000000000011111010;
	28 :	00000000000000000000000000000001;
	27 :	00000000000000000000000000001110;
	26 :	00000000000000000000000000000000;
	25 :	00000000000000000000000011111000;
	24 :	00000000000000000000000011111100;
	23 :	00000000000000000000000011111001;
	22 :	00000000000000000000000000000010;
	21 :	00000000000000000000000000000000;
	20 :	00000000000000000000000011110001;
	19 :	00000000000000000000000011111010;
	18 :	00000000000000000000000000000111;
	17 :	00000000000000000000000011111111;
	16 :	00000000000000000000000000000001;
	15 :	00000000000000000000000011110110;
	14 :	00000000000000000000000000001000;
	13 :	00000000000000000000000000000101;
	12 :	00000000000000000000000011110111;
	11 :	00000000000000000000000000000100;
	10 :	00000000000000000000000000001000;
	9 :	00000000000000000000000011111100;
	8 :	00000000000000000000000000000101;
	7 :	00000000000000000000000011110001;
	6 :	00000000000000000000000011111010;
	5 :	00000000000000000000000000000000;
	4 :	00000000000000000000000000000111;
	3 :	00000000000000000000000000000000;
	2 :	00000000000000000000000011111000;
	1 :	00000000000000000000000011111100;
	0 :	00000000000000000000000000000011;
END;
