-- begin_signature
-- Weight_Memory(numWeight
-- 30
-- neuronNo
-- 0
-- layerNo
-- 3
-- addressWidth
-- 5
-- dataWidth
-- 16
-- weightFile
-- "w_3_0.mif")
-- end_signature
WIDTH=16;
DEPTH=30;

ADDRESS_RADIX=UNS;
DATA_RADIX=BIN;

CONTENT BEGIN
	29 :	1111111001100010;
	28 :	0000000000110000;
	27 :	0000001100000100;
	26 :	0000011010011111;
	25 :	0000100101010011;
	24 :	0000011011110000;
	23 :	0000001101110101;
	22 :	1111100001111001;
	21 :	1111100110101001;
	20 :	1111101011111100;
	19 :	0000011110000001;
	18 :	1111011101011000;
	17 :	1111001100000100;
	16 :	1111011011111111;
	15 :	1111101110010111;
	14 :	0000000001011011;
	13 :	0000010101111101;
	12 :	1111111111001011;
	11 :	1111111001001001;
	10 :	1111011110100001;
	9 :	1111110110101100;
	8 :	0000100100101101;
	7 :	1111110011001110;
	6 :	0000001111110001;
	5 :	0000001111101100;
	4 :	0000010000101001;
	3 :	1111110111011010;
	2 :	1111001000110011;
	1 :	1111000111101011;
	0 :	1111111010110001;
END;
