-- begin_signature
-- Weight_Memory(numWeight
-- 10
-- neuronNo
-- 9
-- layerNo
-- 4
-- addressWidth
-- 4
-- dataWidth
-- 16
-- weightFile
-- "w_3_9.mif")
-- end_signature
WIDTH=16;
DEPTH=10;

ADDRESS_RADIX=UNS;
DATA_RADIX=BIN;

CONTENT BEGIN
	9 :	0000101001010001;
	8 :	1111101000011101;
	7 :	0000000011001000;
	6 :	1111100001110011;
	5 :	1111111011000011;
	4 :	1111110000001010;
	3 :	0000001011100001;
	2 :	1111110100111100;
	1 :	1111111110011110;
	0 :	0000101001100010;
END;
