-- begin_signature
-- neuron(layerNo
-- 1
-- neuronNo
-- 35
-- numWeight
-- 64
-- dataWidth
-- 16
-- weightIntWidth
-- 4
-- biasFile
-- "b_1_35.mif"
-- weightFile
-- "w_1_35.mif")
-- end_signature
WIDTH=32;
DEPTH=1;

ADDRESS_RADIX=UNS;
DATA_RADIX=BIN;

CONTENT BEGIN
	0 :	00000000000000000000000010000110;
END;
