-- begin_signature
-- Weight_Memory(numWeight
-- 30
-- neuronNo
-- 7
-- layerNo
-- 2
-- addressWidth
-- 5
-- dataWidth
-- 16
-- weightFile
-- "w_2_7.mif")
-- end_signature
WIDTH=16;
DEPTH=30;

ADDRESS_RADIX=UNS;
DATA_RADIX=BIN;

CONTENT BEGIN
	29 :	1111111011001010;
	28 :	0000000011111110;
	27 :	0000000000101100;
	26 :	1111101001100110;
	25 :	0000000101110101;
	24 :	0000001111110100;
	23 :	1111110011100100;
	22 :	0000011000011110;
	21 :	1111100100001010;
	20 :	0000010110001101;
	19 :	1111110011110100;
	18 :	0000010011111100;
	17 :	1111101110101000;
	16 :	0000011111111101;
	15 :	0000000011001100;
	14 :	1111111100111100;
	13 :	0000000011011001;
	12 :	0000011001010101;
	11 :	1111111100101101;
	10 :	0000010011011101;
	9 :	0000001111000011;
	8 :	1111110111011111;
	7 :	1111111100110101;
	6 :	0000011000101101;
	5 :	0000010100111110;
	4 :	0000000110011000;
	3 :	0000000101101011;
	2 :	0000001000011101;
	1 :	1111111101011011;
	0 :	1111111110001100;
END;
