-- begin_signature
-- Weight_Memory(numWeight
-- 16
-- neuronNo
-- 0
-- layerNo
-- 2
-- addressWidth
-- 4
-- dataWidth
-- 32
-- weightFile
-- "w_2_0.mif")
-- end_signature
WIDTH=32;
DEPTH=16;

ADDRESS_RADIX=UNS;
DATA_RADIX=BIN;

CONTENT BEGIN
	15 :	00000000000000000000000000000001;
	14 :	00000000000000000000000000000010;
	13 :	00000000000000000000000000000000;
	12 :	00000000000000000000000000000011;
	11 :	00000000000000000000000000001000;
	10 :	00000000000000000000000011101000;
	9 :	00000000000000000000000000000111;
	8 :	00000000000000000000000000001100;
	7 :	00000000000000000000000000000001;
	6 :	00000000000000000000000000000000;
	5 :	00000000000000000000000011111011;
	4 :	00000000000000000000000011111000;
	3 :	00000000000000000000000000000101;
	2 :	00000000000000000000000011111000;
	1 :	00000000000000000000000011111110;
	0 :	00000000000000000000000000000000;
END;
