-- begin_signature
-- Weight_Memory(numWeight
-- 64
-- neuronNo
-- 31
-- layerNo
-- 1
-- addressWidth
-- 6
-- dataWidth
-- 16
-- weightFile
-- "w_1_31.mif")
-- end_signature
WIDTH=16;
DEPTH=64;

ADDRESS_RADIX=UNS;
DATA_RADIX=BIN;

CONTENT BEGIN
	63 :	1110110100000001;
	62 :	1111000111101111;
	61 :	1110101111110000;
	60 :	1111100100111001;
	59 :	0000010000011011;
	58 :	0000101101011101;
	57 :	0000001101001111;
	56 :	1111111111101110;
	55 :	1111100011100000;
	54 :	1110111110110100;
	53 :	1110111011000111;
	52 :	1111011111100001;
	51 :	1111101011010001;
	50 :	1111111010001101;
	49 :	0000010100001010;
	48 :	1111110010101101;
	47 :	1111111101111110;
	46 :	0000001100011111;
	45 :	0000010010001010;
	44 :	0000000110111100;
	43 :	1111011101111010;
	42 :	1111100010110000;
	41 :	0000100110010001;
	40 :	0000101000101100;
	39 :	1111111111010100;
	38 :	0001011011011000;
	37 :	0000011001110101;
	36 :	1111100000100111;
	35 :	1111101011011110;
	34 :	0000011001101011;
	33 :	0000110111001100;
	32 :	0000001000001111;
	31 :	1111110011010000;
	30 :	0001010111101101;
	29 :	0000011011101010;
	28 :	1111101110101110;
	27 :	1111111011011001;
	26 :	0000101000100011;
	25 :	0000011111111010;
	24 :	1111111101001110;
	23 :	0000100001100101;
	22 :	0000000110001000;
	21 :	0000001011101010;
	20 :	1111000010100010;
	19 :	1111100000110001;
	18 :	0000010101010010;
	17 :	0000010101101011;
	16 :	1111101011000001;
	15 :	0000101100100011;
	14 :	0000001001001101;
	13 :	1111110111100011;
	12 :	1111110100100011;
	11 :	0000011010110110;
	10 :	0000010110000101;
	9 :	1111110111010011;
	8 :	0000011100100010;
	7 :	0000111001001011;
	6 :	0001000101000100;
	5 :	1111110101010110;
	4 :	0000000100000110;
	3 :	0000001001110010;
	2 :	0000110110010011;
	1 :	0000011010101011;
	0 :	0000001011010000;
END;
