-- begin_signature
-- Weight_Memory(numWeight
-- 64
-- neuronNo
-- 7
-- layerNo
-- 1
-- addressWidth
-- 6
-- dataWidth
-- 32
-- weightFile
-- "w_1_7.mif")
-- end_signature
WIDTH=32;
DEPTH=64;

ADDRESS_RADIX=UNS;
DATA_RADIX=BIN;

CONTENT BEGIN
	63 :	00000000000000000000000000001010;
	62 :	00000000000000000000000000000011;
	61 :	00000000000000000000000000001000;
	60 :	00000000000000000000000000000010;
	59 :	00000000000000000000000000000011;
	58 :	00000000000000000000000000000010;
	57 :	00000000000000000000000000001100;
	56 :	00000000000000000000000000000010;
	55 :	00000000000000000000000000000100;
	54 :	00000000000000000000000000001000;
	53 :	00000000000000000000000000000000;
	52 :	00000000000000000000000011111101;
	51 :	00000000000000000000000000001010;
	50 :	00000000000000000000000000000111;
	49 :	00000000000000000000000011111110;
	48 :	00000000000000000000000011111111;
	47 :	00000000000000000000000000000110;
	46 :	00000000000000000000000011111101;
	45 :	00000000000000000000000011111110;
	44 :	00000000000000000000000000000100;
	43 :	00000000000000000000000000000111;
	42 :	00000000000000000000000000000111;
	41 :	00000000000000000000000011110111;
	40 :	00000000000000000000000011111001;
	39 :	00000000000000000000000011111110;
	38 :	00000000000000000000000011110011;
	37 :	00000000000000000000000011111011;
	36 :	00000000000000000000000000010010;
	35 :	00000000000000000000000000001011;
	34 :	00000000000000000000000011111101;
	33 :	00000000000000000000000011110110;
	32 :	00000000000000000000000000000011;
	31 :	00000000000000000000000011111011;
	30 :	00000000000000000000000011101100;
	29 :	00000000000000000000000011110111;
	28 :	00000000000000000000000000000010;
	27 :	00000000000000000000000011111111;
	26 :	00000000000000000000000011110000;
	25 :	00000000000000000000000011110110;
	24 :	00000000000000000000000000000011;
	23 :	00000000000000000000000000000010;
	22 :	00000000000000000000000011111010;
	21 :	00000000000000000000000011110011;
	20 :	00000000000000000000000000000111;
	19 :	00000000000000000000000011111001;
	18 :	00000000000000000000000011110110;
	17 :	00000000000000000000000011111110;
	16 :	00000000000000000000000000001000;
	15 :	00000000000000000000000000000111;
	14 :	00000000000000000000000000000111;
	13 :	00000000000000000000000011111111;
	12 :	00000000000000000000000000000001;
	11 :	00000000000000000000000000000010;
	10 :	00000000000000000000000000000010;
	9 :	00000000000000000000000000000100;
	8 :	00000000000000000000000000000101;
	7 :	00000000000000000000000000000010;
	6 :	00000000000000000000000000001000;
	5 :	00000000000000000000000000010000;
	4 :	00000000000000000000000000000010;
	3 :	00000000000000000000000000000100;
	2 :	00000000000000000000000000000010;
	1 :	00000000000000000000000000000110;
	0 :	00000000000000000000000000000000;
END;
