-- begin_signature
-- Weight_Memory(numWeight
-- 10
-- neuronNo
-- 4
-- layerNo
-- 3
-- addressWidth
-- 4
-- dataWidth
-- 32
-- weightFile
-- "w_3_4.mif")
-- end_signature
WIDTH=32;
DEPTH=10;

ADDRESS_RADIX=UNS;
DATA_RADIX=BIN;

CONTENT BEGIN
	9 :	00000000000000000000000011110100;
	8 :	00000000000000000000000011101101;
	7 :	00000000000000000000000000000010;
	6 :	00000000000000000000000011110010;
	5 :	00000000000000000000000011101010;
	4 :	00000000000000000000000011101111;
	3 :	00000000000000000000000011111010;
	2 :	00000000000000000000000000000111;
	1 :	00000000000000000000000011111000;
	0 :	00000000000000000000000000000010;
END;
