-- begin_signature
-- Weight_Memory(numWeight
-- 30
-- neuronNo
-- 29
-- layerNo
-- 2
-- addressWidth
-- 5
-- dataWidth
-- 16
-- weightFile
-- "w_2_29.mif")
-- end_signature
WIDTH=16;
DEPTH=30;

ADDRESS_RADIX=UNS;
DATA_RADIX=BIN;

CONTENT BEGIN
	29 :	0000001111110010;
	28 :	1111100111010000;
	27 :	0000001000101110;
	26 :	0000001011001001;
	25 :	0000000100100101;
	24 :	0000001001011011;
	23 :	1111110011010111;
	22 :	1111110010000010;
	21 :	1111111110101111;
	20 :	1111101011011010;
	19 :	0000000001001111;
	18 :	0000001110100000;
	17 :	0000001001000111;
	16 :	1111100111111111;
	15 :	1111110000110111;
	14 :	0000000100001000;
	13 :	1111110000000000;
	12 :	1111111101000111;
	11 :	0000000011001011;
	10 :	1111101011101101;
	9 :	1111111111001101;
	8 :	1111110010100011;
	7 :	1111110001100111;
	6 :	0000000110100101;
	5 :	1111111001101101;
	4 :	0000001001000000;
	3 :	0000000101011101;
	2 :	0000001101100000;
	1 :	0000000010101011;
	0 :	1111110100010011;
END;
