-- begin_signature
-- Weight_Memory(numWeight
-- 64
-- neuronNo
-- 20
-- layerNo
-- 1
-- addressWidth
-- 6
-- dataWidth
-- 16
-- weightFile
-- "w_1_20.mif")
-- end_signature
WIDTH=16;
DEPTH=64;

ADDRESS_RADIX=UNS;
DATA_RADIX=BIN;

CONTENT BEGIN
	63 :	1110101001000000;
	62 :	1111101001001111;
	61 :	1111100100010001;
	60 :	0000000101001100;
	59 :	0000001100101001;
	58 :	0000010100011011;
	57 :	1111111011110111;
	56 :	0000001001000111;
	55 :	1111100010110100;
	54 :	0000010001101101;
	53 :	1111111101011111;
	52 :	1111111101101001;
	51 :	1111010110010010;
	50 :	1111111110011001;
	49 :	0000000101100000;
	48 :	1111110110011010;
	47 :	1111010000010000;
	46 :	0000011111001110;
	45 :	0000010011110011;
	44 :	1111000111000111;
	43 :	1110001100111100;
	42 :	1110111111111000;
	41 :	0000000010000110;
	40 :	1111101010011001;
	39 :	1111110101000011;
	38 :	0000011000001010;
	37 :	1111111011100111;
	36 :	1111010011100101;
	35 :	1111011111101101;
	34 :	1111111100101111;
	33 :	1111100011001111;
	32 :	0000001000110011;
	31 :	1111010100000100;
	30 :	0000010000010111;
	29 :	1111111110011100;
	28 :	0000000101000100;
	27 :	0000010101000000;
	26 :	0000010010100100;
	25 :	0000011000111010;
	24 :	1111111110000011;
	23 :	1111011100001010;
	22 :	0000000001011101;
	21 :	0000100000111100;
	20 :	0000010100101111;
	19 :	1111100111001001;
	18 :	1111110110111011;
	17 :	0000010001100101;
	16 :	0000000011011101;
	15 :	1111100111111010;
	14 :	0000001010010101;
	13 :	0000010101010001;
	12 :	0000010010011111;
	11 :	0000001000101110;
	10 :	0000011010010000;
	9 :	0000000100000011;
	8 :	1111110000001011;
	7 :	1111001010110000;
	6 :	0000001010110110;
	5 :	0000001010111111;
	4 :	0000000000111000;
	3 :	0000010010110010;
	2 :	1111110111111111;
	1 :	0000001010111000;
	0 :	1111111010110101;
END;
