-- begin_signature
-- Weight_Memory(numWeight
-- 10
-- neuronNo
-- 2
-- layerNo
-- 3
-- addressWidth
-- 4
-- dataWidth
-- 32
-- weightFile
-- "w_3_2.mif")
-- end_signature
WIDTH=32;
DEPTH=10;

ADDRESS_RADIX=UNS;
DATA_RADIX=BIN;

CONTENT BEGIN
	9 :	00000000000000000000000011110001;
	8 :	00000000000000000000000000000011;
	7 :	00000000000000000000000000001000;
	6 :	00000000000000000000000011110011;
	5 :	00000000000000000000000000001101;
	4 :	00000000000000000000000011101101;
	3 :	00000000000000000000000011110000;
	2 :	00000000000000000000000011110000;
	1 :	00000000000000000000000011101111;
	0 :	00000000000000000000000011101110;
END;
