-- begin_signature
-- Weight_Memory(numWeight
-- 64
-- neuronNo
-- 0
-- layerNo
-- 1
-- addressWidth
-- 6
-- dataWidth
-- 32
-- weightFile
-- "w_1_0.mif")
-- end_signature
WIDTH=32;
DEPTH=64;

ADDRESS_RADIX=UNS;
DATA_RADIX=BIN;

CONTENT BEGIN
	63 :	00000000000000000000000011111111;
	62 :	00000000000000000000000000000100;
	61 :	00000000000000000000000000000001;
	60 :	00000000000000000000000000000011;
	59 :	00000000000000000000000000000000;
	58 :	00000000000000000000000000000011;
	57 :	00000000000000000000000000001011;
	56 :	00000000000000000000000000000101;
	55 :	00000000000000000000000011110100;
	54 :	00000000000000000000000011111100;
	53 :	00000000000000000000000000000101;
	52 :	00000000000000000000000000000101;
	51 :	00000000000000000000000000000101;
	50 :	00000000000000000000000000001110;
	49 :	00000000000000000000000000000011;
	48 :	00000000000000000000000011111011;
	47 :	00000000000000000000000000001001;
	46 :	00000000000000000000000011111111;
	45 :	00000000000000000000000011111010;
	44 :	00000000000000000000000011111010;
	43 :	00000000000000000000000000010001;
	42 :	00000000000000000000000000010101;
	41 :	00000000000000000000000011111101;
	40 :	00000000000000000000000011110101;
	39 :	00000000000000000000000000000011;
	38 :	00000000000000000000000011110110;
	37 :	00000000000000000000000011110110;
	36 :	00000000000000000000000011111010;
	35 :	00000000000000000000000000000001;
	34 :	00000000000000000000000000000100;
	33 :	00000000000000000000000000001010;
	32 :	00000000000000000000000011111101;
	31 :	00000000000000000000000000000010;
	30 :	00000000000000000000000000000001;
	29 :	00000000000000000000000011111010;
	28 :	00000000000000000000000011110011;
	27 :	00000000000000000000000011111100;
	26 :	00000000000000000000000000000101;
	25 :	00000000000000000000000000001000;
	24 :	00000000000000000000000011111110;
	23 :	00000000000000000000000000000000;
	22 :	00000000000000000000000000000000;
	21 :	00000000000000000000000011111011;
	20 :	00000000000000000000000011101011;
	19 :	00000000000000000000000011111100;
	18 :	00000000000000000000000000010001;
	17 :	00000000000000000000000000001001;
	16 :	00000000000000000000000000000000;
	15 :	00000000000000000000000011110011;
	14 :	00000000000000000000000011111100;
	13 :	00000000000000000000000000000000;
	12 :	00000000000000000000000011111100;
	11 :	00000000000000000000000000000001;
	10 :	00000000000000000000000000000010;
	9 :	00000000000000000000000000000110;
	8 :	00000000000000000000000000000100;
	7 :	00000000000000000000000011111101;
	6 :	00000000000000000000000011110110;
	5 :	00000000000000000000000011111110;
	4 :	00000000000000000000000011111110;
	3 :	00000000000000000000000011111111;
	2 :	00000000000000000000000000000101;
	1 :	00000000000000000000000000000101;
	0 :	00000000000000000000000000000011;
END;
