-- begin_signature
-- Weight_Memory(numWeight
-- 64
-- neuronNo
-- 32
-- layerNo
-- 1
-- addressWidth
-- 6
-- dataWidth
-- 16
-- weightFile
-- "w_1_32.mif")
-- end_signature
WIDTH=16;
DEPTH=64;

ADDRESS_RADIX=UNS;
DATA_RADIX=BIN;

CONTENT BEGIN
	63 :	1111010100010110;
	62 :	1111001110100010;
	61 :	1111110010001000;
	60 :	0000001110000000;
	59 :	1111110000010011;
	58 :	1111110110001000;
	57 :	0000000110010011;
	56 :	1111100111101001;
	55 :	0000000001011101;
	54 :	0000000100100001;
	53 :	1111101100001001;
	52 :	1111100111010110;
	51 :	1111100000110011;
	50 :	1111010010000001;
	49 :	0000001111101001;
	48 :	0000000110101011;
	47 :	1111100101001011;
	46 :	0000111010110010;
	45 :	0001000110111010;
	44 :	0000110011000001;
	43 :	1110110111101000;
	42 :	1110101111111010;
	41 :	0000000111010000;
	40 :	0000111000000110;
	39 :	0000000100100111;
	38 :	0000001111100101;
	37 :	0001000001000111;
	36 :	0001000000101111;
	35 :	0000100100110010;
	34 :	0000010110100101;
	33 :	0000000011110111;
	32 :	1111111101001000;
	31 :	0000100000111101;
	30 :	1111001010000111;
	29 :	1111101000110101;
	28 :	0000111110000001;
	27 :	0001010001110100;
	26 :	0000011101101000;
	25 :	0000010000110010;
	24 :	1111111000110110;
	23 :	0000010110001110;
	22 :	1111010100000100;
	21 :	1110111010111100;
	20 :	0000000110000110;
	19 :	0000101001000011;
	18 :	1111101111101011;
	17 :	1111101100001001;
	16 :	0000001100101100;
	15 :	0000001100000011;
	14 :	0000000001100001;
	13 :	1111101010000011;
	12 :	1111110001011011;
	11 :	0000001100011111;
	10 :	1111101100111101;
	9 :	1111100001011101;
	8 :	0000011110011010;
	7 :	1111011001101100;
	6 :	0000101011000111;
	5 :	0000100100010011;
	4 :	0000011101100010;
	3 :	1111101101100111;
	2 :	1111110111100100;
	1 :	0000010001010000;
	0 :	0000000010101101;
END;
