-- begin_signature
-- Weight_Memory(numWeight
-- 64
-- neuronNo
-- 6
-- layerNo
-- 1
-- addressWidth
-- 6
-- dataWidth
-- 16
-- weightFile
-- "C:/Users/Ohmen/Desktop/Desktop/School/Thesis/rtl/w_1_6.mif")
-- end_signature
WIDTH=16;
DEPTH=64;

ADDRESS_RADIX=UNS;
DATA_RADIX=BIN;

CONTENT BEGIN
	63 :	1111010100011111;
	62 :	1111010010100010;
	61 :	1111000110111000;
	60 :	1111100010010101;
	59 :	1111110001001011;
	58 :	1111100110011100;
	57 :	1111111001100110;
	56 :	0000000000011000;
	55 :	1111010000101111;
	54 :	0000011110001010;
	53 :	1111111100010011;
	52 :	1101110000010001;
	51 :	1111010110000000;
	50 :	0000010110100100;
	49 :	1111100110000100;
	48 :	0000000000100100;
	47 :	1111111110100111;
	46 :	0000100110000101;
	45 :	0001000100010011;
	44 :	0001111101110001;
	43 :	0000011111100101;
	42 :	0001101100110011;
	41 :	0000010100111100;
	40 :	1111111100110111;
	39 :	1111111010000111;
	38 :	1111111101000001;
	37 :	0000011001100111;
	36 :	0001000001000011;
	35 :	0010010100100100;
	34 :	0001011011110000;
	33 :	1111101111001111;
	32 :	1111111101001100;
	31 :	0000000011010001;
	30 :	1110110000101101;
	29 :	1111110110110010;
	28 :	0000000100001000;
	27 :	0000011110111100;
	26 :	1111100000000101;
	25 :	1111101110011011;
	24 :	0000000001010011;
	23 :	1111111010000111;
	22 :	1111010001011110;
	21 :	1111101010000101;
	20 :	1110001000110000;
	19 :	1111011000110101;
	18 :	1111111111011000;
	17 :	0000011001110101;
	16 :	1111111111010101;
	15 :	0000001011111101;
	14 :	0000000110110001;
	13 :	1111100001101000;
	12 :	1110101101000101;
	11 :	0000101001111110;
	10 :	0000101111110000;
	9 :	0000001110011010;
	8 :	0000001011001011;
	7 :	1111111010101000;
	6 :	1111100100100001;
	5 :	1111111111100000;
	4 :	0001010111111110;
	3 :	1111010100010010;
	2 :	1111010111000101;
	1 :	1111110110111111;
	0 :	0000000000010111;
END;
