-- begin_signature
-- Weight_Memory(numWeight
-- 30
-- neuronNo
-- 15
-- layerNo
-- 2
-- addressWidth
-- 5
-- dataWidth
-- 16
-- weightFile
-- "w_2_15.mif")
-- end_signature
WIDTH=16;
DEPTH=30;

ADDRESS_RADIX=UNS;
DATA_RADIX=BIN;

CONTENT BEGIN
	29 :	0000001110100010;
	28 :	1111100111011010;
	27 :	0000001110111101;
	26 :	1111111101001111;
	25 :	1111110100000000;
	24 :	1111110101001100;
	23 :	1111101111111111;
	22 :	0000000100010100;
	21 :	1111101110001011;
	20 :	0000101001011110;
	19 :	1111101101111110;
	18 :	0000001000000010;
	17 :	0000000111000101;
	16 :	0000011001101001;
	15 :	0000011011010110;
	14 :	1111111000011111;
	13 :	0000000101110110;
	12 :	1111101100101000;
	11 :	0000001110101111;
	10 :	1111111111110000;
	9 :	0000000111111010;
	8 :	1111101001110001;
	7 :	0000001001100110;
	6 :	0000000000111001;
	5 :	0000011100010101;
	4 :	0000100001110001;
	3 :	0000100000001111;
	2 :	1111111100011010;
	1 :	1111111010001101;
	0 :	0000010011101010;
END;
