-- begin_signature
-- neuron(layerNo
-- 4
-- neuronNo
-- 5
-- numWeight
-- 10
-- dataWidth
-- 16
-- weightIntWidth
-- 4
-- biasFile
-- "b_4_5.mif"
-- weightFile
-- "w_4_5.mif")
-- end_signature
WIDTH=32;
DEPTH=1;

ADDRESS_RADIX=UNS;
DATA_RADIX=BIN;

CONTENT BEGIN
	0 :	00000000000000000000000011011011;
END;
