-- begin_signature
-- Weight_Memory(numWeight
-- 30
-- neuronNo
-- 5
-- layerNo
-- 3
-- addressWidth
-- 5
-- dataWidth
-- 16
-- weightFile
-- "w_3_5.mif")
-- end_signature
WIDTH=16;
DEPTH=30;

ADDRESS_RADIX=UNS;
DATA_RADIX=BIN;

CONTENT BEGIN
	29 :	1111110001000010;
	28 :	0000000100000010;
	27 :	0000001111111001;
	26 :	1111111100011100;
	25 :	1111010111100110;
	24 :	1111100011100000;
	23 :	0000011010001001;
	22 :	1111100010000101;
	21 :	1111001010000011;
	20 :	0000001101011100;
	19 :	1111010110110100;
	18 :	1111100010001111;
	17 :	1111101011001110;
	16 :	1111100110111010;
	15 :	1111010000111011;
	14 :	1111011110110000;
	13 :	0000010110100011;
	12 :	0000001100001101;
	11 :	0000010010100110;
	10 :	0000010001010001;
	9 :	0000011111110001;
	8 :	1111101101110110;
	7 :	0000010100100000;
	6 :	0000011100100100;
	5 :	1111101011101000;
	4 :	0000010000001111;
	3 :	0000000010100101;
	2 :	1111111000000011;
	1 :	0000000100110000;
	0 :	0000000111110010;
END;
