-- begin_signature
-- Weight_Memory(numWeight
-- 37
-- neuronNo
-- 3
-- layerNo
-- 3
-- addressWidth
-- 6
-- dataWidth
-- 16
-- weightFile
-- "w_3_3.mif")
-- end_signature
WIDTH=16;
DEPTH=37;

ADDRESS_RADIX=UNS;
DATA_RADIX=BIN;

CONTENT BEGIN
	36 :	0000001100110011;
	35 :	1111110111010110;
	34 :	1110110100001000;
	33 :	1111001000101111;
	32 :	1111101110111010;
	31 :	0000011100001101;
	30 :	1110010011001011;
	29 :	1111001100010110;
	28 :	0000011101101111;
	27 :	0000011001110111;
	26 :	0000001001111111;
	25 :	0000101111111001;
	24 :	0000011101011110;
	23 :	0000111101000011;
	22 :	1110101101000110;
	21 :	1110000010011000;
	20 :	1111001101001110;
	19 :	1111110010101101;
	18 :	1111001011111001;
	17 :	0000010010110100;
	16 :	0000011100110000;
	15 :	1111010111000111;
	14 :	1111000011011010;
	13 :	0000100010001101;
	12 :	1110100101110100;
	11 :	1110011111011101;
	10 :	0000001010111001;
	9 :	1110101101011111;
	8 :	1110100100110000;
	7 :	1111000000101111;
	6 :	0000101110111011;
	5 :	0000100001011010;
	4 :	1111111001110101;
	3 :	0000101011101111;
	2 :	1111010110011101;
	1 :	0000011110111011;
	0 :	0000010000011011;
END;
