-- begin_signature
-- neuron(layerNo
-- 2
-- neuronNo
-- 0
-- numWeight
-- 16
-- dataWidth
-- 16
-- weightIntWidth
-- 4
-- biasFile
-- "C:/Users/Ohmen/Desktop/Desktop/School/Thesis/tensorflow/w_b/b_2_0.mif"
-- weightFile
-- "C:/Users/Ohmen/Desktop/Desktop/School/Thesis/tensorflow/w_b/w_2_0.mif")
-- end_signature
WIDTH=32;
DEPTH=1;

ADDRESS_RADIX=UNS;
DATA_RADIX=BIN;

CONTENT BEGIN
	0 :	00000000000000001111111110001010;
END;
