-- begin_signature
-- neuron(layerNo
-- 3
-- neuronNo
-- 5
-- numWeight
-- 37
-- dataWidth
-- 16
-- sigmoidSize
-- 5
-- weightIntWidth
-- 4
-- biasFile
-- "b_3_5.mif"
-- weightFile
-- "w_3_5.mif")
-- end_signature
WIDTH=32;
DEPTH=1;

ADDRESS_RADIX=UNS;
DATA_RADIX=BIN;

CONTENT BEGIN
	0 :	00000000000000001111111011110011;
END;
