-- begin_signature
-- Weight_Memory(numWeight
-- 45
-- neuronNo
-- 21
-- layerNo
-- 2
-- addressWidth
-- 6
-- dataWidth
-- 16
-- weightFile
-- "w_2_21.mif")
-- end_signature
WIDTH=16;
DEPTH=45;

ADDRESS_RADIX=UNS;
DATA_RADIX=BIN;

CONTENT BEGIN
	44 :	1111101010001000;
	43 :	0000001001011010;
	42 :	1111100010001111;
	41 :	0000100110100110;
	40 :	0000010000011101;
	39 :	1111100011101110;
	38 :	0000001000111011;
	37 :	0000101111010001;
	36 :	0001001100111110;
	35 :	1111010011001110;
	34 :	0001001000011000;
	33 :	0000001011010011;
	32 :	1111100000010111;
	31 :	0000010011110000;
	30 :	0000100111010011;
	29 :	1111001001010001;
	28 :	1111010001010100;
	27 :	0000101010100100;
	26 :	1111101100100110;
	25 :	0000000111101111;
	24 :	1111111110001100;
	23 :	0000010001001111;
	22 :	1111100110111011;
	21 :	1111110101111100;
	20 :	1111110100011001;
	19 :	0000011011010011;
	18 :	1111111000111011;
	17 :	1111101101111010;
	16 :	1111111101110001;
	15 :	1111000101111110;
	14 :	1111011110111010;
	13 :	0001001001110101;
	12 :	0000001100000001;
	11 :	0001000110010000;
	10 :	1111101000100011;
	9 :	1111010110001110;
	8 :	0000000011001101;
	7 :	0000011010011000;
	6 :	0001001100100011;
	5 :	1111100111011000;
	4 :	0000110110100101;
	3 :	1111101110010011;
	2 :	0001010001011000;
	1 :	0000011010100111;
	0 :	1111010100101101;
END;
