-- begin_signature
-- Weight_Memory(numWeight
-- 64
-- neuronNo
-- 0
-- layerNo
-- 1
-- addressWidth
-- 6
-- dataWidth
-- 16
-- weightFile
-- "C:/Users/Ohmen/Desktop/Desktop/School/Thesis/tensorflow/w_b/w_1_0.mif")
-- end_signature
WIDTH=16;
DEPTH=64;

ADDRESS_RADIX=UNS;
DATA_RADIX=BIN;

CONTENT BEGIN
	63 :	0000001010111111;
	62 :	1111110001101010;
	61 :	1111110110000110;
	60 :	1111101110111111;
	59 :	0000001101110110;
	58 :	0000000110010000;
	57 :	1111111011001011;
	56 :	1111111111100110;
	55 :	1111111001100001;
	54 :	1111111011100111;
	53 :	0000001010110100;
	52 :	1111110110101111;
	51 :	1111110011001111;
	50 :	1111101111100100;
	49 :	0000000000101100;
	48 :	0000000111011000;
	47 :	0000000111110000;
	46 :	1111111101011000;
	45 :	1111101111001010;
	44 :	0000000011010000;
	43 :	0000000101011000;
	42 :	1111111001100011;
	41 :	0000001111001101;
	40 :	0000000011000101;
	39 :	0000000111001010;
	38 :	0000000101010101;
	37 :	0000001011110110;
	36 :	1111111000000101;
	35 :	1111110010111011;
	34 :	1111110011110000;
	33 :	0000001111100010;
	32 :	0000000111000010;
	31 :	1111111111110010;
	30 :	0000001000001110;
	29 :	1111101111110001;
	28 :	1111111011100101;
	27 :	1111110111010010;
	26 :	1111101110111010;
	25 :	0000001001101110;
	24 :	1111111000000100;
	23 :	0000001010011000;
	22 :	1111110110110101;
	21 :	0000000010010100;
	20 :	1111110111000000;
	19 :	0000000101001100;
	18 :	1111110110001101;
	17 :	0000001110000011;
	16 :	0000001111011111;
	15 :	0000000011011100;
	14 :	1111110010010010;
	13 :	1111110111011100;
	12 :	1111110111111111;
	11 :	1111111011001101;
	10 :	1111111100000101;
	9 :	0000000001000001;
	8 :	1111101111101101;
	7 :	0000001000110001;
	6 :	0000001110000010;
	5 :	1111110001010111;
	4 :	0000000101010011;
	3 :	0000000010010101;
	2 :	0000000101101110;
	1 :	1111110001000011;
	0 :	1111110100010110;
END;
