-- begin_signature
-- Weight_Memory(numWeight
-- 45
-- neuronNo
-- 22
-- layerNo
-- 2
-- addressWidth
-- 6
-- dataWidth
-- 16
-- weightFile
-- "w_2_22.mif")
-- end_signature
WIDTH=16;
DEPTH=45;

ADDRESS_RADIX=UNS;
DATA_RADIX=BIN;

CONTENT BEGIN
	44 :	0000110101100111;
	43 :	0000000010101100;
	42 :	0000100010001100;
	41 :	1111100110011100;
	40 :	0000101111011001;
	39 :	1111010110100110;
	38 :	0000111011101100;
	37 :	0000000111010110;
	36 :	0000000010111100;
	35 :	1111100111101000;
	34 :	0000101110100111;
	33 :	0000000011101100;
	32 :	1111111011000001;
	31 :	0000000110000010;
	30 :	1111100110100110;
	29 :	0000101001100000;
	28 :	0001010011011100;
	27 :	0000011000111010;
	26 :	0000101111111010;
	25 :	1110111010011101;
	24 :	1111110110010111;
	23 :	1111011111100010;
	22 :	1110111010100010;
	21 :	1111110100010000;
	20 :	1111100110010011;
	19 :	0001011111101101;
	18 :	1111111001101001;
	17 :	1111011110000100;
	16 :	0000110111100011;
	15 :	0001001111100000;
	14 :	0000010010001110;
	13 :	0000011110110000;
	12 :	0000001110001110;
	11 :	1111111110000001;
	10 :	1111101000000100;
	9 :	0000001101110000;
	8 :	1111001110010000;
	7 :	1111010110010100;
	6 :	0000010000100010;
	5 :	1111011011001011;
	4 :	1111011111001000;
	3 :	0000000000010100;
	2 :	1111111101000001;
	1 :	1111010110110011;
	0 :	0000011010011100;
END;
