-- begin_signature
-- Weight_Memory(numWeight
-- 30
-- neuronNo
-- 27
-- layerNo
-- 2
-- addressWidth
-- 5
-- dataWidth
-- 16
-- weightFile
-- "w_2_27.mif")
-- end_signature
WIDTH=16;
DEPTH=30;

ADDRESS_RADIX=UNS;
DATA_RADIX=BIN;

CONTENT BEGIN
	29 :	0000010101100000;
	28 :	0000001000110110;
	27 :	1111101101111101;
	26 :	0000000111111101;
	25 :	0000100000000001;
	24 :	0000011000001101;
	23 :	0000011000101110;
	22 :	0000001010101000;
	21 :	0000101011101011;
	20 :	1111100011010100;
	19 :	0000101000111000;
	18 :	0000011100000111;
	17 :	0000101101101010;
	16 :	1111100010011001;
	15 :	1111110110011000;
	14 :	0000000001101000;
	13 :	0000000000110110;
	12 :	0000001010101001;
	11 :	1111110100101011;
	10 :	1111111101111001;
	9 :	1111111101110111;
	8 :	1111101110000101;
	7 :	0000001101101111;
	6 :	1111100110000011;
	5 :	0000000001110111;
	4 :	1111110110011011;
	3 :	0000000100010010;
	2 :	0000100011100001;
	1 :	0000001110110110;
	0 :	1111111111101100;
END;
