-- begin_signature
-- Weight_Memory(numWeight
-- 64
-- neuronNo
-- 11
-- layerNo
-- 1
-- addressWidth
-- 6
-- dataWidth
-- 16
-- weightFile
-- "C:/Users/Ohmen/Desktop/Desktop/School/Thesis/tensorflow/w_b/w_1_11.mif")
-- end_signature
WIDTH=16;
DEPTH=64;

ADDRESS_RADIX=UNS;
DATA_RADIX=BIN;

CONTENT BEGIN
	63 :	0000011111101111;
	62 :	0000000001001111;
	61 :	0000010011010101;
	60 :	0000000001010100;
	59 :	0000000010010000;
	58 :	0000000111001110;
	57 :	0000010101010110;
	56 :	1111101111101010;
	55 :	0000101011100100;
	54 :	1111100101110100;
	53 :	0000000110010000;
	52 :	0000010010100010;
	51 :	0000010101100101;
	50 :	0000000111000101;
	49 :	0000000001110011;
	48 :	1111111001100000;
	47 :	1111011011001101;
	46 :	1111101110110010;
	45 :	1111110100001111;
	44 :	1111101011000111;
	43 :	0000001001111100;
	42 :	1111101000101101;
	41 :	1111011101010101;
	40 :	1111110101001100;
	39 :	0000001000000100;
	38 :	0000000100101000;
	37 :	0000001001010100;
	36 :	0000001000000001;
	35 :	1111110111000110;
	34 :	0000000011000000;
	33 :	0000001000000000;
	32 :	0000000011000010;
	31 :	0000000110011111;
	30 :	1111010101001110;
	29 :	1111110111010111;
	28 :	0000010100110110;
	27 :	0000010011010101;
	26 :	0000000101111001;
	25 :	0000010000100100;
	24 :	1111111011010110;
	23 :	1111101111100001;
	22 :	1111010010001000;
	21 :	1111010110010110;
	20 :	0000010000101111;
	19 :	0000011011101010;
	18 :	0000000101111000;
	17 :	0000000101011000;
	16 :	0000001001111011;
	15 :	1111110000000110;
	14 :	1111100001011111;
	13 :	1111111011110001;
	12 :	0000001010111101;
	11 :	0000000101111001;
	10 :	1111110110010011;
	9 :	0000000010100100;
	8 :	1111100010111010;
	7 :	1111011111010100;
	6 :	0000100010011110;
	5 :	0000100111111011;
	4 :	1111101101011000;
	3 :	0000000000011010;
	2 :	0000001110000101;
	1 :	0000111010011001;
	0 :	1111110011101101;
END;
