-- begin_signature
-- Weight_Memory(numWeight
-- 30
-- neuronNo
-- 3
-- layerNo
-- 3
-- addressWidth
-- 5
-- dataWidth
-- 16
-- weightFile
-- "w_3_3.mif")
-- end_signature
WIDTH=16;
DEPTH=30;

ADDRESS_RADIX=UNS;
DATA_RADIX=BIN;

CONTENT BEGIN
	29 :	0000000100000100;
	28 :	1111111110001000;
	27 :	1111111000001110;
	26 :	1111010000101010;
	25 :	1111110100000000;
	24 :	0000000110000111;
	23 :	0000100100100110;
	22 :	1111101000010100;
	21 :	0000000001101011;
	20 :	1111101000010101;
	19 :	1111111001111111;
	18 :	0000101110011100;
	17 :	0000000101011001;
	16 :	0000000010001010;
	15 :	0000000111111110;
	14 :	0000001100101101;
	13 :	1111100001110001;
	12 :	0000010110000011;
	11 :	0000010111011100;
	10 :	1111111000011100;
	9 :	0000000101001011;
	8 :	0000010100000000;
	7 :	1111110111111001;
	6 :	1111011110001100;
	5 :	0000001011101110;
	4 :	1111101111100101;
	3 :	0000010001111110;
	2 :	0000100001000001;
	1 :	0000001001110011;
	0 :	1111110010001011;
END;
