-- begin_signature
-- Weight_Memory(numWeight
-- 45
-- neuronNo
-- 5
-- layerNo
-- 2
-- addressWidth
-- 6
-- dataWidth
-- 16
-- weightFile
-- "w_2_5.mif")
-- end_signature
WIDTH=16;
DEPTH=45;

ADDRESS_RADIX=UNS;
DATA_RADIX=BIN;

CONTENT BEGIN
	44 :	0000010110111100;
	43 :	1111111101001011;
	42 :	0000001111101101;
	41 :	1111110001011100;
	40 :	1110111011110100;
	39 :	1111111001100110;
	38 :	1111100101010101;
	37 :	1111011001110111;
	36 :	1111011101110011;
	35 :	0000010100001000;
	34 :	0000001111110011;
	33 :	0000001000101010;
	32 :	0000010100110111;
	31 :	0000100111101100;
	30 :	0000001000111010;
	29 :	0000010110010110;
	28 :	0001000011010011;
	27 :	0000001110000011;
	26 :	0000000001011011;
	25 :	0000110000110000;
	24 :	0000010101011001;
	23 :	0000101011110110;
	22 :	0001001011111000;
	21 :	1111100100010110;
	20 :	1111111100011000;
	19 :	1111111111111100;
	18 :	0000001000110111;
	17 :	0000010000100011;
	16 :	1111011011001111;
	15 :	0001010111010111;
	14 :	0000100001111111;
	13 :	0000100110011001;
	12 :	1111110110101110;
	11 :	0000110100000010;
	10 :	1111100100010011;
	9 :	1111101101101010;
	8 :	1111101110110010;
	7 :	1111111010011010;
	6 :	1111100111011100;
	5 :	1111101000011100;
	4 :	1111011011011000;
	3 :	1111000000100000;
	2 :	0000000101001001;
	1 :	1111101101101011;
	0 :	0000011010010000;
END;
