-- begin_signature
-- Weight_Memory(numWeight
-- 30
-- neuronNo
-- 1
-- layerNo
-- 3
-- addressWidth
-- 5
-- dataWidth
-- 16
-- weightFile
-- "w_3_1.mif")
-- end_signature
WIDTH=16;
DEPTH=30;

ADDRESS_RADIX=UNS;
DATA_RADIX=BIN;

CONTENT BEGIN
	29 :	1111111011011110;
	28 :	1111111101010011;
	27 :	1111111111010010;
	26 :	1111101001101000;
	25 :	1111110110111111;
	24 :	1111111111010011;
	23 :	1111101010010010;
	22 :	0000001001001001;
	21 :	1111101011101001;
	20 :	1111101110100100;
	19 :	1111111011010110;
	18 :	0000000010011100;
	17 :	1111110101000101;
	16 :	0000010010111110;
	15 :	0000010100111011;
	14 :	0000010101100100;
	13 :	0000000011001111;
	12 :	0000001110101111;
	11 :	0000010100000010;
	10 :	1111111001001110;
	9 :	0000000100101011;
	8 :	0000000010110100;
	7 :	1111101000011111;
	6 :	1111111010101111;
	5 :	0000010111001010;
	4 :	0000010101101001;
	3 :	1111110000011011;
	2 :	1111111000011111;
	1 :	1111101110110010;
	0 :	0000001001001111;
END;
