-- begin_signature
-- Weight_Memory(numWeight
-- 64
-- neuronNo
-- 8
-- layerNo
-- 1
-- addressWidth
-- 6
-- dataWidth
-- 16
-- weightFile
-- "C:/Users/Ohmen/Desktop/Desktop/School/Thesis/rtl/w_1_8.mif")
-- end_signature
WIDTH=16;
DEPTH=64;

ADDRESS_RADIX=UNS;
DATA_RADIX=BIN;

CONTENT BEGIN
	63 :	1111111000011110;
	62 :	1111111001100110;
	61 :	1111111001111010;
	60 :	0000000100101000;
	59 :	1111111110010011;
	58 :	0000000000000111;
	57 :	1111111110000011;
	56 :	1111110100111100;
	55 :	1111111010101100;
	54 :	1111110110101001;
	53 :	1111111000001100;
	52 :	1111111100100011;
	51 :	0000000101001111;
	50 :	1111111100001001;
	49 :	0000000000000010;
	48 :	1111110110100001;
	47 :	0000000101110010;
	46 :	1111111110101010;
	45 :	1111111001110010;
	44 :	0000000000010011;
	43 :	0000000011010100;
	42 :	0000000011000011;
	41 :	0000001010100101;
	40 :	0000000101111010;
	39 :	0000000010111110;
	38 :	1111111000100011;
	37 :	0000000011011000;
	36 :	1111110101111100;
	35 :	0000000110000110;
	34 :	1111111101001011;
	33 :	1111111111000011;
	32 :	0000000001010111;
	31 :	0000001100111011;
	30 :	1111111101110100;
	29 :	1111111000000001;
	28 :	0000001011010111;
	27 :	0000000100100000;
	26 :	0000001101000000;
	25 :	1111110001111010;
	24 :	1111111011111111;
	23 :	1111110111010110;
	22 :	1111111010101110;
	21 :	0000000011111101;
	20 :	0000000100111011;
	19 :	0000000001001011;
	18 :	1111111100110010;
	17 :	0000000001000101;
	16 :	1111111101110100;
	15 :	1111111011010101;
	14 :	0000001011101110;
	13 :	0000001001101101;
	12 :	0000000010100110;
	11 :	0000001010110110;
	10 :	0000000011110010;
	9 :	1111110111000101;
	8 :	1111110110001011;
	7 :	1111111100101001;
	6 :	0000000011001100;
	5 :	1111110101101110;
	4 :	1111111100101111;
	3 :	0000000000111010;
	2 :	0000000001100010;
	1 :	1111111111100010;
	0 :	0000000001101101;
END;
