-- begin_signature
-- Weight_Memory(numWeight
-- 10
-- neuronNo
-- 0
-- layerNo
-- 3
-- addressWidth
-- 4
-- dataWidth
-- 32
-- weightFile
-- "w_3_0.mif")
-- end_signature
WIDTH=32;
DEPTH=10;

ADDRESS_RADIX=UNS;
DATA_RADIX=BIN;

CONTENT BEGIN
	9 :	00000000000000000000000011101110;
	8 :	00000000000000000000000011011101;
	7 :	00000000000000000000000011111101;
	6 :	00000000000000000000000000001011;
	5 :	00000000000000000000000000001001;
	4 :	00000000000000000000000000001001;
	3 :	00000000000000000000000011101110;
	2 :	00000000000000000000000000000110;
	1 :	00000000000000000000000011110000;
	0 :	00000000000000000000000011111001;
END;
