-- begin_signature
-- Weight_Memory(numWeight
-- 10
-- neuronNo
-- 6
-- layerNo
-- 3
-- addressWidth
-- 4
-- dataWidth
-- 32
-- weightFile
-- "w_3_6.mif")
-- end_signature
WIDTH=32;
DEPTH=10;

ADDRESS_RADIX=UNS;
DATA_RADIX=BIN;

CONTENT BEGIN
	9 :	00000000000000000000000011110001;
	8 :	00000000000000000000000000000001;
	7 :	00000000000000000000000000000000;
	6 :	00000000000000000000000011110001;
	5 :	00000000000000000000000011100101;
	4 :	00000000000000000000000000001001;
	3 :	00000000000000000000000000010010;
	2 :	00000000000000000000000000000010;
	1 :	00000000000000000000000011101111;
	0 :	00000000000000000000000000000100;
END;
