-- begin_signature
-- Weight_Memory(numWeight
-- 64
-- neuronNo
-- 2
-- layerNo
-- 1
-- addressWidth
-- 6
-- dataWidth
-- 16
-- weightFile
-- "C:/Users/Ohmen/Desktop/Desktop/School/Thesis/tensorflow/w_b/w_1_2.mif")
-- end_signature
WIDTH=16;
DEPTH=64;

ADDRESS_RADIX=UNS;
DATA_RADIX=BIN;

CONTENT BEGIN
	63 :	0000011111100100;
	62 :	0000000011110101;
	61 :	0000010101001111;
	60 :	0000001100000010;
	59 :	0000001110011100;
	58 :	1111101101110110;
	57 :	1111110001110010;
	56 :	1111110111011100;
	55 :	0000011100100110;
	54 :	0000001000110011;
	53 :	0000011110001011;
	52 :	0000001011011000;
	51 :	1111111101110101;
	50 :	0000011000101110;
	49 :	0000000010011110;
	48 :	0000010110101010;
	47 :	1111111011011001;
	46 :	1111100000000011;
	45 :	0000001011010011;
	44 :	0000010000001110;
	43 :	0000011111001001;
	42 :	0000010110101000;
	41 :	0000000000101110;
	40 :	0000001111110001;
	39 :	0000001001000100;
	38 :	1111100111001111;
	37 :	1111111010001000;
	36 :	0000000100011010;
	35 :	0000010110101111;
	34 :	1111110001101001;
	33 :	1111111000001110;
	32 :	1111111100101001;
	31 :	0000000110000100;
	30 :	0000000110100110;
	29 :	0000001000011111;
	28 :	0000000110000110;
	27 :	0000001111000111;
	26 :	1111111111010010;
	25 :	1111111111101010;
	24 :	0000001101011001;
	23 :	0000000010011111;
	22 :	0000001010010011;
	21 :	1111101111100011;
	20 :	0000100000110111;
	19 :	0000001010001111;
	18 :	0000001100101010;
	17 :	0000001010101001;
	16 :	0000000011111000;
	15 :	1111101110000101;
	14 :	0000000000110011;
	13 :	0000000111110100;
	12 :	0000000111110011;
	11 :	1111110001101010;
	10 :	1111101110101000;
	9 :	0000001001011111;
	8 :	1111111111111001;
	7 :	1111101000100110;
	6 :	0000000001011001;
	5 :	0000010010000101;
	4 :	1111111110001001;
	3 :	1111110101000000;
	2 :	1111111010000110;
	1 :	1111110001010110;
	0 :	1111101111101010;
END;
