-- begin_signature
-- Weight_Memory(numWeight
-- 64
-- neuronNo
-- 16
-- layerNo
-- 1
-- addressWidth
-- 6
-- dataWidth
-- 16
-- weightFile
-- "w_1_16.mif")
-- end_signature
WIDTH=16;
DEPTH=64;

ADDRESS_RADIX=UNS;
DATA_RADIX=BIN;

CONTENT BEGIN
	63 :	0000100010100001;
	62 :	1111100011010110;
	61 :	0000011111001100;
	60 :	0000101100101110;
	59 :	1111101111000110;
	58 :	1110111001101011;
	57 :	1111010001100111;
	56 :	1111100010011101;
	55 :	0000001010111111;
	54 :	1111011111101010;
	53 :	0000101000100110;
	52 :	1111111010010000;
	51 :	1111110011000100;
	50 :	0000101100000001;
	49 :	1111101110001101;
	48 :	1111101000100101;
	47 :	0000001101100001;
	46 :	1111110111010101;
	45 :	0000000100110010;
	44 :	0000011010110100;
	43 :	0000011011111010;
	42 :	0001101101001010;
	41 :	1111111111101100;
	40 :	1111011000010100;
	39 :	0000001010011110;
	38 :	1110011111100100;
	37 :	1111011101001000;
	36 :	1111111001010111;
	35 :	0000001000100110;
	34 :	0000001111110110;
	33 :	0000000000111000;
	32 :	1111111001000001;
	31 :	0000101100011001;
	30 :	1111001100001001;
	29 :	1111110101010101;
	28 :	1111101101101111;
	27 :	0000011110010011;
	26 :	0000011010000100;
	25 :	1111111001100001;
	24 :	1111110101100100;
	23 :	0000000010111111;
	22 :	0000011110100110;
	21 :	0000001100111101;
	20 :	1111110111101001;
	19 :	0000100100000111;
	18 :	0000100110000111;
	17 :	0000001001110101;
	16 :	0000011110111101;
	15 :	1111100110011110;
	14 :	0000000010000111;
	13 :	0000010010001001;
	12 :	1111100110010010;
	11 :	1111101001110101;
	10 :	1111101101001000;
	9 :	1111100010110110;
	8 :	0000001000001001;
	7 :	1111011000001000;
	6 :	1110100011000010;
	5 :	1111110011111001;
	4 :	1111100000000100;
	3 :	1111100010000101;
	2 :	1111001110111111;
	1 :	1110110001101100;
	0 :	1111110111100100;
END;
