-- begin_signature
-- Weight_Memory(numWeight
-- 16
-- neuronNo
-- 0
-- layerNo
-- 2
-- addressWidth
-- 4
-- dataWidth
-- 16
-- weightFile
-- "w_2_0.mif")
-- end_signature
WIDTH=16;
DEPTH=16;

ADDRESS_RADIX=UNS;
DATA_RADIX=BIN;

CONTENT BEGIN
	15 :	0000010010011000;
	14 :	1111110110101000;
	13 :	1111111001010111;
	12 :	1111110010110001;
	11 :	0000000110010011;
	10 :	0000010010010001;
	9 :	0000010011110111;
	8 :	1111110111110101;
	7 :	0000000101001010;
	6 :	0001001101100000;
	5 :	0000000001001000;
	4 :	0000100111010011;
	3 :	0000011100001010;
	2 :	1111100111110011;
	1 :	0000000101010011;
	0 :	1111110110111110;
END;
