-- begin_signature
-- Weight_Memory(numWeight
-- 16
-- neuronNo
-- 7
-- layerNo
-- 2
-- addressWidth
-- 4
-- dataWidth
-- 16
-- weightFile
-- "C:/Users/Ohmen/Desktop/Desktop/School/Thesis/rtl/w_2_7.mif")
-- end_signature
WIDTH=16;
DEPTH=16;

ADDRESS_RADIX=UNS;
DATA_RADIX=BIN;

CONTENT BEGIN
	15 :	1111110010100101;
	14 :	1111100111001110;
	13 :	0000001111011010;
	12 :	1111110101110101;
	11 :	0000001000111101;
	10 :	0000001000000000;
	9 :	1111111001011100;
	8 :	1111111000010010;
	7 :	0000010011110100;
	6 :	1111100100000100;
	5 :	0000010101001010;
	4 :	1111110100001110;
	3 :	0000000110010100;
	2 :	1111111101100100;
	1 :	1111100110001100;
	0 :	1111101100000010;
END;
