-- begin_signature
-- Weight_Memory(numWeight
-- 64
-- neuronNo
-- 3
-- layerNo
-- 1
-- addressWidth
-- 6
-- dataWidth
-- 32
-- weightFile
-- "w_1_3.mif")
-- end_signature
WIDTH=32;
DEPTH=64;

ADDRESS_RADIX=UNS;
DATA_RADIX=BIN;

CONTENT BEGIN
	63 :	00000000000000000000000011111111;
	62 :	00000000000000000000000000000100;
	61 :	00000000000000000000000000000110;
	60 :	00000000000000000000000000000110;
	59 :	00000000000000000000000011111101;
	58 :	00000000000000000000000000000111;
	57 :	00000000000000000000000000010001;
	56 :	00000000000000000000000000000011;
	55 :	00000000000000000000000011111011;
	54 :	00000000000000000000000000000000;
	53 :	00000000000000000000000000000110;
	52 :	00000000000000000000000000010001;
	51 :	00000000000000000000000000001101;
	50 :	00000000000000000000000000000000;
	49 :	00000000000000000000000000001000;
	48 :	00000000000000000000000000000100;
	47 :	00000000000000000000000000001100;
	46 :	00000000000000000000000000000001;
	45 :	00000000000000000000000011111111;
	44 :	00000000000000000000000011111101;
	43 :	00000000000000000000000000001010;
	42 :	00000000000000000000000000001001;
	41 :	00000000000000000000000000001101;
	40 :	00000000000000000000000011111100;
	39 :	00000000000000000000000000000001;
	38 :	00000000000000000000000000001000;
	37 :	00000000000000000000000000000010;
	36 :	00000000000000000000000011111001;
	35 :	00000000000000000000000011111011;
	34 :	00000000000000000000000011111111;
	33 :	00000000000000000000000000010100;
	32 :	00000000000000000000000000000001;
	31 :	00000000000000000000000000001011;
	30 :	00000000000000000000000000001011;
	29 :	00000000000000000000000011111000;
	28 :	00000000000000000000000011110001;
	27 :	00000000000000000000000011101011;
	26 :	00000000000000000000000011111111;
	25 :	00000000000000000000000000000101;
	24 :	00000000000000000000000000000001;
	23 :	00000000000000000000000000000110;
	22 :	00000000000000000000000000000100;
	21 :	00000000000000000000000011110110;
	20 :	00000000000000000000000011111010;
	19 :	00000000000000000000000011111101;
	18 :	00000000000000000000000000000000;
	17 :	00000000000000000000000000000000;
	16 :	00000000000000000000000011111000;
	15 :	00000000000000000000000011111101;
	14 :	00000000000000000000000011110111;
	13 :	00000000000000000000000011110011;
	12 :	00000000000000000000000011111101;
	11 :	00000000000000000000000000000011;
	10 :	00000000000000000000000011111011;
	9 :	00000000000000000000000000000111;
	8 :	00000000000000000000000011111011;
	7 :	00000000000000000000000011111101;
	6 :	00000000000000000000000011111010;
	5 :	00000000000000000000000011110100;
	4 :	00000000000000000000000000000010;
	3 :	00000000000000000000000000000001;
	2 :	00000000000000000000000000000000;
	1 :	00000000000000000000000000001110;
	0 :	00000000000000000000000000000010;
END;
