-- begin_signature
-- Weight_Memory(numWeight
-- 30
-- neuronNo
-- 4
-- layerNo
-- 3
-- addressWidth
-- 5
-- dataWidth
-- 16
-- weightFile
-- "w_3_4.mif")
-- end_signature
WIDTH=16;
DEPTH=30;

ADDRESS_RADIX=UNS;
DATA_RADIX=BIN;

CONTENT BEGIN
	29 :	0000010011011101;
	28 :	0000010000100010;
	27 :	0000000101110001;
	26 :	1111101111000011;
	25 :	0000010010010001;
	24 :	1111100111010100;
	23 :	1111101111111100;
	22 :	0000001001110000;
	21 :	0000010110000011;
	20 :	0000001000111001;
	19 :	1111111001100010;
	18 :	1111110001001001;
	17 :	1111111011111000;
	16 :	1111111011011100;
	15 :	1111110011010101;
	14 :	1111101011011111;
	13 :	1111110010001110;
	12 :	0000001011010100;
	11 :	1111111010010111;
	10 :	1111111000011001;
	9 :	1111110001110111;
	8 :	0000000100100001;
	7 :	1111100111011010;
	6 :	0000000101111111;
	5 :	1111111101101100;
	4 :	0000001001111110;
	3 :	0000000100100001;
	2 :	1111101010001111;
	1 :	1111110111110111;
	0 :	1111111100000011;
END;
