-- begin_signature
-- Weight_Memory(numWeight
-- 45
-- neuronNo
-- 2
-- layerNo
-- 2
-- addressWidth
-- 6
-- dataWidth
-- 16
-- weightFile
-- "w_2_2.mif")
-- end_signature
WIDTH=16;
DEPTH=45;

ADDRESS_RADIX=UNS;
DATA_RADIX=BIN;

CONTENT BEGIN
	44 :	0000011001010100;
	43 :	0000011100000011;
	42 :	1111010010011010;
	41 :	1111101001000001;
	40 :	0000011110011000;
	39 :	0000001101101110;
	38 :	1111101001110101;
	37 :	1111111111011101;
	36 :	0000101010110101;
	35 :	0000011001011010;
	34 :	1111110011100110;
	33 :	0000010001011000;
	32 :	1111100100000000;
	31 :	0000101101100101;
	30 :	1111001001111110;
	29 :	0000011000010101;
	28 :	1111000010100000;
	27 :	0000001000001010;
	26 :	1111011010111000;
	25 :	1111001100100010;
	24 :	0000001110000010;
	23 :	0000011010010110;
	22 :	0000001000010000;
	21 :	1111100000110101;
	20 :	0000000101100101;
	19 :	1111100001000010;
	18 :	0000001100111110;
	17 :	0000011101110100;
	16 :	0000010011001100;
	15 :	1110010111110000;
	14 :	1111101011101100;
	13 :	0000111100100010;
	12 :	1111011001001001;
	11 :	1111100000010010;
	10 :	0000011110010000;
	9 :	1111011111011000;
	8 :	0000100000101101;
	7 :	1111110000001110;
	6 :	1111101000100111;
	5 :	0000001010101000;
	4 :	0000111010101010;
	3 :	1111111100010001;
	2 :	1111101111110111;
	1 :	1111100001011111;
	0 :	1111110011010010;
END;
