-- begin_signature
-- Weight_Memory(numWeight
-- 64
-- neuronNo
-- 4
-- layerNo
-- 1
-- addressWidth
-- 6
-- dataWidth
-- 16
-- weightFile
-- "C:/Users/Ohmen/Desktop/Desktop/School/Thesis/rtl/w_1_4.mif")
-- end_signature
WIDTH=16;
DEPTH=64;

ADDRESS_RADIX=UNS;
DATA_RADIX=BIN;

CONTENT BEGIN
	63 :	1111110111100111;
	62 :	0000000110111011;
	61 :	1111110001010100;
	60 :	1111110110110010;
	59 :	1111111100000010;
	58 :	0000000001100011;
	57 :	1111111100011000;
	56 :	0000000001100110;
	55 :	1111111000111010;
	54 :	1111111010011000;
	53 :	1111101001011111;
	52 :	1111011101011100;
	51 :	1111100010011000;
	50 :	1111110110110101;
	49 :	0000000000100001;
	48 :	1111111100110101;
	47 :	1111110111111011;
	46 :	0000000000110001;
	45 :	1111111011000000;
	44 :	1111111000101010;
	43 :	1111111011110110;
	42 :	1111101101110100;
	41 :	1111101101111101;
	40 :	0000000000100110;
	39 :	0000010010101000;
	38 :	0000000101011100;
	37 :	1111110001011110;
	36 :	0000001101111001;
	35 :	0000000110011011;
	34 :	1111101011010001;
	33 :	1111101101011011;
	32 :	1111111101101111;
	31 :	0000000011100010;
	30 :	1111110111011010;
	29 :	0000001001101101;
	28 :	0000001100110010;
	27 :	0000010001111100;
	26 :	1111110110101111;
	25 :	1111110100111100;
	24 :	1111111001111100;
	23 :	0000001010010101;
	22 :	0000000000110101;
	21 :	0000001101000100;
	20 :	1111110001001111;
	19 :	1111101011110000;
	18 :	0000001010011111;
	17 :	1111110100010000;
	16 :	1111111010001001;
	15 :	1111111011000000;
	14 :	0000001101101111;
	13 :	1111111110001011;
	12 :	1111101111111110;
	11 :	1111101111001100;
	10 :	0000001010010000;
	9 :	1111110101100110;
	8 :	1111111100110110;
	7 :	0000000101110011;
	6 :	1111111111111001;
	5 :	0000000100001001;
	4 :	1111111010011011;
	3 :	1111111111110000;
	2 :	0000000001100001;
	1 :	1111111010100000;
	0 :	1111111100010110;
END;
