-- begin_signature
-- Weight_Memory(numWeight
-- 10
-- neuronNo
-- 7
-- layerNo
-- 4
-- addressWidth
-- 4
-- dataWidth
-- 16
-- weightFile
-- "w_4_7.mif")
-- end_signature
WIDTH=16;
DEPTH=10;

ADDRESS_RADIX=UNS;
DATA_RADIX=BIN;

CONTENT BEGIN
	9 :	1111100010001101;
	8 :	0000101011100101;
	7 :	1111010000011110;
	6 :	1110111001010010;
	5 :	1111100101001101;
	4 :	0000001001111010;
	3 :	1111001110110010;
	2 :	0000000000101011;
	1 :	0000011111001111;
	0 :	0000001001011001;
END;
