-- begin_signature
-- Weight_Memory(numWeight
-- 16
-- neuronNo
-- 1
-- layerNo
-- 2
-- addressWidth
-- 4
-- dataWidth
-- 32
-- weightFile
-- "w_2_1.mif")
-- end_signature
WIDTH=32;
DEPTH=16;

ADDRESS_RADIX=UNS;
DATA_RADIX=BIN;

CONTENT BEGIN
	15 :	00000000000000000000000011110001;
	14 :	00000000000000000000000011110100;
	13 :	00000000000000000000000000000111;
	12 :	00000000000000000000000011110000;
	11 :	00000000000000000000000011111111;
	10 :	00000000000000000000000000000101;
	9 :	00000000000000000000000000000001;
	8 :	00000000000000000000000000001000;
	7 :	00000000000000000000000000000110;
	6 :	00000000000000000000000000001011;
	5 :	00000000000000000000000000000111;
	4 :	00000000000000000000000011111000;
	3 :	00000000000000000000000011101111;
	2 :	00000000000000000000000000001101;
	1 :	00000000000000000000000011101111;
	0 :	00000000000000000000000000000000;
END;
