-- begin_signature
-- Weight_Memory(numWeight
-- 45
-- neuronNo
-- 13
-- layerNo
-- 2
-- addressWidth
-- 6
-- dataWidth
-- 16
-- weightFile
-- "w_2_13.mif")
-- end_signature
WIDTH=16;
DEPTH=45;

ADDRESS_RADIX=UNS;
DATA_RADIX=BIN;

CONTENT BEGIN
	44 :	0000000000010101;
	43 :	1111111001110111;
	42 :	0000101000000010;
	41 :	0000101111001100;
	40 :	0000001001001111;
	39 :	1111001011101110;
	38 :	0000101101110000;
	37 :	1111101100010110;
	36 :	1111101010100010;
	35 :	1111000000111011;
	34 :	0000110000111011;
	33 :	0000100010000100;
	32 :	0000011100010110;
	31 :	1111000001001111;
	30 :	0000011111100110;
	29 :	1111101111001110;
	28 :	1111101110110111;
	27 :	1111110100000011;
	26 :	0000101100110000;
	25 :	1111110101001111;
	24 :	0000000110010101;
	23 :	1111100000011001;
	22 :	0000000010010111;
	21 :	0000001100111101;
	20 :	1111110000010010;
	19 :	0000000111111001;
	18 :	0000011110100101;
	17 :	1110111000111001;
	16 :	0000010110101000;
	15 :	1111101111100010;
	14 :	0000001111010101;
	13 :	1111111011101111;
	12 :	1111100110100110;
	11 :	0000100101000000;
	10 :	1111100000110010;
	9 :	0001000101010100;
	8 :	1111110010100111;
	7 :	0000010000011101;
	6 :	0000101000000101;
	5 :	1111110010100100;
	4 :	1111111110111011;
	3 :	0000100100110011;
	2 :	0000101001011100;
	1 :	0001010111001111;
	0 :	1111011001111111;
END;
