-- begin_signature
-- neuron(layerNo
-- 3
-- neuronNo
-- 6
-- numWeight
-- 37
-- dataWidth
-- 16
-- sigmoidSize
-- 5
-- weightIntWidth
-- 4
-- biasFile
-- "b_3_6.mif"
-- weightFile
-- "w_3_6.mif")
-- end_signature
WIDTH=32;
DEPTH=1;

ADDRESS_RADIX=UNS;
DATA_RADIX=BIN;

CONTENT BEGIN
	0 :	00000000000000001111110111111110;
END;
