-- begin_signature
-- neuron(layerNo
-- 2
-- neuronNo
-- 6
-- numWeight
-- 16
-- dataWidth
-- 16
-- weightIntWidth
-- 4
-- biasFile
-- "C:/Users/Ohmen/Desktop/Desktop/School/Thesis/rtl/b_2_6.mif"
-- weightFile
-- "C:/Users/Ohmen/Desktop/Desktop/School/Thesis/rtl/w_2_6.mif")
-- end_signature
WIDTH=32;
DEPTH=1;

ADDRESS_RADIX=UNS;
DATA_RADIX=BIN;

CONTENT BEGIN
	0 :	00000000000000001111101010010100;
END;
