-- begin_signature
-- Weight_Memory(numWeight
-- 16
-- neuronNo
-- 7
-- layerNo
-- 2
-- addressWidth
-- 4
-- dataWidth
-- 16
-- weightFile
-- "w_2_7.mif")
-- end_signature
WIDTH=16;
DEPTH=16;

ADDRESS_RADIX=UNS;
DATA_RADIX=BIN;

CONTENT BEGIN
	15 :	0000110011000101;
	14 :	0000100100100111;
	13 :	1111110010110010;
	12 :	1111100010011101;
	11 :	1111110010111111;
	10 :	0000111001101101;
	9 :	1111100010011111;
	8 :	1111111111110111;
	7 :	1111010010100101;
	6 :	0000110010100100;
	5 :	0000100001001000;
	4 :	1111001111010010;
	3 :	1111110000001011;
	2 :	1111100001000111;
	1 :	0000101000100001;
	0 :	0000100101011100;
END;
