-- begin_signature
-- Weight_Memory(numWeight
-- 45
-- neuronNo
-- 29
-- layerNo
-- 2
-- addressWidth
-- 6
-- dataWidth
-- 16
-- weightFile
-- "w_2_29.mif")
-- end_signature
WIDTH=16;
DEPTH=45;

ADDRESS_RADIX=UNS;
DATA_RADIX=BIN;

CONTENT BEGIN
	44 :	1111111010111010;
	43 :	0000100001011110;
	42 :	0000001111000100;
	41 :	1110111011000100;
	40 :	0000011011010010;
	39 :	0000010001100000;
	38 :	0000110110001011;
	37 :	0000001001011100;
	36 :	1111110110010000;
	35 :	1111100000110001;
	34 :	1110111101000000;
	33 :	0000010011010011;
	32 :	0000001110110110;
	31 :	1111111100001101;
	30 :	1111000011110010;
	29 :	1111101100111100;
	28 :	0000110110111110;
	27 :	0000110100111010;
	26 :	0000000010110100;
	25 :	1111101000111001;
	24 :	1111010101001001;
	23 :	1110111110011100;
	22 :	1111110001011000;
	21 :	1111110101010000;
	20 :	1111100100000000;
	19 :	0000011010110110;
	18 :	0000010100010111;
	17 :	0000010100001100;
	16 :	0000000010111110;
	15 :	0000110010110110;
	14 :	1111101010011111;
	13 :	1111001011001000;
	12 :	0000001110101000;
	11 :	0000010111001110;
	10 :	0000010010000011;
	9 :	0000011110111101;
	8 :	1111111110011000;
	7 :	1111010100111001;
	6 :	0000001110111011;
	5 :	0000100001000011;
	4 :	1111101010111111;
	3 :	0000001010000001;
	2 :	1111011111110000;
	1 :	1111100010110100;
	0 :	0000100010111011;
END;
