-- begin_signature
-- Weight_Memory(numWeight
-- 45
-- neuronNo
-- 35
-- layerNo
-- 2
-- addressWidth
-- 6
-- dataWidth
-- 16
-- weightFile
-- "w_2_35.mif")
-- end_signature
WIDTH=16;
DEPTH=45;

ADDRESS_RADIX=UNS;
DATA_RADIX=BIN;

CONTENT BEGIN
	44 :	0000011001001101;
	43 :	1111101110010010;
	42 :	1111110101001111;
	41 :	0000011001001010;
	40 :	0000101011001010;
	39 :	0000001100000111;
	38 :	1110110000101000;
	37 :	1110110100010100;
	36 :	0000010101100000;
	35 :	0000110110011110;
	34 :	1111111110100001;
	33 :	0000001111010010;
	32 :	1110011100001110;
	31 :	1111110010110001;
	30 :	0000010101011101;
	29 :	0001000000001101;
	28 :	0000001000001000;
	27 :	0000011100010111;
	26 :	1111101111011100;
	25 :	1110111110100101;
	24 :	0000000101110100;
	23 :	0001000011111111;
	22 :	0000000100001100;
	21 :	1111111000100101;
	20 :	0000010000100000;
	19 :	0000011000111000;
	18 :	1111101100101110;
	17 :	1111010111101011;
	16 :	0000011001000000;
	15 :	1110100010100001;
	14 :	0000100111001011;
	13 :	0000101000011111;
	12 :	1111110011011111;
	11 :	1110100011110111;
	10 :	0000000100101001;
	9 :	1111111000010111;
	8 :	0000101100000100;
	7 :	1111101110100000;
	6 :	1111000001100111;
	5 :	1111110110000100;
	4 :	1111101000101101;
	3 :	0000010011010110;
	2 :	0000000101001110;
	1 :	0000011000111110;
	0 :	1111110110110011;
END;
