-- begin_signature
-- Weight_Memory(numWeight
-- 30
-- neuronNo
-- 16
-- layerNo
-- 2
-- addressWidth
-- 5
-- dataWidth
-- 16
-- weightFile
-- "w_2_16.mif")
-- end_signature
WIDTH=16;
DEPTH=30;

ADDRESS_RADIX=UNS;
DATA_RADIX=BIN;

CONTENT BEGIN
	29 :	0000011111110111;
	28 :	1111110111010101;
	27 :	1111101011010101;
	26 :	1111011111001101;
	25 :	0000001001101010;
	24 :	1111110010001100;
	23 :	0000000100000011;
	22 :	0000001000111000;
	21 :	0000101000011001;
	20 :	1111110011111110;
	19 :	1111110101001010;
	18 :	0000100101100011;
	17 :	0000001101000111;
	16 :	1111101000111011;
	15 :	0000100000001111;
	14 :	0000001010011001;
	13 :	0000000000011010;
	12 :	0000000110010010;
	11 :	0000010101001110;
	10 :	1111101011000110;
	9 :	1111101111100111;
	8 :	0000000000011010;
	7 :	1111111110000101;
	6 :	0000000011101010;
	5 :	1111111011111100;
	4 :	0000011101001001;
	3 :	0000011010111001;
	2 :	1111111101111111;
	1 :	1111101000111001;
	0 :	1111101001011110;
END;
