-- begin_signature
-- Weight_Memory(numWeight
-- 45
-- neuronNo
-- 24
-- layerNo
-- 2
-- addressWidth
-- 6
-- dataWidth
-- 16
-- weightFile
-- "w_2_24.mif")
-- end_signature
WIDTH=16;
DEPTH=45;

ADDRESS_RADIX=UNS;
DATA_RADIX=BIN;

CONTENT BEGIN
	44 :	0000000111001010;
	43 :	1111001110100100;
	42 :	1111011101100011;
	41 :	0000100101100111;
	40 :	0000010100001000;
	39 :	0000100100110110;
	38 :	1110100001101001;
	37 :	1110111010110111;
	36 :	1111100111111001;
	35 :	0000011111111000;
	34 :	0000000100001110;
	33 :	1111101011101101;
	32 :	1110111101100010;
	31 :	0000000111011001;
	30 :	0000110101011001;
	29 :	0000010101111111;
	28 :	0000001000101010;
	27 :	0000000011111100;
	26 :	1111101000011000;
	25 :	1111101000100101;
	24 :	0000011011001110;
	23 :	0001010001001101;
	22 :	0000101011001111;
	21 :	1111111101001011;
	20 :	0000011110100111;
	19 :	0000100100101010;
	18 :	1111101110000111;
	17 :	1111100101101000;
	16 :	1111100000001110;
	15 :	1110110010100100;
	14 :	0001000010100101;
	13 :	0000111101000000;
	12 :	1111111001100110;
	11 :	1111100010000100;
	10 :	0000000000100100;
	9 :	1111110110001111;
	8 :	0000010100101101;
	7 :	1111110010001110;
	6 :	1111010000011000;
	5 :	1111101111000010;
	4 :	1111100010011101;
	3 :	0000000110011101;
	2 :	0000101111110010;
	1 :	0000110100000111;
	0 :	0000000111011111;
END;
