-- begin_signature
-- Weight_Memory(numWeight
-- 64
-- neuronNo
-- 13
-- layerNo
-- 1
-- addressWidth
-- 6
-- dataWidth
-- 16
-- weightFile
-- "w_1_13.mif")
-- end_signature
WIDTH=16;
DEPTH=64;

ADDRESS_RADIX=UNS;
DATA_RADIX=BIN;

CONTENT BEGIN
	63 :	1111010110100000;
	62 :	1111101001000100;
	61 :	1111001111010101;
	60 :	1111101010110010;
	59 :	1111110100111000;
	58 :	1111010101100010;
	57 :	1111000011110101;
	56 :	1111110000110001;
	55 :	1111100111111000;
	54 :	1111011011111100;
	53 :	1111101111111001;
	52 :	0000010001101101;
	51 :	1111111110100110;
	50 :	1111101100001110;
	49 :	0000000011111100;
	48 :	1111111011000110;
	47 :	0000001001010000;
	46 :	0000001001110010;
	45 :	0000000000101010;
	44 :	0000010100011100;
	43 :	0000001011100111;
	42 :	0000010100001010;
	41 :	0001001001001000;
	40 :	0000001111100100;
	39 :	0000001110001000;
	38 :	0001000100000111;
	37 :	0000010010110011;
	36 :	1111010010010000;
	35 :	1111011110001100;
	34 :	0000010111111100;
	33 :	0001000001000111;
	32 :	1111110011000100;
	31 :	0000001011010101;
	30 :	0001101010011110;
	29 :	0000010111101010;
	28 :	1111000110100010;
	27 :	1111000100101001;
	26 :	0000100001111100;
	25 :	0000011000001111;
	24 :	0000011001111101;
	23 :	0000010110001010;
	22 :	0000010101101000;
	21 :	0000101100100110;
	20 :	1111010011010100;
	19 :	0000011110001101;
	18 :	0000001110010100;
	17 :	1111110110100101;
	16 :	1111101101110100;
	15 :	1111111001001010;
	14 :	1111100000101000;
	13 :	1111101101111100;
	12 :	0000001101001001;
	11 :	1111111110101011;
	10 :	1111101001011001;
	9 :	1111010100011111;
	8 :	1111110101110100;
	7 :	0000100001111011;
	6 :	1111001110001011;
	5 :	1110011110010100;
	4 :	1111111111001001;
	3 :	1111110000101111;
	2 :	1111010000011001;
	1 :	1111010101100000;
	0 :	0000001000010010;
END;
