-- begin_signature
-- neuron(layerNo
-- 3
-- neuronNo
-- 7
-- numWeight
-- 30
-- dataWidth
-- 16
-- weightIntWidth
-- 4
-- biasFile
-- "b_4_7.mif"
-- weightFile
-- "w_4_7.mif")
-- end_signature
WIDTH=32;
DEPTH=1;

ADDRESS_RADIX=UNS;
DATA_RADIX=BIN;

CONTENT BEGIN
	0 :	00000000000000000000000101100101;
END;
