-- begin_signature
-- Weight_Memory(numWeight
-- 64
-- neuronNo
-- 15
-- layerNo
-- 1
-- addressWidth
-- 6
-- dataWidth
-- 32
-- weightFile
-- "w_1_15.mif")
-- end_signature
WIDTH=32;
DEPTH=64;

ADDRESS_RADIX=UNS;
DATA_RADIX=BIN;

CONTENT BEGIN
	63 :	00000000000000000000000000001110;
	62 :	00000000000000000000000000001011;
	61 :	00000000000000000000000000000111;
	60 :	00000000000000000000000000000011;
	59 :	00000000000000000000000011110111;
	58 :	00000000000000000000000011111111;
	57 :	00000000000000000000000000000000;
	56 :	00000000000000000000000000000100;
	55 :	00000000000000000000000000001011;
	54 :	00000000000000000000000000000001;
	53 :	00000000000000000000000011111111;
	52 :	00000000000000000000000000001101;
	51 :	00000000000000000000000000000100;
	50 :	00000000000000000000000011111001;
	49 :	00000000000000000000000000000010;
	48 :	00000000000000000000000000000100;
	47 :	00000000000000000000000000001001;
	46 :	00000000000000000000000000000000;
	45 :	00000000000000000000000011111010;
	44 :	00000000000000000000000000000011;
	43 :	00000000000000000000000000010001;
	42 :	00000000000000000000000000000010;
	41 :	00000000000000000000000000000000;
	40 :	00000000000000000000000000000100;
	39 :	00000000000000000000000011111101;
	38 :	00000000000000000000000000000101;
	37 :	00000000000000000000000000000100;
	36 :	00000000000000000000000011111110;
	35 :	00000000000000000000000011111001;
	34 :	00000000000000000000000000000010;
	33 :	00000000000000000000000000001100;
	32 :	00000000000000000000000011111101;
	31 :	00000000000000000000000000001010;
	30 :	00000000000000000000000000001110;
	29 :	00000000000000000000000000000001;
	28 :	00000000000000000000000011111011;
	27 :	00000000000000000000000011110100;
	26 :	00000000000000000000000000000000;
	25 :	00000000000000000000000000000100;
	24 :	00000000000000000000000000000000;
	23 :	00000000000000000000000000000100;
	22 :	00000000000000000000000000000001;
	21 :	00000000000000000000000011111001;
	20 :	00000000000000000000000000000110;
	19 :	00000000000000000000000000001101;
	18 :	00000000000000000000000000000001;
	17 :	00000000000000000000000011111101;
	16 :	00000000000000000000000011111000;
	15 :	00000000000000000000000011111100;
	14 :	00000000000000000000000011111001;
	13 :	00000000000000000000000011111100;
	12 :	00000000000000000000000000000000;
	11 :	00000000000000000000000011111111;
	10 :	00000000000000000000000011111001;
	9 :	00000000000000000000000000000000;
	8 :	00000000000000000000000011111100;
	7 :	00000000000000000000000000000001;
	6 :	00000000000000000000000011111011;
	5 :	00000000000000000000000011110010;
	4 :	00000000000000000000000011111010;
	3 :	00000000000000000000000011111111;
	2 :	00000000000000000000000011111010;
	1 :	00000000000000000000000011111110;
	0 :	00000000000000000000000000000001;
END;
