-- begin_signature
-- Weight_Memory(numWeight
-- 37
-- neuronNo
-- 8
-- layerNo
-- 3
-- addressWidth
-- 6
-- dataWidth
-- 16
-- weightFile
-- "w_3_8.mif")
-- end_signature
WIDTH=16;
DEPTH=37;

ADDRESS_RADIX=UNS;
DATA_RADIX=BIN;

CONTENT BEGIN
	36 :	0000101100010011;
	35 :	1111111001011100;
	34 :	1110110100001100;
	33 :	0000101111010101;
	32 :	1111011001010001;
	31 :	1110010100101001;
	30 :	1111000100010010;
	29 :	0000011110110011;
	28 :	1111010010001011;
	27 :	0000011010001101;
	26 :	0000010110110010;
	25 :	0000101000101101;
	24 :	1111000001111101;
	23 :	0000101100101001;
	22 :	0000000001011111;
	21 :	1111010001100101;
	20 :	1111010110101001;
	19 :	1110100110111111;
	18 :	1101111100001100;
	17 :	1111010000101000;
	16 :	0000010100101011;
	15 :	0000001111010001;
	14 :	0000110100000110;
	13 :	1111110110111001;
	12 :	1111011111100010;
	11 :	1110111110010101;
	10 :	0000000111000011;
	9 :	0000001101010110;
	8 :	0000001110011110;
	7 :	0000110011010010;
	6 :	0000100010001100;
	5 :	1110101101110001;
	4 :	1111111000011111;
	3 :	1110111110011010;
	2 :	0000110111111010;
	1 :	1111100110000000;
	0 :	1111011001100101;
END;
