-- begin_signature
-- Weight_Memory(numWeight
-- 30
-- neuronNo
-- 19
-- layerNo
-- 2
-- addressWidth
-- 5
-- dataWidth
-- 16
-- weightFile
-- "w_2_19.mif")
-- end_signature
WIDTH=16;
DEPTH=30;

ADDRESS_RADIX=UNS;
DATA_RADIX=BIN;

CONTENT BEGIN
	29 :	1111110011000010;
	28 :	1111111100000010;
	27 :	0000011101000101;
	26 :	0000011100110111;
	25 :	0000010001001000;
	24 :	1111111001101101;
	23 :	0000001000111100;
	22 :	0000000011010010;
	21 :	1111111010010111;
	20 :	1111110011100011;
	19 :	0000011010011011;
	18 :	1111111001100111;
	17 :	0000001101100011;
	16 :	0000011001101010;
	15 :	1111110010000111;
	14 :	1111101101001111;
	13 :	0000001100001011;
	12 :	1111110000010001;
	11 :	1111111110100110;
	10 :	1111101011001010;
	9 :	0000000000010010;
	8 :	0000001000000101;
	7 :	1111101100111100;
	6 :	0000010001001110;
	5 :	1111100111110100;
	4 :	0000010010111000;
	3 :	0000010010110110;
	2 :	1111011110111100;
	1 :	0000010111001011;
	0 :	0000001010101111;
END;
