-- begin_signature
-- Weight_Memory(numWeight
-- 30
-- neuronNo
-- 11
-- layerNo
-- 2
-- addressWidth
-- 5
-- dataWidth
-- 16
-- weightFile
-- "w_2_11.mif")
-- end_signature
WIDTH=16;
DEPTH=30;

ADDRESS_RADIX=UNS;
DATA_RADIX=BIN;

CONTENT BEGIN
	29 :	1111111001000110;
	28 :	1111101111111000;
	27 :	0000001000111000;
	26 :	1111110100001010;
	25 :	0000001001111000;
	24 :	0000100110000111;
	23 :	0000100011011010;
	22 :	1111111101110100;
	21 :	1111110101011011;
	20 :	0000100010101110;
	19 :	1111011101111011;
	18 :	1111100010101010;
	17 :	1111011010011011;
	16 :	1111110111111101;
	15 :	0000001010100011;
	14 :	1111111100010100;
	13 :	0000010100010110;
	12 :	0000000110110110;
	11 :	1111100011100010;
	10 :	0000000001001000;
	9 :	1111111111000011;
	8 :	0000000111001001;
	7 :	0000001001010010;
	6 :	0000000111100000;
	5 :	0000010001010011;
	4 :	1111111000100011;
	3 :	1111110010001000;
	2 :	1111111110100000;
	1 :	0000100010111001;
	0 :	0000011011000100;
END;
