-- begin_signature
-- Weight_Memory(numWeight
-- 16
-- neuronNo
-- 4
-- layerNo
-- 2
-- addressWidth
-- 4
-- dataWidth
-- 16
-- weightFile
-- "w_2_4.mif")
-- end_signature
WIDTH=16;
DEPTH=16;

ADDRESS_RADIX=UNS;
DATA_RADIX=BIN;

CONTENT BEGIN
	15 :	0000010000110000;
	14 :	0000101011110010;
	13 :	0000010010001101;
	12 :	0000010011001110;
	11 :	0000101011110001;
	10 :	1111110101000010;
	9 :	1111101101100001;
	8 :	1111101001111100;
	7 :	0000011100111010;
	6 :	0000100011111110;
	5 :	1111101001010110;
	4 :	0000001000001000;
	3 :	0000011110110010;
	2 :	0000101101011111;
	1 :	1111110101010010;
	0 :	1111100000101101;
END;
