-- begin_signature
-- Weight_Memory(numWeight
-- 30
-- neuronNo
-- 8
-- layerNo
-- 2
-- addressWidth
-- 5
-- dataWidth
-- 16
-- weightFile
-- "w_2_8.mif")
-- end_signature
WIDTH=16;
DEPTH=30;

ADDRESS_RADIX=UNS;
DATA_RADIX=BIN;

CONTENT BEGIN
	29 :	0000001100101001;
	28 :	1111101000010100;
	27 :	0000000111010111;
	26 :	0000011001100101;
	25 :	1111011010000101;
	24 :	1111101110010011;
	23 :	0000001100100110;
	22 :	1111110111011101;
	21 :	0000000001101001;
	20 :	0000100000100000;
	19 :	0000011110000110;
	18 :	1111101110100101;
	17 :	1111111011011001;
	16 :	0000001001111001;
	15 :	0000001110111010;
	14 :	0000000010011101;
	13 :	0000000100010010;
	12 :	0000001010010110;
	11 :	0000000111011100;
	10 :	0000001110110110;
	9 :	0000001101101100;
	8 :	0000000110000011;
	7 :	0000001011001100;
	6 :	0000100100011011;
	5 :	0000001110001111;
	4 :	0000000110001100;
	3 :	0000001110110101;
	2 :	1111110100010110;
	1 :	0000010001000001;
	0 :	0000010100110010;
END;
