-- begin_signature
-- Weight_Memory(numWeight
-- 64
-- neuronNo
-- 28
-- layerNo
-- 1
-- addressWidth
-- 6
-- dataWidth
-- 16
-- weightFile
-- "w_1_28.mif")
-- end_signature
WIDTH=16;
DEPTH=64;

ADDRESS_RADIX=UNS;
DATA_RADIX=BIN;

CONTENT BEGIN
	63 :	1111111000010000;
	62 :	0000101000001100;
	61 :	0000000000110000;
	60 :	0000001110111001;
	59 :	1111111011010100;
	58 :	0000101000011111;
	57 :	0001010010011110;
	56 :	0000010111011101;
	55 :	1111100010110001;
	54 :	1111111011010111;
	53 :	0000010010011001;
	52 :	0001001100101001;
	51 :	0000101110100110;
	50 :	0000001011010101;
	49 :	0000011110010111;
	48 :	0000001011100101;
	47 :	0001000011001101;
	46 :	0000001111010011;
	45 :	1111111101110100;
	44 :	1111101111001111;
	43 :	0000010010101111;
	42 :	0000000101110000;
	41 :	0000101110010111;
	40 :	0000010000000100;
	39 :	0000001011010100;
	38 :	0000101101111111;
	37 :	0000001111001101;
	36 :	1111101110100110;
	35 :	1111000111001001;
	34 :	0000001001010000;
	33 :	0001011110001110;
	32 :	1111111001101101;
	31 :	0000010001000101;
	30 :	1111110101000101;
	29 :	1111010000000011;
	28 :	1111010011011111;
	27 :	1110111010011011;
	26 :	1111110010101101;
	25 :	0000110001100001;
	24 :	1111100111001001;
	23 :	0000000111101001;
	22 :	1110110011111111;
	21 :	1110100001100010;
	20 :	1110111010100101;
	19 :	1111110101010111;
	18 :	0000001000010111;
	17 :	1111111111101010;
	16 :	1111010111000011;
	15 :	1111100011000010;
	14 :	1111101111010010;
	13 :	1111100100101111;
	12 :	0000011001100011;
	11 :	0000001100111110;
	10 :	0000001010011000;
	9 :	0000001101001000;
	8 :	1111101111011010;
	7 :	1111001100100111;
	6 :	0000100101000111;
	5 :	0000010101101101;
	4 :	0000011101111101;
	3 :	1111110001100000;
	2 :	0000100001100110;
	1 :	0001010001000101;
	0 :	1111110110011010;
END;
