-- begin_signature
-- neuron(layerNo
-- 3
-- neuronNo
-- 8
-- numWeight
-- 10
-- dataWidth
-- 16
-- weightIntWidth
-- 4
-- biasFile
-- "C:/Users/Ohmen/Desktop/Desktop/School/Thesis/rtl/b_3_8.mif"
-- weightFile
-- "C:/Users/Ohmen/Desktop/Desktop/School/Thesis/rtl/w_3_8.mif")
-- end_signature
WIDTH=32;
DEPTH=1;

ADDRESS_RADIX=UNS;
DATA_RADIX=BIN;

CONTENT BEGIN
	0 :	00000000000000000000011111001101;
END;
