-- begin_signature
-- Weight_Memory(numWeight
-- 16
-- neuronNo
-- 5
-- layerNo
-- 2
-- addressWidth
-- 4
-- dataWidth
-- 32
-- weightFile
-- "w_2_5.mif")
-- end_signature
WIDTH=32;
DEPTH=16;

ADDRESS_RADIX=UNS;
DATA_RADIX=BIN;

CONTENT BEGIN
	15 :	00000000000000000000000011110111;
	14 :	00000000000000000000000000000100;
	13 :	00000000000000000000000000000000;
	12 :	00000000000000000000000011111100;
	11 :	00000000000000000000000011111101;
	10 :	00000000000000000000000000001000;
	9 :	00000000000000000000000000010001;
	8 :	00000000000000000000000011111000;
	7 :	00000000000000000000000000000001;
	6 :	00000000000000000000000011101010;
	5 :	00000000000000000000000000000101;
	4 :	00000000000000000000000000000011;
	3 :	00000000000000000000000000000101;
	2 :	00000000000000000000000011110110;
	1 :	00000000000000000000000000001011;
	0 :	00000000000000000000000000000011;
END;
