-- begin_signature
-- Weight_Memory(numWeight
-- 30
-- neuronNo
-- 17
-- layerNo
-- 2
-- addressWidth
-- 5
-- dataWidth
-- 16
-- weightFile
-- "w_2_17.mif")
-- end_signature
WIDTH=16;
DEPTH=30;

ADDRESS_RADIX=UNS;
DATA_RADIX=BIN;

CONTENT BEGIN
	29 :	0000011110110111;
	28 :	1111101101100111;
	27 :	1111110110010011;
	26 :	1111110010110000;
	25 :	0000000110101101;
	24 :	1111011111101011;
	23 :	0000001101010101;
	22 :	1111111101000101;
	21 :	0000010010000101;
	20 :	0000011000010000;
	19 :	1111100100010011;
	18 :	0000000000110011;
	17 :	1111110110111011;
	16 :	0000011010010110;
	15 :	0000010010010110;
	14 :	1111111010111010;
	13 :	0000010011000011;
	12 :	1111111010001111;
	11 :	0000011111000111;
	10 :	0000010000010000;
	9 :	0000001111000100;
	8 :	1111110000010101;
	7 :	1111111110010100;
	6 :	0000000011111000;
	5 :	0000100110101100;
	4 :	0000010101011101;
	3 :	0000001100101111;
	2 :	0000000111010111;
	1 :	1111110001001011;
	0 :	1111110010100111;
END;
