-- begin_signature
-- Weight_Memory(numWeight
-- 64
-- neuronNo
-- 9
-- layerNo
-- 1
-- addressWidth
-- 6
-- dataWidth
-- 16
-- weightFile
-- "C:/Users/Ohmen/Desktop/Desktop/School/Thesis/rtl/w_1_9.mif")
-- end_signature
WIDTH=16;
DEPTH=64;

ADDRESS_RADIX=UNS;
DATA_RADIX=BIN;

CONTENT BEGIN
	63 :	0000000110011100;
	62 :	1111111110101010;
	61 :	0000000000110110;
	60 :	0000000100010001;
	59 :	0000000011000010;
	58 :	0000001100110101;
	57 :	0000000000011110;
	56 :	1111111011000000;
	55 :	1111110111001111;
	54 :	0000000001110111;
	53 :	0000000011001111;
	52 :	0000000101111101;
	51 :	0000000010110110;
	50 :	1111111000111111;
	49 :	1111110101011101;
	48 :	1111111110011100;
	47 :	0000001001001100;
	46 :	1111111101000101;
	45 :	0000001000100111;
	44 :	1111110011001011;
	43 :	1111111011110001;
	42 :	0000000100000001;
	41 :	0000001001111110;
	40 :	1111111111100011;
	39 :	1111111111011001;
	38 :	1111111100010011;
	37 :	0000000000111010;
	36 :	0000000011001001;
	35 :	1111111001000000;
	34 :	0000000101100101;
	33 :	1111110101001100;
	32 :	0000000010001110;
	31 :	0000000110011011;
	30 :	1111111111000010;
	29 :	0000000001001000;
	28 :	1111111111100010;
	27 :	1111111011101110;
	26 :	0000000010111001;
	25 :	0000000000101010;
	24 :	1111111100011010;
	23 :	0000000111001001;
	22 :	0000000100111001;
	21 :	1111110110010100;
	20 :	0000000000010010;
	19 :	1111111110111011;
	18 :	1111111111101011;
	17 :	0000000101000100;
	16 :	1111111001101010;
	15 :	0000000100000010;
	14 :	1111111100000100;
	13 :	1111111001111110;
	12 :	1111111011100000;
	11 :	0000000011000110;
	10 :	1111111101011110;
	9 :	0000001001101010;
	8 :	1111111110111010;
	7 :	1111111001011000;
	6 :	0000000111100000;
	5 :	0000000010000011;
	4 :	1111110101000011;
	3 :	1111111111001010;
	2 :	0000000000111100;
	1 :	0000000010000000;
	0 :	1111111011100100;
END;
