-- begin_signature
-- Weight_Memory(numWeight
-- 30
-- neuronNo
-- 13
-- layerNo
-- 2
-- addressWidth
-- 5
-- dataWidth
-- 16
-- weightFile
-- "w_2_13.mif")
-- end_signature
WIDTH=16;
DEPTH=30;

ADDRESS_RADIX=UNS;
DATA_RADIX=BIN;

CONTENT BEGIN
	29 :	0000000000110100;
	28 :	0000011101101001;
	27 :	0000010101101010;
	26 :	1111111111010001;
	25 :	0000010100000001;
	24 :	1111110101110110;
	23 :	0000000110101000;
	22 :	0000010001101001;
	21 :	1111100100110111;
	20 :	1111101000111110;
	19 :	0000101001010011;
	18 :	1111111110111111;
	17 :	0000010000111011;
	16 :	0000000111011011;
	15 :	1111110010100111;
	14 :	0000010010011000;
	13 :	0000000110110100;
	12 :	1111110011010011;
	11 :	1111110111100100;
	10 :	0000010011101010;
	9 :	0000001110001110;
	8 :	0000000000001111;
	7 :	0000000100110000;
	6 :	0000001000001110;
	5 :	0000000011101110;
	4 :	0000000010000010;
	3 :	1111110010101000;
	2 :	0000000100001000;
	1 :	0000011101001101;
	0 :	1111111010111001;
END;
