-- begin_signature
-- neuron(layerNo
-- 4
-- neuronNo
-- 8
-- numWeight
-- 10
-- dataWidth
-- 16
-- weightIntWidth
-- 4
-- biasFile
-- "b_4_8.mif"
-- weightFile
-- "w_4_8.mif")
-- end_signature
WIDTH=32;
DEPTH=1;

ADDRESS_RADIX=UNS;
DATA_RADIX=BIN;

CONTENT BEGIN
	0 :	00000000000000000000000001011000;
END;
