-- begin_signature
-- Weight_Memory(numWeight
-- 64
-- neuronNo
-- 19
-- layerNo
-- 1
-- addressWidth
-- 6
-- dataWidth
-- 16
-- weightFile
-- "w_1_19.mif")
-- end_signature
WIDTH=16;
DEPTH=64;

ADDRESS_RADIX=UNS;
DATA_RADIX=BIN;

CONTENT BEGIN
	63 :	0001001011111101;
	62 :	0000110010001110;
	61 :	0000010111010001;
	60 :	0000011110010000;
	59 :	0000001000001010;
	58 :	1111101011101100;
	57 :	0000000010101101;
	56 :	0000100010100100;
	55 :	0000011010100111;
	54 :	1111110100000110;
	53 :	0000010111000100;
	52 :	0001010010011000;
	51 :	0000110110011111;
	50 :	0000010111010101;
	49 :	0000000111110010;
	48 :	0000010001010011;
	47 :	0000110000011010;
	46 :	1111011101110011;
	45 :	1110111101011110;
	44 :	0000010100100110;
	43 :	0001010101011011;
	42 :	0000110111101100;
	41 :	0000011011011011;
	40 :	0000010100010101;
	39 :	1111110011100101;
	38 :	1111110101110100;
	37 :	1111011110011010;
	36 :	1111111010011010;
	35 :	1111010100100101;
	34 :	0000001110011001;
	33 :	0001000111010110;
	32 :	0000000001010111;
	31 :	0000011100000100;
	30 :	0000101110011011;
	29 :	1111101111001001;
	28 :	1111001011110101;
	27 :	1110110000110111;
	26 :	1111111110000111;
	25 :	0000011100010100;
	24 :	1111111011100010;
	23 :	0000100000101110;
	22 :	0000010110101101;
	21 :	1111101011110100;
	20 :	1111101100110011;
	19 :	0000010010001110;
	18 :	1111111111000011;
	17 :	1111111101110000;
	16 :	1111111101000101;
	15 :	1111111010010111;
	14 :	1111101101010001;
	13 :	1111011001110011;
	12 :	1111110100111100;
	11 :	0000001000001010;
	10 :	1111101110100100;
	9 :	0000011001110101;
	8 :	1111101111011000;
	7 :	0000000000001010;
	6 :	1111010100000001;
	5 :	1111000101000101;
	4 :	1111101001000101;
	3 :	1111110100100100;
	2 :	1111111011001101;
	1 :	1111111011101000;
	0 :	1111110100000010;
END;
