-- begin_signature
-- Weight_Memory(numWeight
-- 30
-- neuronNo
-- 1
-- layerNo
-- 2
-- addressWidth
-- 5
-- dataWidth
-- 16
-- weightFile
-- "w_2_1.mif")
-- end_signature
WIDTH=16;
DEPTH=30;

ADDRESS_RADIX=UNS;
DATA_RADIX=BIN;

CONTENT BEGIN
	29 :	1111111011010011;
	28 :	0000000000101111;
	27 :	0000011110111100;
	26 :	1111011111010101;
	25 :	0000011000000110;
	24 :	0000000001111100;
	23 :	0000001110011110;
	22 :	1111111001011111;
	21 :	1111110010011000;
	20 :	0000001001110100;
	19 :	1111011110001000;
	18 :	1111111001010010;
	17 :	1111111000011111;
	16 :	0000000001101101;
	15 :	1111111011010000;
	14 :	0000001100101111;
	13 :	0000011011110101;
	12 :	0000010000110111;
	11 :	1111101110011101;
	10 :	0000001000101001;
	9 :	1111111111001001;
	8 :	0000011011000011;
	7 :	1111100111100001;
	6 :	1111110001101011;
	5 :	0000010100011001;
	4 :	0000011101101111;
	3 :	1111111011101111;
	2 :	1111111010001100;
	1 :	0000010010111000;
	0 :	0000011001111101;
END;
