-- begin_signature
-- Weight_Memory(numWeight
-- 45
-- neuronNo
-- 4
-- layerNo
-- 2
-- addressWidth
-- 6
-- dataWidth
-- 16
-- weightFile
-- "w_2_4.mif")
-- end_signature
WIDTH=16;
DEPTH=45;

ADDRESS_RADIX=UNS;
DATA_RADIX=BIN;

CONTENT BEGIN
	44 :	1111010010101101;
	43 :	1111111001110001;
	42 :	0000100111011011;
	41 :	0000011010101001;
	40 :	1111111100011101;
	39 :	0000001010001011;
	38 :	0000110101100110;
	37 :	0001001100000000;
	36 :	1111110101000001;
	35 :	1111011101100110;
	34 :	0000001001111111;
	33 :	1111100001100010;
	32 :	0000110111010010;
	31 :	0000000101101101;
	30 :	0000001011010110;
	29 :	1111101000100010;
	28 :	1111011100001100;
	27 :	1111010100010100;
	26 :	0000100011101010;
	25 :	0000101111100100;
	24 :	0000100011001100;
	23 :	1111001111011101;
	22 :	1111010100011111;
	21 :	0000101010010011;
	20 :	0000001011011111;
	19 :	1111000100110001;
	18 :	1111110010110001;
	17 :	0000100100010111;
	16 :	1111101111001010;
	15 :	0000110101110111;
	14 :	1111001100111000;
	13 :	1110110011010010;
	12 :	0000010101101000;
	11 :	0000010000110111;
	10 :	1111110101111011;
	9 :	1111110111000001;
	8 :	0000000100000110;
	7 :	0000111011001110;
	6 :	0000100111010111;
	5 :	0000000011011000;
	4 :	0000010000111111;
	3 :	0000000101110000;
	2 :	1111010001000110;
	1 :	0000001010000010;
	0 :	1111101100001001;
END;
