-- begin_signature
-- Weight_Memory(numWeight
-- 64
-- neuronNo
-- 27
-- layerNo
-- 1
-- addressWidth
-- 6
-- dataWidth
-- 16
-- weightFile
-- "w_1_27.mif")
-- end_signature
WIDTH=16;
DEPTH=64;

ADDRESS_RADIX=UNS;
DATA_RADIX=BIN;

CONTENT BEGIN
	63 :	0001001111111001;
	62 :	0000011110001010;
	61 :	0000000001000010;
	60 :	1111111111001010;
	59 :	0000000101001000;
	58 :	1111111000101110;
	57 :	1111110101010011;
	56 :	1111110111010111;
	55 :	0000001101010010;
	54 :	1111101100001011;
	53 :	1111111000110010;
	52 :	1111111111000101;
	51 :	0000111000111000;
	50 :	0000100010010011;
	49 :	1111111010101001;
	48 :	0000001100001011;
	47 :	0000101101101000;
	46 :	1111100101011100;
	45 :	1111011010001010;
	44 :	0000011011100001;
	43 :	0010001011110000;
	42 :	0001110010111100;
	41 :	0000010110001001;
	40 :	0000000110110100;
	39 :	1111111111000100;
	38 :	0000010101011000;
	37 :	1111111100000100;
	36 :	0000001010110100;
	35 :	0000000000110010;
	34 :	0000010000010011;
	33 :	0001000011011111;
	32 :	0000001100100011;
	31 :	0000001101000100;
	30 :	0001010001001000;
	29 :	0000000001010101;
	28 :	1111101101110000;
	27 :	1111000010100100;
	26 :	1111101000110110;
	25 :	1111101111001001;
	24 :	1111111101000000;
	23 :	0000011110001100;
	22 :	0000011111000101;
	21 :	1111101011100101;
	20 :	1111100101110100;
	19 :	1111100101001011;
	18 :	1111110010010011;
	17 :	1111011110110100;
	16 :	1111111001010100;
	15 :	0000011000110001;
	14 :	0000000000111100;
	13 :	1111101111001000;
	12 :	0000000000101010;
	11 :	1111110011111010;
	10 :	1111111000011100;
	9 :	0000000111010011;
	8 :	1111110110100001;
	7 :	0000101011111001;
	6 :	0000000000001110;
	5 :	1111011011001100;
	4 :	1111101001010001;
	3 :	1111111000011110;
	2 :	1111101110111101;
	1 :	0000000111010000;
	0 :	1111110001000101;
END;
