-- begin_signature
-- Weight_Memory(numWeight
-- 64
-- neuronNo
-- 8
-- layerNo
-- 1
-- addressWidth
-- 6
-- dataWidth
-- 32
-- weightFile
-- "w_1_8.mif")
-- end_signature
WIDTH=32;
DEPTH=64;

ADDRESS_RADIX=UNS;
DATA_RADIX=BIN;

CONTENT BEGIN
	63 :	00000000000000000000000011110100;
	62 :	00000000000000000000000011111010;
	61 :	00000000000000000000000011110101;
	60 :	00000000000000000000000011111110;
	59 :	00000000000000000000000000000001;
	58 :	00000000000000000000000000000110;
	57 :	00000000000000000000000011111111;
	56 :	00000000000000000000000000000000;
	55 :	00000000000000000000000011111111;
	54 :	00000000000000000000000000000100;
	53 :	00000000000000000000000011111010;
	52 :	00000000000000000000000011110111;
	51 :	00000000000000000000000000000000;
	50 :	00000000000000000000000011111110;
	49 :	00000000000000000000000000000110;
	48 :	00000000000000000000000000000001;
	47 :	00000000000000000000000000000110;
	46 :	00000000000000000000000000010010;
	45 :	00000000000000000000000000001001;
	44 :	00000000000000000000000011111111;
	43 :	00000000000000000000000011111100;
	42 :	00000000000000000000000000000000;
	41 :	00000000000000000000000000010000;
	40 :	00000000000000000000000000000101;
	39 :	00000000000000000000000000000010;
	38 :	00000000000000000000000000011001;
	37 :	00000000000000000000000000001011;
	36 :	00000000000000000000000011111100;
	35 :	00000000000000000000000011111110;
	34 :	00000000000000000000000000001011;
	33 :	00000000000000000000000000001000;
	32 :	00000000000000000000000011111101;
	31 :	00000000000000000000000000000010;
	30 :	00000000000000000000000000010010;
	29 :	00000000000000000000000000000111;
	28 :	00000000000000000000000011111101;
	27 :	00000000000000000000000011111101;
	26 :	00000000000000000000000000001001;
	25 :	00000000000000000000000011111110;
	24 :	00000000000000000000000000000010;
	23 :	00000000000000000000000000000000;
	22 :	00000000000000000000000000000001;
	21 :	00000000000000000000000000000001;
	20 :	00000000000000000000000011110011;
	19 :	00000000000000000000000011111111;
	18 :	00000000000000000000000000000100;
	17 :	00000000000000000000000011111010;
	16 :	00000000000000000000000011111101;
	15 :	00000000000000000000000000000001;
	14 :	00000000000000000000000011111111;
	13 :	00000000000000000000000011111000;
	12 :	00000000000000000000000011111111;
	11 :	00000000000000000000000000000100;
	10 :	00000000000000000000000011111111;
	9 :	00000000000000000000000011111111;
	8 :	00000000000000000000000000000000;
	7 :	00000000000000000000000011111110;
	6 :	00000000000000000000000000000101;
	5 :	00000000000000000000000011110010;
	4 :	00000000000000000000000000000010;
	3 :	00000000000000000000000000000000;
	2 :	00000000000000000000000000000010;
	1 :	00000000000000000000000000000010;
	0 :	00000000000000000000000000000011;
END;
