-- begin_signature
-- neuron(layerNo
-- 1
-- neuronNo
-- 15
-- numWeight
-- 64
-- dataWidth
-- 16
-- weightIntWidth
-- 4
-- biasFile
-- "b_1_15.mif"
-- weightFile
-- "w_1_15.mif")
-- end_signature
WIDTH=32;
DEPTH=1;

ADDRESS_RADIX=UNS;
DATA_RADIX=BIN;

CONTENT BEGIN
	0 :	00000000000000000000000000111000;
END;
