-- begin_signature
-- Weight_Memory(numWeight
-- 30
-- neuronNo
-- 12
-- layerNo
-- 2
-- addressWidth
-- 5
-- dataWidth
-- 16
-- weightFile
-- "w_2_12.mif")
-- end_signature
WIDTH=16;
DEPTH=30;

ADDRESS_RADIX=UNS;
DATA_RADIX=BIN;

CONTENT BEGIN
	29 :	1111111111110111;
	28 :	1111101010010000;
	27 :	0000010011001000;
	26 :	1111101101100111;
	25 :	1111111001010010;
	24 :	0000011101110000;
	23 :	0000000110000101;
	22 :	1111111111000110;
	21 :	0000001000100001;
	20 :	0000101101001110;
	19 :	1111100110101001;
	18 :	1111100111010000;
	17 :	1111100100101000;
	16 :	0000000000011111;
	15 :	0000011001100100;
	14 :	1111110000011110;
	13 :	1111111000011110;
	12 :	0000001000000000;
	11 :	1111101101001110;
	10 :	0000011110011101;
	9 :	1111101100000100;
	8 :	0000000001111101;
	7 :	0000011111011111;
	6 :	0000101000110010;
	5 :	0000001011000011;
	4 :	1111110001100000;
	3 :	0000001101110101;
	2 :	0000010110000100;
	1 :	0000000001101000;
	0 :	1111110111111110;
END;
