-- begin_signature
-- Weight_Memory(numWeight
-- 64
-- neuronNo
-- 15
-- layerNo
-- 1
-- addressWidth
-- 6
-- dataWidth
-- 16
-- weightFile
-- "C:/Users/Ohmen/Desktop/Desktop/School/Thesis/tensorflow/w_b/w_1_15.mif")
-- end_signature
WIDTH=16;
DEPTH=64;

ADDRESS_RADIX=UNS;
DATA_RADIX=BIN;

CONTENT BEGIN
	63 :	1111110100011010;
	62 :	0000010001101001;
	61 :	0000000001011110;
	60 :	1111111100011011;
	59 :	1111111110010000;
	58 :	0000000111100010;
	57 :	0000011000110111;
	56 :	0000010000001100;
	55 :	0000000100110010;
	54 :	0000001001001100;
	53 :	0000010011101001;
	52 :	0000010001010001;
	51 :	1111110101110101;
	50 :	1111101100111001;
	49 :	0000010001001110;
	48 :	0000011000100011;
	47 :	0000011010110101;
	46 :	1111011101110001;
	45 :	1111101100010100;
	44 :	1111011111111110;
	43 :	1111110010100100;
	42 :	1111011010001000;
	41 :	1111101000011111;
	40 :	1111101001010110;
	39 :	1111110101010110;
	38 :	0000000110110101;
	37 :	1111110001001000;
	36 :	1111011100101100;
	35 :	0000010001011010;
	34 :	0000000001101110;
	33 :	1111110100100000;
	32 :	0000001010101010;
	31 :	1111100100100001;
	30 :	1111101010001011;
	29 :	0000011001000111;
	28 :	0000010110000001;
	27 :	0000000001000001;
	26 :	0000100111110010;
	25 :	1111111101011001;
	24 :	1111011010000000;
	23 :	1111011100011101;
	22 :	1111100110110111;
	21 :	0000000110110101;
	20 :	1111111001101011;
	19 :	1111111111101011;
	18 :	0000001110111111;
	17 :	1111111101011000;
	16 :	1111011111000100;
	15 :	1111101010101000;
	14 :	1111101111001010;
	13 :	1111100101100010;
	12 :	0000010111011100;
	11 :	0000010111110001;
	10 :	0000010111100100;
	9 :	0000001000101011;
	8 :	1111111110101110;
	7 :	1111011001001010;
	6 :	0000100001011000;
	5 :	0000011001001111;
	4 :	0000010011110111;
	3 :	0000000010001110;
	2 :	0000011011100100;
	1 :	1111111010101101;
	0 :	0000001011100110;
END;
