-- begin_signature
-- Weight_Memory(numWeight
-- 64
-- neuronNo
-- 14
-- layerNo
-- 1
-- addressWidth
-- 6
-- dataWidth
-- 16
-- weightFile
-- "w_1_14.mif")
-- end_signature
WIDTH=16;
DEPTH=64;

ADDRESS_RADIX=UNS;
DATA_RADIX=BIN;

CONTENT BEGIN
	63 :	1111101110010100;
	62 :	0000011101001101;
	61 :	0000011010100000;
	60 :	0000001110111011;
	59 :	0000000100000011;
	58 :	0000011011010001;
	57 :	0000101010100111;
	56 :	0000100010000111;
	55 :	1111100010100011;
	54 :	0000010011101101;
	53 :	0000011001011011;
	52 :	0000111011100101;
	51 :	0000010111001100;
	50 :	0000000001011001;
	49 :	0000110100111010;
	48 :	0000000100110111;
	47 :	1111100011000000;
	46 :	1111110011100011;
	45 :	1111101111101010;
	44 :	1111001111011000;
	43 :	1111101010000110;
	42 :	1111010000110011;
	41 :	0000011001011000;
	40 :	1111111001001100;
	39 :	1111111101101111;
	38 :	1111010000000001;
	37 :	1111010011101001;
	36 :	1111011101010101;
	35 :	1111101100001011;
	34 :	1111001000011001;
	33 :	1111011000010000;
	32 :	1111110111101000;
	31 :	1111101000101011;
	30 :	1111100011010101;
	29 :	1111101101010100;
	28 :	0000010001111101;
	27 :	1111010101101100;
	26 :	1110101100001100;
	25 :	1111011011011101;
	24 :	1111101011101110;
	23 :	1111110111010111;
	22 :	0000000011010101;
	21 :	0000001101000100;
	20 :	0000010011011010;
	19 :	1111000001111000;
	18 :	1111100001010000;
	17 :	0000000000011001;
	16 :	1111100011011001;
	15 :	0000000000110111;
	14 :	0000000111111110;
	13 :	0000000011111111;
	12 :	0000001111111101;
	11 :	0000000101001000;
	10 :	0000001010000111;
	9 :	0000101010101000;
	8 :	1111101101001111;
	7 :	1111110010010000;
	6 :	0000001100111101;
	5 :	0000000111011101;
	4 :	0000001001111110;
	3 :	1111111011111000;
	2 :	0000010000101010;
	1 :	0000100000101111;
	0 :	1111111000110010;
END;
