-- begin_signature
-- Weight_Memory(numWeight
-- 10
-- neuronNo
-- 1
-- layerNo
-- 3
-- addressWidth
-- 4
-- dataWidth
-- 32
-- weightFile
-- "w_3_1.mif")
-- end_signature
WIDTH=32;
DEPTH=10;

ADDRESS_RADIX=UNS;
DATA_RADIX=BIN;

CONTENT BEGIN
	9 :	00000000000000000000000000001010;
	8 :	00000000000000000000000000001110;
	7 :	00000000000000000000000011111010;
	6 :	00000000000000000000000011100100;
	5 :	00000000000000000000000011100001;
	4 :	00000000000000000000000011111101;
	3 :	00000000000000000000000000010011;
	2 :	00000000000000000000000011110100;
	1 :	00000000000000000000000011101110;
	0 :	00000000000000000000000011100011;
END;
