-- begin_signature
-- Weight_Memory(numWeight
-- 45
-- neuronNo
-- 15
-- layerNo
-- 2
-- addressWidth
-- 6
-- dataWidth
-- 16
-- weightFile
-- "w_2_15.mif")
-- end_signature
WIDTH=16;
DEPTH=45;

ADDRESS_RADIX=UNS;
DATA_RADIX=BIN;

CONTENT BEGIN
	44 :	1111100010010000;
	43 :	0000100011010111;
	42 :	1111110011010010;
	41 :	1111100001110010;
	40 :	0000100001101001;
	39 :	1111111110011000;
	38 :	1111110111101110;
	37 :	1111001010110110;
	36 :	0000000001000001;
	35 :	1111100001000011;
	34 :	1110110000000011;
	33 :	0001000100001110;
	32 :	1111100110100100;
	31 :	1111001100010011;
	30 :	0000010001111101;
	29 :	1111110000011011;
	28 :	1111111111000101;
	27 :	0001001110110101;
	26 :	0000000101011101;
	25 :	0000001111110011;
	24 :	1110101111010010;
	23 :	1111011101001000;
	22 :	0001000111001111;
	21 :	0000000100111001;
	20 :	1111010111111010;
	19 :	0000010111001101;
	18 :	0000001010111110;
	17 :	1111111010011001;
	16 :	1111111100101111;
	15 :	1111011001000010;
	14 :	0000001110011011;
	13 :	1111111001110101;
	12 :	1111111100100001;
	11 :	0000001000010010;
	10 :	0000001111110011;
	9 :	0000010100111111;
	8 :	0000010011111100;
	7 :	1111001101101110;
	6 :	1111100100110010;
	5 :	0000101100000111;
	4 :	0000001101010010;
	3 :	0000010110110111;
	2 :	0000010000101000;
	1 :	0000010111101011;
	0 :	0000100010010000;
END;
