-- begin_signature
-- Weight_Memory(numWeight
-- 64
-- neuronNo
-- 9
-- layerNo
-- 1
-- addressWidth
-- 6
-- dataWidth
-- 32
-- weightFile
-- "w_1_9.mif")
-- end_signature
WIDTH=32;
DEPTH=64;

ADDRESS_RADIX=UNS;
DATA_RADIX=BIN;

CONTENT BEGIN
	63 :	00000000000000000000000011110110;
	62 :	00000000000000000000000011111110;
	61 :	00000000000000000000000011110110;
	60 :	00000000000000000000000000000000;
	59 :	00000000000000000000000000000110;
	58 :	00000000000000000000000000001101;
	57 :	00000000000000000000000000001111;
	56 :	00000000000000000000000000000001;
	55 :	00000000000000000000000011110110;
	54 :	00000000000000000000000000000010;
	53 :	00000000000000000000000000000010;
	52 :	00000000000000000000000000000001;
	51 :	00000000000000000000000011111010;
	50 :	00000000000000000000000000000001;
	49 :	00000000000000000000000000000011;
	48 :	00000000000000000000000000000000;
	47 :	00000000000000000000000011111000;
	46 :	00000000000000000000000000001000;
	45 :	00000000000000000000000000000001;
	44 :	00000000000000000000000011111001;
	43 :	00000000000000000000000011101011;
	42 :	00000000000000000000000011110000;
	41 :	00000000000000000000000000000000;
	40 :	00000000000000000000000011111111;
	39 :	00000000000000000000000000000001;
	38 :	00000000000000000000000011111000;
	37 :	00000000000000000000000011111010;
	36 :	00000000000000000000000011111011;
	35 :	00000000000000000000000011111101;
	34 :	00000000000000000000000011111011;
	33 :	00000000000000000000000000000000;
	32 :	00000000000000000000000000000000;
	31 :	00000000000000000000000011111101;
	30 :	00000000000000000000000011101111;
	29 :	00000000000000000000000011111010;
	28 :	00000000000000000000000000000101;
	27 :	00000000000000000000000011111100;
	26 :	00000000000000000000000011111011;
	25 :	00000000000000000000000011111100;
	24 :	00000000000000000000000000000010;
	23 :	00000000000000000000000011111101;
	22 :	00000000000000000000000011110110;
	21 :	00000000000000000000000011111001;
	20 :	00000000000000000000000011111101;
	19 :	00000000000000000000000011111000;
	18 :	00000000000000000000000011111011;
	17 :	00000000000000000000000000000101;
	16 :	00000000000000000000000011111101;
	15 :	00000000000000000000000000000000;
	14 :	00000000000000000000000000000001;
	13 :	00000000000000000000000000000000;
	12 :	00000000000000000000000000000100;
	11 :	00000000000000000000000000000010;
	10 :	00000000000000000000000000001010;
	9 :	00000000000000000000000000000111;
	8 :	00000000000000000000000000000001;
	7 :	00000000000000000000000011111100;
	6 :	00000000000000000000000000001010;
	5 :	00000000000000000000000000000110;
	4 :	00000000000000000000000000000110;
	3 :	00000000000000000000000000001001;
	2 :	00000000000000000000000000001011;
	1 :	00000000000000000000000000001100;
	0 :	00000000000000000000000000000001;
END;
