-- begin_signature
-- Weight_Memory(numWeight
-- 30
-- neuronNo
-- 25
-- layerNo
-- 2
-- addressWidth
-- 5
-- dataWidth
-- 16
-- weightFile
-- "w_2_25.mif")
-- end_signature
WIDTH=16;
DEPTH=30;

ADDRESS_RADIX=UNS;
DATA_RADIX=BIN;

CONTENT BEGIN
	29 :	1111111100111001;
	28 :	0000011111100100;
	27 :	1111110111010101;
	26 :	0000011100001101;
	25 :	1111100000010101;
	24 :	1111010100001110;
	23 :	1111111011111001;
	22 :	0000001011101001;
	21 :	0000001101101010;
	20 :	1111111110001010;
	19 :	0000011010100001;
	18 :	0000001001101000;
	17 :	0000010010111000;
	16 :	0000100010101010;
	15 :	1111110011110100;
	14 :	0000010010010000;
	13 :	0000010100001001;
	12 :	1111101111100110;
	11 :	0000000111000010;
	10 :	0000100000101100;
	9 :	1111110000101011;
	8 :	1111011111010001;
	7 :	0000000011000101;
	6 :	0000100011010001;
	5 :	0000010001010111;
	4 :	1111111101110101;
	3 :	0000010111010000;
	2 :	1111110100101110;
	1 :	1111110110011000;
	0 :	0000001011000100;
END;
