-- begin_signature
-- Weight_Memory(numWeight
-- 64
-- neuronNo
-- 15
-- layerNo
-- 1
-- addressWidth
-- 6
-- dataWidth
-- 16
-- weightFile
-- "C:/Users/Ohmen/Desktop/Desktop/School/Thesis/rtl/w_1_15.mif")
-- end_signature
WIDTH=16;
DEPTH=64;

ADDRESS_RADIX=UNS;
DATA_RADIX=BIN;

CONTENT BEGIN
	63 :	1111110101110101;
	62 :	0000001000110101;
	61 :	1111111110011110;
	60 :	1111111010001010;
	59 :	1111110110011010;
	58 :	1111111011010100;
	57 :	0000000011100010;
	56 :	1111111101010010;
	55 :	0000000010011101;
	54 :	0000001001010011;
	53 :	1111110010100101;
	52 :	1111110111010010;
	51 :	0000000101100111;
	50 :	0000000111010000;
	49 :	0000000001110110;
	48 :	1111111010001010;
	47 :	0000000101010100;
	46 :	0000000110011011;
	45 :	1111111100110100;
	44 :	0000000011000100;
	43 :	1111111010111100;
	42 :	1111111101111001;
	41 :	0000000001100110;
	40 :	1111111111010001;
	39 :	1111111110111100;
	38 :	0000000011001000;
	37 :	1111111101101101;
	36 :	1111111011001000;
	35 :	0000001001011000;
	34 :	0000001010100010;
	33 :	0000001000100001;
	32 :	1111110011101101;
	31 :	0000000100111000;
	30 :	0000001101101001;
	29 :	0000001010111110;
	28 :	0000000101000111;
	27 :	0000000110101101;
	26 :	0000000010001111;
	25 :	1111111101010110;
	24 :	1111111110011110;
	23 :	0000000100010111;
	22 :	1111111100101110;
	21 :	0000001100100111;
	20 :	1111111010110100;
	19 :	1111111111000111;
	18 :	0000000000101111;
	17 :	0000001010000000;
	16 :	0000000101111001;
	15 :	1111111010010000;
	14 :	1111110111100100;
	13 :	1111111101101111;
	12 :	0000000110001100;
	11 :	1111111100101011;
	10 :	1111111011100001;
	9 :	0000000101110111;
	8 :	1111111010001110;
	7 :	1111111100001101;
	6 :	0000001010011111;
	5 :	1111111111110111;
	4 :	1111110111110001;
	3 :	1111111010001110;
	2 :	1111111101001011;
	1 :	0000001010101000;
	0 :	1111110101010000;
END;
