-- begin_signature
-- Weight_Memory(numWeight
-- 30
-- neuronNo
-- 7
-- layerNo
-- 3
-- addressWidth
-- 5
-- dataWidth
-- 16
-- weightFile
-- "w_3_7.mif")
-- end_signature
WIDTH=16;
DEPTH=30;

ADDRESS_RADIX=UNS;
DATA_RADIX=BIN;

CONTENT BEGIN
	29 :	0000000100111101;
	28 :	0000010001000110;
	27 :	1111111000010001;
	26 :	1111011111000000;
	25 :	1111011011111111;
	24 :	1111011111011111;
	23 :	0000011101011101;
	22 :	0000100110010000;
	21 :	0000010011000010;
	20 :	0000010100101100;
	19 :	0000101101000000;
	18 :	1111111010000000;
	17 :	1111011111110001;
	16 :	1111011101110011;
	15 :	1111101000000001;
	14 :	0000011100010010;
	13 :	0000000111010101;
	12 :	1111010111010010;
	11 :	0000011101110100;
	10 :	1111111010010100;
	9 :	0000010001011100;
	8 :	1111111111101011;
	7 :	1111101101010000;
	6 :	1111110000111101;
	5 :	0000010000011110;
	4 :	1111101001111000;
	3 :	0000001000100111;
	2 :	1111101010100111;
	1 :	0000001101110010;
	0 :	1111101111101110;
END;
