-- begin_signature
-- Weight_Memory(numWeight
-- 64
-- neuronNo
-- 1
-- layerNo
-- 1
-- addressWidth
-- 6
-- dataWidth
-- 16
-- weightFile
-- "C:/Users/Ohmen/Desktop/Desktop/School/Thesis/tensorflow/w_b/w_1_1.mif")
-- end_signature
WIDTH=16;
DEPTH=64;

ADDRESS_RADIX=UNS;
DATA_RADIX=BIN;

CONTENT BEGIN
	63 :	0000011110000101;
	62 :	0000001011110101;
	61 :	0000001000010100;
	60 :	0000011110110110;
	59 :	0000001111001000;
	58 :	1111111011000101;
	57 :	1111100100010011;
	56 :	1111111011111010;
	55 :	0000011100100110;
	54 :	0000001000011101;
	53 :	1111111111100110;
	52 :	0000001000100111;
	51 :	1111100000001100;
	50 :	1111111100100000;
	49 :	0000000110110010;
	48 :	1111110101100110;
	47 :	1111100010000011;
	46 :	1111111000101101;
	45 :	0000001001110010;
	44 :	0000000111000011;
	43 :	1111111100010001;
	42 :	1111110101100001;
	41 :	0000010001100000;
	40 :	0000010101101010;
	39 :	1111110110000000;
	38 :	1111111101000010;
	37 :	0000000100010001;
	36 :	0000000001010100;
	35 :	0000010101101111;
	34 :	1111111011110000;
	33 :	0000000111101101;
	32 :	1111101111110110;
	31 :	0000011011000101;
	30 :	0000010000111100;
	29 :	0000100000110101;
	28 :	0000100011000001;
	27 :	0000111010011000;
	26 :	0000011100110101;
	25 :	0000101011100111;
	24 :	1111111100010001;
	23 :	0000011011000101;
	22 :	0000000111001010;
	21 :	0000101010100011;
	20 :	0000101111100100;
	19 :	0000110001010111;
	18 :	0000010111111010;
	17 :	0000100100001000;
	16 :	0000011101000010;
	15 :	1111110100101010;
	14 :	1111110000100011;
	13 :	1111111010001101;
	12 :	1111111010000001;
	11 :	1111111001101011;
	10 :	1111110101001100;
	9 :	1111100110001101;
	8 :	1111110100001100;
	7 :	1111011000011010;
	6 :	0000000110111011;
	5 :	0000001001101110;
	4 :	1111101110101001;
	3 :	1111110110101010;
	2 :	1111101001110101;
	1 :	1111101111110101;
	0 :	1111110101100111;
END;
