-- begin_signature
-- Weight_Memory(numWeight
-- 30
-- neuronNo
-- 2
-- layerNo
-- 3
-- addressWidth
-- 5
-- dataWidth
-- 16
-- weightFile
-- "w_3_2.mif")
-- end_signature
WIDTH=16;
DEPTH=30;

ADDRESS_RADIX=UNS;
DATA_RADIX=BIN;

CONTENT BEGIN
	29 :	0000001001110001;
	28 :	1111100111101001;
	27 :	1111000000011000;
	26 :	1111100110000010;
	25 :	0000010101011000;
	24 :	1111110101101000;
	23 :	0000010100011011;
	22 :	1111011001111101;
	21 :	1111011011110111;
	20 :	1111111101100100;
	19 :	0000001001010011;
	18 :	1111110010101011;
	17 :	0000001010110011;
	16 :	1111001101100010;
	15 :	0000011111110100;
	14 :	1111101100000111;
	13 :	0000001010010011;
	12 :	0000010101110011;
	11 :	0000001100010001;
	10 :	1111011101110110;
	9 :	1111101100011001;
	8 :	0000100010001110;
	7 :	0000011101010100;
	6 :	0000011101011011;
	5 :	0000000100101111;
	4 :	0000000011000101;
	3 :	1111101111100010;
	2 :	1111111111100101;
	1 :	0000010000010001;
	0 :	1111110111110111;
END;
