-- begin_signature
-- Weight_Memory(numWeight
-- 37
-- neuronNo
-- 9
-- layerNo
-- 3
-- addressWidth
-- 6
-- dataWidth
-- 16
-- weightFile
-- "w_3_9.mif")
-- end_signature
WIDTH=16;
DEPTH=37;

ADDRESS_RADIX=UNS;
DATA_RADIX=BIN;

CONTENT BEGIN
	36 :	1111111101000000;
	35 :	0000000011101001;
	34 :	1110101111100101;
	33 :	1111011001000001;
	32 :	1111010110000110;
	31 :	1111111001001001;
	30 :	1110101110101010;
	29 :	1111000100101010;
	28 :	0000100111000000;
	27 :	0000110100010101;
	26 :	1110111001100001;
	25 :	0000000111101001;
	24 :	0000011101001110;
	23 :	1101111100111100;
	22 :	1110100101101000;
	21 :	0000100111110110;
	20 :	1110011100111000;
	19 :	1111100010001000;
	18 :	1110110110010001;
	17 :	0000010000100000;
	16 :	0000010101010100;
	15 :	1101111101001111;
	14 :	1110111000000111;
	13 :	0000000101011010;
	12 :	0000011010000011;
	11 :	0000100101101001;
	10 :	0000100011001110;
	9 :	0000101111001101;
	8 :	1111011010111101;
	7 :	0000100110011001;
	6 :	0000001001100000;
	5 :	1111011111111110;
	4 :	0000101111101000;
	3 :	0000101001100011;
	2 :	0000000111010011;
	1 :	1111100100000000;
	0 :	1111000001110100;
END;
