-- begin_signature
-- Weight_Memory(numWeight
-- 30
-- neuronNo
-- 3
-- layerNo
-- 2
-- addressWidth
-- 5
-- dataWidth
-- 16
-- weightFile
-- "w_2_3.mif")
-- end_signature
WIDTH=16;
DEPTH=30;

ADDRESS_RADIX=UNS;
DATA_RADIX=BIN;

CONTENT BEGIN
	29 :	1111101110010000;
	28 :	1111111111001101;
	27 :	0000010001111111;
	26 :	1111111000001111;
	25 :	0000000111111001;
	24 :	1111110111000111;
	23 :	1111101100000000;
	22 :	1111110001010010;
	21 :	0000001011100100;
	20 :	0000000000110000;
	19 :	1111101011010011;
	18 :	0000001010011011;
	17 :	1111111000001110;
	16 :	0000010000111111;
	15 :	0000001010100100;
	14 :	0000001011110100;
	13 :	1111110100010101;
	12 :	0000010000011110;
	11 :	0000001101111001;
	10 :	0000000101100101;
	9 :	1111110101000101;
	8 :	1111111011000111;
	7 :	0000001001100001;
	6 :	0000000101100100;
	5 :	0000000000100011;
	4 :	1111110011100100;
	3 :	1111111000010001;
	2 :	1111111010011100;
	1 :	0000001001110100;
	0 :	1111101100101001;
END;
