-- begin_signature
-- Weight_Memory(numWeight
-- 16
-- neuronNo
-- 5
-- layerNo
-- 2
-- addressWidth
-- 4
-- dataWidth
-- 16
-- weightFile
-- "C:/Users/Ohmen/Desktop/Desktop/School/Thesis/tensorflow/w_b/w_2_5.mif")
-- end_signature
WIDTH=16;
DEPTH=16;

ADDRESS_RADIX=UNS;
DATA_RADIX=BIN;

CONTENT BEGIN
	15 :	1111110010100000;
	14 :	0001001111011010;
	13 :	0000000100000000;
	12 :	0000001011000110;
	11 :	0000011001011110;
	10 :	1111111001110000;
	9 :	0000000111110000;
	8 :	1111111101100101;
	7 :	0000111000101101;
	6 :	0000111000011101;
	5 :	0000010100001111;
	4 :	0000100000000100;
	3 :	1111100000111100;
	2 :	0000001111000010;
	1 :	1111100101000101;
	0 :	1111100101011000;
END;
