-- begin_signature
-- Weight_Memory(numWeight
-- 16
-- neuronNo
-- 3
-- layerNo
-- 2
-- addressWidth
-- 4
-- dataWidth
-- 16
-- weightFile
-- "w_2_3.mif")
-- end_signature
WIDTH=16;
DEPTH=16;

ADDRESS_RADIX=UNS;
DATA_RADIX=BIN;

CONTENT BEGIN
	15 :	1111010100111110;
	14 :	0000001011100101;
	13 :	0000001111111011;
	12 :	0000000010011100;
	11 :	0001000011010010;
	10 :	1111011000000001;
	9 :	1111111010011110;
	8 :	0000110011010010;
	7 :	1110111110100010;
	6 :	1111110011110100;
	5 :	1111101111001101;
	4 :	1111101111001000;
	3 :	0000011111100010;
	2 :	0000101001110000;
	1 :	0000110010101000;
	0 :	0000011110100011;
END;
