-- begin_signature
-- Weight_Memory(numWeight
-- 64
-- neuronNo
-- 44
-- layerNo
-- 1
-- addressWidth
-- 6
-- dataWidth
-- 16
-- weightFile
-- "w_1_44.mif")
-- end_signature
WIDTH=16;
DEPTH=64;

ADDRESS_RADIX=UNS;
DATA_RADIX=BIN;

CONTENT BEGIN
	63 :	1111011000010111;
	62 :	1111100000100001;
	61 :	1111010011010000;
	60 :	0000001110101011;
	59 :	1111111110011011;
	58 :	0000110101011001;
	57 :	0000111100110010;
	56 :	0000011011010010;
	55 :	1111100111100011;
	54 :	1111011011110011;
	53 :	1111111101100010;
	52 :	0001000011101101;
	51 :	0000000110100111;
	50 :	1111111010100110;
	49 :	0000101110000001;
	48 :	0000011010010110;
	47 :	1111100101000011;
	46 :	1111101111100101;
	45 :	0000010101011010;
	44 :	0000001101010100;
	43 :	1111101010110010;
	42 :	1111100110011011;
	41 :	0000110100011010;
	40 :	0000100101101001;
	39 :	0000000100011101;
	38 :	0000011000100000;
	37 :	1111101101110101;
	36 :	1111100100101011;
	35 :	1111000111100010;
	34 :	1111101110000011;
	33 :	0000111001011011;
	32 :	0000001110000100;
	31 :	0000011001001100;
	30 :	0000100111011110;
	29 :	1111111100101101;
	28 :	1111011011010000;
	27 :	1111001101011000;
	26 :	0000000010100011;
	25 :	0000101010011001;
	24 :	0000001100010001;
	23 :	0000000100101000;
	22 :	1111011110010000;
	21 :	0000000110001101;
	20 :	0000000101001101;
	19 :	0000001011110010;
	18 :	1111110110100111;
	17 :	0000001011001110;
	16 :	1111100111101101;
	15 :	1111101001010111;
	14 :	1111001101011001;
	13 :	1111110110011010;
	12 :	0000011001001110;
	11 :	0000000110000110;
	10 :	0000001001010101;
	9 :	0000110001100110;
	8 :	1111111001010110;
	7 :	1111001110000001;
	6 :	1111100000110011;
	5 :	1111010010111001;
	4 :	0000011100011001;
	3 :	0000001010110110;
	2 :	0000011001100011;
	1 :	0001010110001000;
	0 :	1111111010110011;
END;
