-- begin_signature
-- Weight_Memory(numWeight
-- 10
-- neuronNo
-- 5
-- layerNo
-- 3
-- addressWidth
-- 4
-- dataWidth
-- 32
-- weightFile
-- "w_3_5.mif")
-- end_signature
WIDTH=32;
DEPTH=10;

ADDRESS_RADIX=UNS;
DATA_RADIX=BIN;

CONTENT BEGIN
	9 :	00000000000000000000000000001001;
	8 :	00000000000000000000000011101111;
	7 :	00000000000000000000000000000001;
	6 :	00000000000000000000000000001010;
	5 :	00000000000000000000000000001110;
	4 :	00000000000000000000000011111011;
	3 :	00000000000000000000000011110110;
	2 :	00000000000000000000000000000010;
	1 :	00000000000000000000000000000101;
	0 :	00000000000000000000000000010001;
END;
