-- begin_signature
-- Weight_Memory(numWeight
-- 30
-- neuronNo
-- 20
-- layerNo
-- 2
-- addressWidth
-- 5
-- dataWidth
-- 16
-- weightFile
-- "w_2_20.mif")
-- end_signature
WIDTH=16;
DEPTH=30;

ADDRESS_RADIX=UNS;
DATA_RADIX=BIN;

CONTENT BEGIN
	29 :	1111110000110011;
	28 :	1111101110111100;
	27 :	1111101100010110;
	26 :	0000001111110010;
	25 :	0000001111111001;
	24 :	0000000111101010;
	23 :	1111110100101101;
	22 :	1111101111001111;
	21 :	1111110010000110;
	20 :	1111110100100101;
	19 :	0000010000011101;
	18 :	1111101111011100;
	17 :	1111111110011000;
	16 :	0000001100110011;
	15 :	0000001010101100;
	14 :	0000001110001111;
	13 :	0000000011010010;
	12 :	1111111011101001;
	11 :	0000000000001111;
	10 :	0000000000011111;
	9 :	1111110111111100;
	8 :	0000001100101011;
	7 :	0000000111010000;
	6 :	0000001101000100;
	5 :	1111101100010001;
	4 :	0000010001100010;
	3 :	1111111101000011;
	2 :	1111110001011101;
	1 :	1111111101001000;
	0 :	1111110101101001;
END;
