-- begin_signature
-- Weight_Memory(numWeight
-- 10
-- neuronNo
-- 8
-- layerNo
-- 3
-- addressWidth
-- 4
-- dataWidth
-- 32
-- weightFile
-- "w_3_8.mif")
-- end_signature
WIDTH=32;
DEPTH=10;

ADDRESS_RADIX=UNS;
DATA_RADIX=BIN;

CONTENT BEGIN
	9 :	00000000000000000000000000000101;
	8 :	00000000000000000000000000000001;
	7 :	00000000000000000000000000000000;
	6 :	00000000000000000000000000000011;
	5 :	00000000000000000000000000000000;
	4 :	00000000000000000000000000000010;
	3 :	00000000000000000000000000001110;
	2 :	00000000000000000000000011101101;
	1 :	00000000000000000000000000001010;
	0 :	00000000000000000000000011101110;
END;
