1111111111100000
0000001100111100
0000000110000000
1111110011111100
1111111011011100
1111100111010100
0000001100100010
0000010010100001
0000000100000101
1111010010001111
1111100111101100
0000001110100010
1111101101001111
1111001100110001
1111001111111110
1111110100001110
1111011101100100
1111110001101001
0000000100011000
0000011101011111
1111010010110001
1111010001010010
1111101110010100
1111110011101010
0000001100011001
0000110000010111
0000101001110000
1111111011111110
1111011100110001
1111111011010000
0000111000111001
0000100101111100
1111111001111010
0001001000111111
0000110010010110
1111101100001100
1111110110011010
0000011011101101
0001010011011001
0000000111111000
0000010101101110
0000011001010011
1111111101100011
0000100010011111
0000100010110100
0000000001101110
0000011101001001
0000001101101000
1111101100001001
1111110101110001
1111101101000001
0000100011101010
1111111010000001
1111110010000100
1111101110111110
0000000000101010
1111100110001111
1111111001100101
0000000101111110
0000001010100100
1111100110111100
1111111010011101
1111110101010010
1111110011101010
