1111111011101100
0000010111100100
0000110000001111
0000011001110011
0000011100001111
0000010110000101
1111111111110000
1111011110000001
1111110010001001
0000100110111110
0000110000001101
1111111000010100
1111111010111110
0000100100111101
1111111110011010
1111101001110101
1111100000100101
0000011100111110
0000010001010111
1111001110010111
1111100000110111
1111111100000101
1111101110011110
1111110011100000
1111101000010111
0000001000110010
1111101000110111
0000001101001101
0000000100100011
1111100010100100
1111001011101011
1111010101110000
0000001101000110
1111110111110100
1111101011111111
1111100110100111
1111011010001000
1111100011010111
1111101010010110
0000000100000100
1111011111111110
1111110101110011
1111011000000101
1110110011110010
1111001100110111
0000010000011001
0000001111000010
1111101010100110
0000010000111100
0000100001010111
0000100111000100
1111101101100011
0000100001101001
0000101101101011
1111110110000010
1111000101101010
0000011011110011
0000111110011101
0000101001000111
0000110011100001
0000010110110001
1111101111110101
1111100110001101
1111011111011101
