1111110010011100
1111001101111010
1111101011000111
1111101110010111
1111011110001000
1111100001111010
1111000111011101
1111100101100101
0000001001111011
1111111000111001
1111100101001101
1111101000001000
0000001110011011
0000000010100011
1111101101101011
1111100010110011
0000010110000001
0000011000000010
0000011111011101
0000100101110000
0000100101010011
0000110100010101
0000111001110110
0000011001111100
0000001100011111
0000001100001101
0000010010100111
0000001011010101
0000011111001101
0000011101011100
0000010110101110
0000011100001000
0000000001111111
1111100111101101
1111101101110111
0000000000100001
1111111101010001
1111011001011001
1111001000101010
0000001110101100
0000010111100001
0000010000100111
0000010010011001
0000100001011011
0000010100110100
1111011011010111
1110100111110011
1111010010010010
0000011000101111
0000001100010111
1111111010011000
1111110001000111
0000010001001010
0000001011010000
1111101010011100
0001000001000101
1111111110011000
1111010100011010
1111001010000011
1111101110100011
0000010000111000
0000100110011100
0000101111011010
0001011010000101
