0000000001100111
0000101110010000
0000011111111100
0000001011001100
0000001101001110
0001000111011100
0000100101101110
0000000100001010
0000001110101001
0000100001001111
0000001101000011
1111111110111001
1111111011001101
1111111111010110
0000011001010101
0000010111100000
0000100001011101
1111101001110000
1111101110110010
1111011011011110
1111100000000111
1110101000100011
1111011111000001
1111110101011101
1111111111010010
1111011010101101
1111001110000110
0000000000011111
0000001010001010
1110111011000111
1110011010100100
1111100111010001
0000001001011100
1111100011001110
1111100101010010
0000100001011001
0000100111011000
1111101001000100
1110101110110100
0000001010101001
1111011010000000
1111011110001010
0000101011111101
0000101011110011
0000000110101001
1111101010011010
1111100100101000
0000010111100001
0000011001001001
1111101011001111
0000011111111101
0000100101001100
0000011000111101
0000111011111111
0000010010110100
0000010100111001
0000010000000010
0001010110001101
0000001111110010
0000010100100110
0000010011001010
0000100101010001
0000010001010000
0000110100111110
