0000001000001000
1111010001001100
1110010101101111
1111100111000100
1111110110000110
1110011111000001
1110111101000011
0000000111100001
1111111001000111
1110111001010010
1111001101001001
0000000111011100
1111100101101010
1110111011110110
1111010110111011
1111111111011110
1111011100011010
1111010111110011
0000001000000010
0000100101000110
1111010100001101
1111011110100111
0000001011101011
0000001101110001
0000000000111111
0000101010100010
0000100010001101
1111101001101111
1110111000111100
1111101010001000
0001000000101000
0000011111001001
1111110001010100
0001000111100001
0000110110100001
1111100111111001
1111110011110001
0000100101000111
0000111101100000
1111110101010000
0000000010110001
0001000001110010
0000111011000101
0000010011010110
0000010000011010
0000010110101001
0000101010010100
0000101001111110
1111110100010011
1111111111001111
1111111001111010
0000000011101001
0000001111110111
1111111001110110
0000000100101111
1111100011111110
0000000110100010
1111000011000100
1110110001110010
1111100010101110
0000010001110000
0000001110001100
1111101101100010
1110110100110011
