0000000101110000
0000111111011101
0001001000110010
0000010000010001
0000101001011000
0001000011101101
0000110010110110
0000001100100101
0000011000011111
0000111000101011
0001000001001011
0000000111001000
0000010101101101
0000011110010010
0000110100000101
0000011111110100
0000000101010000
0000010111110011
1111011111011101
1110100000110011
1111101011111001
1111101111101011
1111111010000100
1111110100011100
1111100101110101
1111001010011111
1111001110100001
1111110111100000
0000011100100010
1111101101111111
1111100001001000
1111101000010011
1111111100001111
1111100101101101
1111101100110100
0000010010101111
0000010110110011
0000000011111101
1111111101100110
1111110111101101
1111111101011100
1111111110111011
1111101001000110
1111101111000101
1111011011111110
0000000101000111
1111100010100010
1111010001101111
0000000101111000
0000101001000101
0000011011010011
1111111111000111
1111110011010101
1111111010110001
1111110011011011
1111100001001100
0000001100010101
0001011011000100
0000110010001100
0000010010010111
1111100010010100
1111100010000100
1111111000101000
1111110010010101
