0000001100101110
0000101011111011
1111110110101011
0000000000010111
0000000001100100
1111010011111001
0000100100101011
0000001110000100
1111110111001001
1111101110101010
1111111110100001
0000000010011110
0000000000011000
1111100100111110
1111110110001110
0000001100001100
1111010101100101
1111100011100111
1111110000110010
1111101111100101
1111000100111011
1111011110100000
1111101100101011
0000001001100101
1111111100010111
0000100100110111
0000001100101111
1111000101100110
1111001101100101
1111110010001011
0000111000101111
0000011000101000
1111111101011000
0001000100110101
0000011011010110
1111110110101100
0000001111110000
0000101100010100
0001001000100101
1111111000001011
0000010000011010
0000111000111111
0000101000001111
0000010111111100
0000010111011001
0000011101001111
0000110001011111
0000101001100010
1111111101000110
1111110101000011
0000000100000110
0000010111000100
0000010101010001
1111111011111010
1111101100100011
1111100111000010
0000000000100010
0000011001011110
0000010101101001
1111110001011001
1111100101000011
1111011010001001
1111101000001110
1111001110101111
