1111111011110010
0000010101110111
0000011100000111
0000000000001011
0000000001111000
0000111010011100
0001001001001101
0000010010101100
0000000001000000
0000011111011110
0000001011110101
1111111111010110
1111101111000000
0000000001000011
0000110110100100
0000000101111101
0000011101101001
0000011111110110
0000011000100010
1111101011011001
0000011111100100
1111100010010001
1111011110101010
1111111100000111
1111111110111110
1111101010001010
0000000101000100
0001001111110100
0001001111011110
1111101001011111
1110111100111110
1111111000000001
0000000100100110
1111001010101010
1111110111001010
0001000010110011
0000111000110100
0000000101111111
1111010101111100
0000000111100000
1111110110101001
1111000100100101
1111010110011100
1111101111101111
1111011001101001
1111110110111001
0000010011101011
0000010101010100
1111111001011111
1111110001010101
1111111101110001
1111100111111110
1111001001001110
1111111010101001
0000101101110101
0000001110101001
1111110110110011
0000010111101001
0000010110000011
0000000110111110
0000000100001100
0000010000001110
1111101110001101
1111010000111110
