0000001011110100
1111001111111011
1110111010000100
1111100111100111
1111110110111011
1111000110101110
1110101000000011
1111100011001111
1111110011001010
1110110101001000
1111100101111000
0000000010100100
0000000011001100
1111101111101000
1111010010010010
1111010011111111
1111010110110101
1111010011101100
0000000001101100
0000011110111111
1110100111101100
1111101010111011
1111100111010101
1111100011111111
1111110111000110
0000001110111101
0000101100000011
1111001111011010
1110101110011110
1111100001101111
0000110001000000
0000010001011100
1111110111110000
0001010000000100
0000101111101010
1111011110111100
1111011001101000
1111111100101000
0000101111011000
1111110011000111
1111011000101101
0000101111100100
0000111001111010
0000000000110011
1111111101001100
0000011100000110
0000110111100111
0000101000110101
0000000101100111
0000000010111000
0000011010100011
0000001101100000
0000010001101010
0000001111000010
0000001110100001
1111000110011010
0000011001100101
1111011010110111
1111000101001011
1111100101111111
0000001101000001
0000011001110000
1111111001111100
1110101001001010
