0000000100001111
1111110110000000
0000001101011111
0000000001000011
1111111011010110
0000000001010001
1111101100001011
0000101101001110
0000001110100111
0000001101111000
0000000011001100
1111111000011110
1111111110111011
1111110000001011
1111101100110000
0000001010100001
0000000110111101
1111111101111011
0000001000111001
0000010111011110
1111001001111000
1110111111010010
1111111110010111
0000011001011010
0000010001000000
0000001010100101
1111111001000101
1111101001111100
1111100100011001
1111111101001000
0000001011001010
0000101010011000
0000001100111111
0001000001110000
0000010001110001
0000000000011110
0000011101111000
1111110011100010
1111011110111100
1111110001110101
0000010011000011
0000000100100001
0001111111000101
0010011010101010
0000110011010110
1111101011111100
1110111001110111
0000100100001110
0000001110111111
1111101111100011
0000010000011010
0001000110111111
0000000001101001
0000000010101111
1111100011001111
0000100000001001
0000011100100001
0000000101001110
1111110011000001
0000000100011011
1111111110010011
1111111010110011
0000010101000010
0001011001010111
