1111110111001001
1111100101111111
0000001111010000
0000000001000000
1111111101110100
1111100101111001
0000101111101101
0000101011110110
1111111110110011
1111110001001110
0000011000100111
1111111100111100
0000101000101101
0000011101110000
1111110110101101
0000010111101111
1111101110101011
0000000010011011
0000001011000100
1111111001000000
1111110001111000
0000101101101011
0000010110011001
0000001100001110
1111110111111100
0000010100100101
0000001111011111
1111010110000101
1111011011101010
0000111001001001
0001101000000011
1111110010111000
1111110101010001
0000010010010010
1111111010110100
1111100111010100
1111001101110111
0000000110001010
0000111111110011
0000001001100010
0000010001000101
0000011011101100
1111101011000100
1111111010101100
1111101111011011
1111011000011100
1111011100110101
1111100001001010
1111100011010000
0000001010000111
0000001011010111
0000000111000110
1111101001110001
1111100101101100
1111011111111010
0000000110110010
0000000000110111
1111010100011111
0000010110100010
1111111110001010
1111011011011001
1111010110100010
1111110010011001
0000000001101101
