1111111101111111
0000101001011001
0000100100101000
0000000111111111
0000001001110001
0000000011110000
0000100100000101
1111111111111101
1111111010101010
1111111101000000
1111110110001000
0000100001111111
1111111110100001
1111000000010011
1111101011010010
1111101000010111
1111101110010011
1111111101100110
0000001100101011
0000001001000010
1110110000111110
1110011101000111
1111000110111110
1111111000110001
0000000001011100
0001001000111101
0000011001110011
1111000111111000
1111011010010001
1111100000101111
0000110001101010
0000011101000110
1111110011010011
0001011001101100
0000000101100111
1111001111001000
1111011110011111
1111110011100000
0000100101100110
1111110001010010
1111111000100111
0000010010100001
1111111100010000
0001000100010010
0000000101000101
1111011101100101
1111110110000000
0000100111111111
0000000110100010
1111111111000010
0000000101010011
0001001101010011
0001001111101100
0000011000100110
1111110011010110
0000100110001000
0000010110000110
0000110101001100
0000011011100001
1111111110000101
0000001001011111
0000000101010011
0001000101111100
0001100101001000
