0000001110101111
1111101100101001
1111110100001000
1111100110010111
1111100010001010
1111110101001100
1111111001110110
1111101010001110
0000100000100011
1111101101011100
1111110111100101
0000001001110001
1111101010110101
1111110011100111
1111110000011110
1111101111111110
0000001000011000
0000001100100101
0001000100101101
0000101001000010
1111010001011010
1111101010000111
1111110010000011
1111110000100111
0000000010010100
0000110001000111
0001001001100010
0000011101100101
1111110100001011
1111111101100101
0000000100110111
0000100100001000
0000000011110110
0000110010011111
0000101101010101
0000001000001000
1111111011010111
0000000111000010
0000001100001101
0000001110110100
0000001111000100
1111100011100011
0001010000000000
0000111101100010
0000011100010010
0000001000110110
1111110111010101
0000010111101101
1111101100001011
1111110010100001
0000100011110111
0000000010000101
1111100011000000
1111101100011101
1111011100101010
0000100100111111
1111011010111010
0000000000011101
1111100100011101
1111101101100110
1111111101001111
1111110101011111
1111110111100100
0000011000100100
