1111111000010001
0000001000100000
1111101000010111
1111111100010010
0000000001110110
0000010000110110
0000001001110110
1111110001010010
1111110010000001
1111111110001001
0000000110100110
0000000100011010
0000000011101001
0000010110011010
0000001101100011
1111100111010101
0000001000001011
0000000111100011
1111111000000011
1111110100010111
0000100111010010
0000011011101100
0000000100011000
1111101111011111
0000000001011101
1111111010111110
1111111011101101
0000011110101101
0000010001100101
0000010111000010
1111011101000001
1111100010010101
1111111011111010
1110101001101111
1111011011011101
1111111011011010
1111011111011001
1111111001101111
1111101111001110
1111111100010010
1111111011010100
1111101000000001
1110100001011011
1110011000000101
1111001101000101
0000011111000100
0000001011110101
1111011110101011
1111111100010000
0000000000100010
1111101001111111
1111001001100111
0000000011110110
0000001110110100
0000010101010011
1111101001110111
0000001001101000
1111111011111100
1111110111011011
0000001011110000
0000010111000100
0000000001110100
1111111111110001
1111001000001000
