0000000110101100
1110110100010000
1110011010110100
1111101100101111
1111110110110000
1110100101000001
1111010011000001
0000011100010010
0000001011000001
1110101011000001
1111001101111111
1111110000101101
1111001001100001
1110111111111010
1111100100000001
0000001011001000
1111101101100011
1111001110000011
0000010001111110
0000100010100100
1111011000100101
1111010010000111
1111101011110000
0000110000010010
0000010010110110
0000000010001010
0000010111000110
0000001111101100
1111101100110111
1111110101110001
0000001010011010
0000101010011111
1111110110010101
0000010101000101
0000101010101110
0000011010101000
0000011110101001
0000011110111101
0000010100110001
0000001010110000
0000100101110010
0000100001000100
0000011110101010
0000011001111100
0000101000000101
0000010001001010
0000101110001001
0000101111100011
0000000010110001
1111111110100000
1111110000010010
0000000100100000
1111011110100000
1111110011111010
0000010101100111
1111110001001011
1111101011001101
1110110000001101
1110111100111000
1111100101110011
1111111100110100
0000010100001110
0000010001010111
1111111010001111
