1111110011110010
0000011110101000
0000100100000101
0000100000011001
0000010000011011
0000001010110001
0000011101001010
1111100000100010
1111110011101000
0000001001000010
0000001100100001
0000000000111011
0000010010000000
0000001000100010
0000010010001000
1111101000110000
1111101111101001
0000000111110011
0000000101000010
1111110100100011
1111101100111111
1111111010000011
1111110001100101
1111101001110011
1111110111100101
0000100110100010
0000001101111111
1111111101001011
1111111111000011
1111110101001010
0000011000011100
1111111000001111
1111111000111010
0000010110111010
1111111111000001
1111011010000001
1111010111011100
0000001001010011
0000111011100011
0000001100110011
0000000110011001
1111110010001001
1110101111101101
1110001111100101
1111001001101011
0000011001100101
0000111100101110
1111101001011110
1111101010100011
0000000100010010
1111110011000100
1111101001011011
0000001111100100
1111101010011110
0000001011000101
1111010100011000
0000000110011101
0000100111011100
0000100000001010
0000010011001001
0000001011111100
1111011000100011
1111011111101011
1110110110000001
