0000000011010000
0000100101111101
1111110100100111
1111111100110000
1111111000011101
0000010011010111
0000000000010001
1111101010110101
1111110010010011
0000010100000101
1111110000101010
0000001101000001
1111110100101010
0000000110001111
1111111111001000
1111110001100001
0000011011011011
0000000111101011
0000011000000100
0000100001010011
0000000111010111
1111111101010001
1111100110000000
1111110101100011
0000000110001111
0000000111011101
0000001101110000
0000100001100011
0000011001100010
1111100110100010
1110111101100000
0000000000000010
1111110010000101
1111000110100011
1111101101100110
1111111110101100
1111111111110011
1111110011110101
1111000101111001
0000000100101011
1111100100110011
1111000110011101
1111001110101101
1111001110101000
1111110100111100
0000001001101110
0000011110011100
0000011110111101
1111110100111111
1111100100011101
1111100110101100
0000000001010111
0000011111000100
0000111111111000
0001010111001100
0000011100100110
0000011100001100
0000011110000111
0000000111110000
0000011010010100
0001000011010000
0000111101011011
0001001010010110
1111100110111101
