1111110111010011
1111110001010111
1111000111101111
1111110011000010
1111111000111010
0000001100010000
1111111001010001
0000010101010110
0000001101010100
1111111000111110
1111011100110001
1111100101001101
0000000010010010
1111111100011011
0000000101000111
0000101011011001
0000100001001000
1111100110111000
1111001100001010
0000001011111001
0001000010111010
1111111010100010
0000010100110101
0000010110010001
0000011010111111
1111000101110111
1111100101010110
0000000000011000
0000100101111011
1111101110011100
1111100101100110
0000011011001110
1111111010000100
0000001001001010
0000000000111111
0000111011100001
0001010010010100
0000100100101011
1111100011111111
1111111111010001
0000001010101110
0000111101100101
0001001010001110
0001000100110101
0001000001001001
0000011001011110
0000001111001110
0000011000011101
0000000110110111
0000001010101010
0000000011100001
1111111000001000
1111011010011111
1111111011110011
0000001100100001
0000000110100101
1111100101001000
1111011101000000
1111000101110011
1111110011011001
1111110100110111
0000010110000000
1111100111101000
1111111011100110
