0000110101011111
0001000001010101
1111111111011000
1111010000011010
1111111011011010
0000100101100000
1111100010101001
1111110100001010
1111100101000001
1111100111000000
0000101001010110
1111110001011000
1110101110111011
0000011111100100
1111110001111101
0000001110111100
1111100010011001
0001000111011101
1111101100001000
1111111010001111
1111111100011100
1111110111010101
1111100110001011
1111000100110110
1111011100110011
0000000000011100
0000110101101011
1111110010100000
0000001101001100
0000101001111101
0000010111011111
0000100101010000
1111111111101010
1111000101010101
0000001101001010
1111101111000010
0000011100011110
0000000110000110
1111010100111110
0000000010100011
0000101010000011
0000010000001000
0000100110011111
0000000000100101
1111110000111010
