1111111110111011
1111100111011010
1111101101110010
0000110000010110
1111100000011000
1111101001011111
0000111101010010
0000000010100001
0001000110110101
1110110101100000
0000000111010000
1111001100001100
0000101110010011
0000001110111001
1111100110110101
0000010101100000
1111101110100101
0000001100011011
1111100001101101
1111110001101101
1111101001110001
0000000101111101
0000110101100100
1111101000100010
0000100110100111
0001000111010110
1111111011011011
0000100111011001
1111111001011100
1111100110100101
1111111111010100
1111110111011101
0000001100000010
1111111110001000
1111011100110011
0000001100001110
0000011111100000
1111100111001110
0000001001001010
1110110011101111
1111100011111110
1111111001110010
1111111101100110
1111100110011110
1111011110110111
