1111101011011001
1111100100110000
0000010111010110
0000011111010101
1111111101110000
0000010100101101
0000001110001001
0000000100011000
0000010010000110
1111000100110101
1111010110100110
1111001000000011
0000011000111111
0000100000101010
1111101001011000
0000100000111011
1111010111011101
1111101100101110
0000010110100101
0000001101100011
0000000000100111
1111001010001101
0000000101101101
1110110011100011
0000011110000110
0000011100111110
1111110001011100
0001001011111011
1111110100000011
1111011111001110
1111101010000001
0000011000111101
0000101010110111
1111100101100000
1111011011011110
0000000110010110
0000011100101010
0000111011000001
0000000001101111
1111011110110101
0000011010011100
0000100010000010
0000101001001000
0000000010001100
1111100000011011
