1111111111111101
0000011101101000
1111100100000010
0000111100110001
1111100001111101
1111010110010000
0000001011001000
1111100111011110
0000010010110111
1111111110101000
0000010000001100
1111000001101111
1111010101011000
0000010001010010
0000001110101110
1111101011100111
1111111101111010
0001001000000010
0000010011100011
1111100011100011
1111001111100011
0000100101111101
0001001011110101
0000011101011100
1111111010001011
0000010000111111
0000010101101111
0000000010100110
0000001001000101
0001001000010011
1111111001101100
0000000000101100
1111011010101110
1111110100100100
1111100001110100
0000001011111110
0000100100011010
1111100010110101
0000000111101101
1111110110001111
1111000101110001
1110110001111111
1111100101110010
1111010000111111
1111111100011010
