0000000010010111
0000011010100100
0000101010010011
1111101000111010
0000001001111001
1111110110101100
1111011101010110
1111001100001000
1111011111011101
1111101101011010
0000011100011110
0001000001100111
1111000001011110
0001000101101100
0000010001110001
1111100001110100
1111101010010110
0000001010111101
0000000100101110
0000000110001110
1111010010011111
1111101101110000
1111110010011101
1111101001101101
0000010100101110
0000000111110100
0000110010110100
0000000100101101
0001001011100010
0000000111110110
0001001001100101
0000000101000101
0000000101101100
0000001000010010
0000000011000111
0000000010001110
0000000010001110
0000000000001001
1111001011011101
1111100110000000
0000001110000100
1111110001111001
0000001101011011
1111011001110011
0000100110011000
