0000011010110100
1111110111101000
1110110111010011
0000011101011000
1111111110011001
1111110111011101
0000001101001100
0000110011001001
0000100011111100
0000000110100010
0000000100011011
1111001001101011
0000110101100101
1111000101010001
1111100011011110
0000100111000001
1111111101000010
0001100010101111
0000000100011000
1111000111011111
0000010010001111
0000010101111101
0000011001010011
0000010110001010
1111100101000001
0000010110100011
0000000001100010
1111101111001010
1111001010100010
0000110001011010
1111010111001000
0001011010011010
1111011000100111
1111101010110010
1111011100010111
0000001011000011
0001011010011101
1111001111001111
0000101000011010
1111111100011001
1111101010110001
0000001111001110
0000100110101011
0000011110101000
0000000001101000
