0000101101100110
0000101001111010
0000001001001000
1110110111000011
0000000000110000
0000010001101011
1111011101011100
0000011001000001
1111001101000000
0000101111100110
0000100001000011
0000100100010001
1111011010101101
1111110111001101
1111100100101011
1111111000011000
1111101111110111
0000101111000111
1111101011011110
1111111011100010
0000001110101001
0000010011001100
1110111111100010
1111100001010001
1111011100111000
1111011111001000
0000010010100011
1111010110011001
1111100111001110
1111111001110101
1111111111110010
0000001101001001
0000000100100110
1111010010011010
0000110110110011
1111101011011001
0000010010111001
0000000111100111
1111101110110110
0000010111001100
0000111111011101
0000001011011001
0000100011011110
0000101001011011
0000001001101010
