1111100010111101
1111000110000111
0000111100100010
0000001000011101
0000011000101111
0000100111000100
0000010001011011
1111101000000010
0000000010011001
1111000111100001
1111100100111011
1111111111001100
0000001100010000
0000011001001100
1111111101010011
0000010000100000
1111010001010110
1111010000111100
1111100111111111
0000011011001101
0000010110010101
1111100011111011
1111100000111010
1111001010010101
0000011011100101
0000101000011110
1111110100111101
0001000101001010
0000010111111001
1111001000010001
0000100001000101
0000110000010111
0000011011110000
1111100111010100
1111010010010010
1111101111000100
0000001000111000
0000101100111000
1111010011011100
1110101111000100
0000101111010110
0000100011110101
0001001000101010
1111110101110101
1111110000000101
