0000011111001110
0000011001001110
0000011101010110
1111111000001011
0000001011011101
0000010110101101
0000011111111101
0000100100111011
0000010011010010
0000000110110010
1111101110000111
1110111110100100
0000101111101011
1110111110001101
0000101010010100
0000010010001110
1111111010111001
0000100110000111
1111010001110111
1111111100101011
0000111001010111
0000001111011011
1111100101001000
1111110000011011
1110111101110101
1111010111101001
1111011010110000
0000100111011110
1110101001000001
1111010111111010
1110110110011101
0000100011011000
1111100110100110
1111100011111000
0000100000110011
1111110011000110
1111101100010000
0000000001110011
0000001101000000
0000010001001110
0000001111011010
0000000001111000
0000010111111011
0000111001101010
1111110110011000
