0000111011011100
0000001101111110
1111101011110001
1111110110110100
1111001111011011
0000101011010111
0000010000111110
0001000010110111
0000100011111111
1111011000111010
0000100101001100
1111001010001101
0000001010010011
1111101100101001
1111001001011101
0000010101100011
0000110011110011
0000000111101001
1111100110101000
0000010001011111
0000010001001110
1111111101100101
1111110110101001
1111111000000100
0000011010010100
0000011111101111
1111100000110110
1111100000100000
1111010001100001
0000011111111011
1111110111100001
1110101110110010
0000100011000010
0000000010101010
1111100100100001
0000100111101111
1111010000000111
1111010101110111
0000100110101111
1111000100100100
0000011010011101
0000000010000101
1110110100010000
0000001001100110
1111001000011011
