1111010111100001
0000000101001011
1111110110010011
1111101101111001
0001000010011110
1111100001101011
1111101100101100
1111010011010100
1111000011110110
0000111111000100
1111001010110010
0000110000011110
1111000011110010
1111111100001010
0000011010111010
1111011100011111
1111010110100000
1111111110011110
0000111101001101
0000001011010011
1111100111010000
1111011110100110
1111111101111011
0000000000110111
1111101001010100
1111000000010101
0000000001110000
0000010001000110
0000000000000100
0000001010101100
1111111111010101
0001010001101001
0000001101111001
1111101101001010
0000001000001011
0000000001000101
0001000000111111
0000010000011100
1111011011101010
0001010010110010
1111111011111111
0000011110000000
0000110010000001
0000000100010100
0000111000001100
