1111110001111110
0000111001110100
0000000110110100
1111100101111010
0000011011011001
1111110001000100
1111101100011111
0000000010001001
1111000010111110
0001000010010111
1111011101101001
1111101111001100
1111011011000110
1111101000010000
0000010111100000
1111101101110111
1111101101010010
0000001111011100
0000101001010100
0000010101001010
0000100011001111
1111011011100000
1111100000111101
0000010000011011
1111011000000101
1110101111011011
1111111111011000
1111110010111011
1111101101011001
0000001011111010
1111001110100011
0000011111100110
1111110001100001
1111110111110111
0000110111001001
1111110100011100
0000100011010011
0000011110001010
1111111000101011
0001101011001001
0000001101101100
0000100010110011
0000001011110101
0000111111110111
0000011001101010
