0000010010001100
0000010000111110
0000000001000001
0000001010110100
1111010000011011
0000000101000101
1111110110110101
0000101010110100
1111111111101110
0000000111101001
0000001100101000
1111011000011000
1111111010110010
0000001110011010
1111110011011111
1111110000100110
0001100000111001
1111110101101001
1111110110011000
0000111000101111
1111111100100101
0000011110001000
1111100111010001
0000011010111000
0000011000001111
1111110000111100
1111111001011101
0000000001011000
1111111110010101
0000100110100111
1111100101100111
1110110010001010
0000011111000101
0000111000001001
0000000100010010
0000110001001011
1111010100110111
1111101111101011
0000101100110101
1111111010111111
1111101111100100
1111011001001100
1110100110100010
1111110001001101
1111000001101111
