1111110001000110
1111000101100000
0000101111000110
0000001001011100
0000101010100000
1111100001110000
0000010101011110
1111010010111000
1111111100111111
1111011111100111
0000000000111110
0001101001010110
0000001000100110
0000010110100001
0000100100101101
1111110000111000
1111011100010111
1111001101101101
1110111110111001
1111110100000000
0000000011111011
0000011100111111
1111111101000010
0000110111101001
0000000100001110
0000011011110001
1111110001101001
0000001000100000
0000110010101010
1110100011000101
0000101010101000
0001000001001101
1111101000111001
0000101101101100
0000001111100101
1111000100111111
0000000011101111
0000100110001011
1111100001110011
1111110010111110
1111110001011010
1111110101010100
0000011101000001
1111010011011110
0000011000010110
