0000100111011111
0000011010001111
1110100000011101
0000101011000001
1110110000110000
1111001011000110
1111111000110000
0000010000111010
1111101001011011
0000100011001101
0000100000100010
0000010000100010
1111110010010001
0000100001011010
1111110000110111
1110000010111001
1110110011100010
0000010111111001
1110110001011110
0000100111101000
0000010011101011
1111001110100100
1111000010010101
0000000111010101
0000111010110111
0000010011110111
0000000000001110
0000000010011010
1111011101100100
1110110011011111
0000011100000110
0000011101100010
1110100110010010
1110110111100000
1110110110110001
1111011100101011
0000000100110100
1111111101001111
1110011101101001
1111100010010001
