1110101110101101
0000010011101101
0000100011011110
0000011011101110
0000000011111000
0000000110001110
0000011001110101
1110110010010000
0000011101000100
1111011110100101
0000000101110000
1110011101101101
1111011111000010
1110010100010101
0000101000110101
0000111110110000
0000010001000100
1111101100011001
0000100110101110
0000001111101011
0000011101000100
0000010011010110
0000010101110101
1110010110001000
1110001111111001
1111111110110000
1111110010011110
1111010001101101
0000110101111010
1111011000101101
1110010110111000
1110001110000111
0000011000100001
0000100011110110
0001000111100001
1110111001110011
1110100010000011
1110010110010101
0000010100110011
1111000111111100
