0000001110111110
0000001010101010
1111110110000001
1110110010111111
0000010010111111
1111101010111111
0000100011000011
1111000101000000
1111000101000000
1111010000011011
0000011111000011
0000101110111111
1110001011000100
1111010110100010
0000110011010110
1110110000101101
0000101101001010
1111111000111011
1110110101111110
0000001100101100
0000110011011010
1111110001011100
1111011100100110
0000101100010000
0000001100011101
1101111110000110
1111001101100001
0000011111101010
1110110010000000
0000100110101101
0000110011000111
0000110000010010
0000101001010101
1110100111011000
1111100010111100
1111000111110110
1111110100111111
1110001110010100
0000011110001111
1110101111001101
