1111111100101010
1111000110101111
0000001010111001
0000011100011110
0000111111110100
1110001101011011
0000001101001111
0000010001111001
1111001110110100
1111101000111001
1111101111011000
1110110100101010
0000011011111100
0000011011111101
1111011010010100
1111011010110000
1111010001000010
0000100100011101
1101111101011100
1111000010100110
0000101011101110
0000011001001010
1110010100010011
0000001000101011
1111110001100100
0000010010111101
0000001011100111
1111111000011111
0000110001110001
1111001000111001
1110111111001001
0000001110000101
1110101110010000
1111101001110111
0000111100100111
0000010011110110
1110011010111110
0000000000111100
0000010100001110
1110111101111111
