1111000111001010
1110010111111101
0000100001101000
1110011110101010
1111101111010011
1110111000100000
0000011011011011
1111111010101000
1111111101111001
0000011010001100
1110101010000000
0000011000001101
0000011100010101
0000010001011010
0000100101101000
0000100000110101
1111001101100011
1110100101101000
1111010000001010
1110100010000110
0000010110110011
1111100100100010
1111111000011001
0000111001100011
1111100000011100
1110111011000000
0000100111111001
1111100111110111
1111001011010010
1111011111000001
0000001011101101
1111110101110110
0000001001110111
1111110111101110
0000100000000001
0000100000110001
1111001101101000
0000100010000011
1111000101000011
0000110011010111
