1111101010110001
1111111110000010
1110111011110111
1111001001110111
1110011000110011
0001010010111001
0000010000111010
0000010000101101
0000100000011011
1111111011111101
0000100110111010
0000001000000110
1101110110010001
1111111010010101
0000110101001101
0000111011110010
1110111111010110
1101011110000000
1110110110010000
0000001110000001
1111111001010001
1111011000111000
0000111100010101
1110010000101110
1111000000001100
0000100001001011
0000000101100100
1110011110000101
1111110111010000
1111010100001010
0000011000111111
0000001011111100
1111101001011100
0000001111110111
1110111010000001
0000000010010111
0000010100011111
1111101100011011
1110100011001100
0000001101100100
