-- begin_signature
-- Weight_Memory(numWeight
-- 64
-- neuronNo
-- 34
-- layerNo
-- 1
-- addressWidth
-- 6
-- dataWidth
-- 16
-- weightFile
-- "w_1_34.mif")
-- end_signature
WIDTH=16;
DEPTH=64;

ADDRESS_RADIX=UNS;
DATA_RADIX=BIN;

CONTENT BEGIN
	63 :	0000000001101101;
	62 :	1111110010011001;
	61 :	1111010110100010;
	60 :	1111011011011001;
	59 :	1111111110001010;
	58 :	0000010110100010;
	57 :	1111010100011111;
	56 :	0000000000110111;
	55 :	0000000110110010;
	54 :	1111011111111010;
	53 :	1111100101101100;
	52 :	1111101001110001;
	51 :	0000000111000110;
	50 :	0000001011010111;
	49 :	0000001010000111;
	48 :	1111100011010000;
	47 :	1111100001001010;
	46 :	1111011100110101;
	45 :	1111011000011100;
	44 :	1111101111011011;
	43 :	1111111010101100;
	42 :	1111101011000100;
	41 :	0000011011101100;
	40 :	0000010001000101;
	39 :	0000001001100010;
	38 :	0000111111110011;
	37 :	0000000110001010;
	36 :	1111001101110111;
	35 :	1111100111010100;
	34 :	1111111010110100;
	33 :	0000010010010010;
	32 :	1111110101010001;
	31 :	1111110010111000;
	30 :	0001101000000011;
	29 :	0000111001001001;
	28 :	1111011011101010;
	27 :	1111010110000101;
	26 :	0000001111011111;
	25 :	0000010100100101;
	24 :	1111110111111100;
	23 :	0000001100001110;
	22 :	0000010110011001;
	21 :	0000101101101011;
	20 :	1111110001111000;
	19 :	1111111001000000;
	18 :	0000001011000100;
	17 :	0000000010011011;
	16 :	1111101110101011;
	15 :	0000010111101111;
	14 :	1111110110101101;
	13 :	0000011101110000;
	12 :	0000101000101101;
	11 :	1111111100111100;
	10 :	0000011000100111;
	9 :	1111110001001110;
	8 :	1111111110110011;
	7 :	0000101011110110;
	6 :	0000101111101101;
	5 :	1111100101111001;
	4 :	1111111101110100;
	3 :	0000000001000000;
	2 :	0000001111010000;
	1 :	1111100101111111;
	0 :	1111110111001001;
END;
