-- begin_signature
-- Weight_Memory(numWeight
-- 45
-- neuronNo
-- 39
-- layerNo
-- 2
-- addressWidth
-- 6
-- dataWidth
-- 16
-- weightFile
-- "w_2_39.mif")
-- end_signature
WIDTH=16;
DEPTH=45;

ADDRESS_RADIX=UNS;
DATA_RADIX=BIN;

CONTENT BEGIN
	44 :	1111110010111010;
	43 :	0000010011111100;
	42 :	0000011011110001;
	41 :	0000111101010100;
	40 :	0000001010111111;
	39 :	1111010000100101;
	38 :	1111111011000100;
	37 :	1111111110100101;
	36 :	0000010110010000;
	35 :	0000100011011100;
	34 :	1111001001000111;
	33 :	0000000010110110;
	32 :	0001001101010011;
	31 :	0000010000011010;
	30 :	0000001001111111;
	29 :	1111100011111100;
	28 :	0000000000110000;
	27 :	1111011011100110;
	26 :	1111101010100111;
	25 :	0000110100011011;
	24 :	0001001110010011;
	23 :	1111010101111001;
	22 :	0000000000001010;
	21 :	1110111000000110;
	20 :	1111010110010110;
	19 :	0000000110000011;
	18 :	0000101011011001;
	17 :	1110101111100111;
	16 :	1111101001110111;
	15 :	0000011100010100;
	14 :	1110101100111001;
	13 :	0000100001011111;
	12 :	0000101010001000;
	11 :	0000011111111000;
	10 :	0000011010101001;
	9 :	0000000010101110;
	8 :	1111111011001011;
	7 :	0000010010000101;
	6 :	1111100101111010;
	5 :	0000011001001010;
	4 :	0000010101000010;
	3 :	1111110001111001;
	2 :	1111001100001110;
	1 :	1110101010010011;
	0 :	1111011101100011;
END;
