-- begin_signature
-- Weight_Memory(numWeight
-- 64
-- neuronNo
-- 22
-- layerNo
-- 1
-- addressWidth
-- 6
-- dataWidth
-- 16
-- weightFile
-- "w_1_22.mif")
-- end_signature
WIDTH=16;
DEPTH=64;

ADDRESS_RADIX=UNS;
DATA_RADIX=BIN;

CONTENT BEGIN
	63 :	0000001100001110;
	62 :	0000000111001101;
	61 :	0000011001110010;
	60 :	1111111001000010;
	59 :	1111101001001000;
	58 :	1110111111110101;
	57 :	1111000000101100;
	56 :	1111011111110001;
	55 :	0000100110011100;
	54 :	0000010001110100;
	53 :	1111111001010001;
	52 :	1111101010101001;
	51 :	0000000001111111;
	50 :	1111101100110000;
	49 :	1111100001110111;
	48 :	0000000011110011;
	47 :	0000010010101010;
	46 :	0000000110111001;
	45 :	0000010101100100;
	44 :	0000100010100010;
	43 :	0001001011010001;
	42 :	0001001111000011;
	41 :	0000100110001001;
	40 :	1111111111011100;
	39 :	0000000010000110;
	38 :	1111011111101100;
	37 :	0000100011000101;
	36 :	0000110111000001;
	35 :	0000101010011010;
	34 :	0000010001001100;
	33 :	0000000011110000;
	32 :	1111111100001000;
	31 :	0000100011101100;
	30 :	1111110001000000;
	29 :	0000001000010100;
	28 :	1111111001110101;
	27 :	0000011010010011;
	26 :	1111110100011000;
	25 :	1111110001101100;
	24 :	0000010000110001;
	23 :	0000001000101111;
	22 :	0000001110000010;
	21 :	1111101100001001;
	20 :	0000010000001010;
	19 :	0000110001011010;
	18 :	1111110011010011;
	17 :	1111101010101000;
	16 :	0000011001100000;
	15 :	0000000100001110;
	14 :	1111111111100010;
	13 :	0000000111100010;
	12 :	1111101010000100;
	11 :	1111101011011010;
	10 :	1111000110100010;
	9 :	1111011011010000;
	8 :	0000011010010010;
	7 :	0000011000110111;
	6 :	1111100100010111;
	5 :	0000000011100001;
	4 :	1111101111100110;
	3 :	1111101110011011;
	2 :	1110111101100011;
	1 :	1111001100110011;
	0 :	0000000111101101;
END;
