-- begin_signature
-- Weight_Memory(numWeight
-- 45
-- neuronNo
-- 25
-- layerNo
-- 2
-- addressWidth
-- 6
-- dataWidth
-- 16
-- weightFile
-- "w_2_25.mif")
-- end_signature
WIDTH=16;
DEPTH=45;

ADDRESS_RADIX=UNS;
DATA_RADIX=BIN;

CONTENT BEGIN
	44 :	0000000111000101;
	43 :	1111101100111010;
	42 :	0000100000110000;
	41 :	1111110111111000;
	40 :	0000010000100111;
	39 :	1111010011010010;
	38 :	1111110100001100;
	37 :	0000000100000001;
	36 :	0000011100101110;
	35 :	1111110101111110;
	34 :	0000000100110110;
	33 :	1111011101111000;
	32 :	1111101111000110;
	31 :	0000011000010100;
	30 :	0000010101000010;
	29 :	1111110111001011;
	28 :	0000010000000101;
	27 :	1111110001111101;
	26 :	0000100011001011;
	25 :	0000100011011100;
	24 :	1111111000011000;
	23 :	1111100010001011;
	22 :	1111111110011000;
	21 :	0000111111110111;
	20 :	0000001101111101;
	19 :	1111010000101010;
	18 :	1111010101101001;
	17 :	0001000010001000;
	16 :	1111110010101100;
	15 :	0000100010110100;
	14 :	1111110001001011;
	13 :	0000011111010100;
	12 :	1111100010010101;
	11 :	0001000011110110;
	10 :	0001011010100100;
	9 :	1111000100110010;
	8 :	1111110101010000;
	7 :	1111111001101110;
	6 :	1111100101110010;
	5 :	0000000101010111;
	4 :	1111101111110110;
	3 :	1111010101000101;
	2 :	0000000110010110;
	1 :	0000001001011001;
	0 :	0001011100110100;
END;
