-- begin_signature
-- Weight_Memory(numWeight
-- 64
-- neuronNo
-- 23
-- layerNo
-- 1
-- addressWidth
-- 6
-- dataWidth
-- 16
-- weightFile
-- "w_1_23.mif")
-- end_signature
WIDTH=16;
DEPTH=64;

ADDRESS_RADIX=UNS;
DATA_RADIX=BIN;

CONTENT BEGIN
	63 :	0001000100001010;
	62 :	0000001100011000;
	61 :	1111111110000001;
	60 :	1111010111111110;
	59 :	1111101000011101;
	58 :	1111011011001110;
	57 :	1111010101011001;
	56 :	1111100000111111;
	55 :	0000110110100000;
	54 :	1111011111101101;
	53 :	1111010101110110;
	52 :	0000000000011011;
	51 :	1111111010100001;
	50 :	1111010101010000;
	49 :	1111110110100011;
	48 :	0000001101100101;
	47 :	1111000011110001;
	46 :	1110101001010000;
	45 :	1111111000111110;
	44 :	0001000101001001;
	43 :	0000100111110001;
	42 :	1111110000010100;
	41 :	0000010100110000;
	40 :	0000101111000100;
	39 :	1111111110001101;
	38 :	0000000100000010;
	37 :	0000011000110001;
	36 :	0000011011000110;
	35 :	0000000001111010;
	34 :	0000001111101101;
	33 :	0000001111110000;
	32 :	1111111111011011;
	31 :	0000011011101101;
	30 :	0000110011001001;
	29 :	0000010011011111;
	28 :	0000011001101000;
	27 :	0000001001100000;
	26 :	1111110101100011;
	25 :	1111110101011100;
	24 :	0000101000010100;
	23 :	0000010010010001;
	22 :	0000001101000101;
	21 :	1111100111000111;
	20 :	0001000100000000;
	19 :	0000110110000110;
	18 :	1111100000101101;
	17 :	1111110111000101;
	16 :	0000011101100101;
	15 :	0000101101010111;
	14 :	1111110100001110;
	13 :	1111101100000111;
	12 :	0000000100011100;
	11 :	0000000001011110;
	10 :	1111010001010110;
	9 :	1111001100111100;
	8 :	0000001110100010;
	7 :	0000110000001101;
	6 :	0000000010100011;
	5 :	1111111100001011;
	4 :	1111011001000111;
	3 :	1111110100010100;
	2 :	1111011001011111;
	1 :	1111011011110000;
	0 :	0000001011101000;
END;
