-- begin_signature
-- Weight_Memory(numWeight
-- 45
-- neuronNo
-- 22
-- layerNo
-- 2
-- addressWidth
-- 6
-- dataWidth
-- 16
-- weightFile
-- "w_2_22.mif")
-- end_signature
WIDTH=16;
DEPTH=45;

ADDRESS_RADIX=UNS;
DATA_RADIX=BIN;

CONTENT BEGIN
	44 :	0000010000100010;
	43 :	1111101001011101;
	42 :	0000110110100001;
	41 :	0000101100010101;
	40 :	1111110110000100;
	39 :	1111100011011100;
	38 :	0000000000010110;
	37 :	0000011001000111;
	36 :	1111110010111101;
	35 :	1111101011011111;
	34 :	1111100110110011;
	33 :	0000011101010000;
	32 :	0000001100101000;
	31 :	0000100001101011;
	30 :	0000000100000100;
	29 :	1110101101011000;
	28 :	0000100000000001;
	27 :	0000011100010101;
	26 :	1111101010010100;
	25 :	0000011110001001;
	24 :	0000110000111011;
	23 :	1111110001101111;
	22 :	1111111010010101;
	21 :	1111110101110111;
	20 :	0000000101101101;
	19 :	1111111111011100;
	18 :	1111011101001101;
	17 :	1111000011101010;
	16 :	1111101110101000;
	15 :	0000000101000001;
	14 :	1111111011111010;
	13 :	0000001101000000;
	12 :	0000110101100010;
	11 :	0001001100110001;
	10 :	1111101000111000;
	9 :	1111001100101000;
	8 :	1111111100001100;
	7 :	1111110010001101;
	6 :	0000100001100010;
	5 :	1111111100101001;
	4 :	0000010011101100;
	3 :	1111111110100110;
	2 :	1111101110100101;
	1 :	1110011001010101;
	0 :	1111110001001011;
END;
