-- begin_signature
-- Weight_Memory(numWeight
-- 45
-- neuronNo
-- 7
-- layerNo
-- 2
-- addressWidth
-- 6
-- dataWidth
-- 16
-- weightFile
-- "w_2_7.mif")
-- end_signature
WIDTH=16;
DEPTH=45;

ADDRESS_RADIX=UNS;
DATA_RADIX=BIN;

CONTENT BEGIN
	44 :	1111001110110010;
	43 :	0000011000110001;
	42 :	1111011110010011;
	41 :	0000001001100100;
	40 :	0000000001001000;
	39 :	1111000000011010;
	38 :	0000001001110111;
	37 :	1111010111100010;
	36 :	1111110111001000;
	35 :	0000101011110010;
	34 :	1111110000110101;
	33 :	0000000111111101;
	32 :	0000110010100010;
	31 :	1110111110110010;
	30 :	1111111111011100;
	29 :	0000001100001101;
	28 :	1111010111011010;
	27 :	1111111000010001;
	26 :	1111101000000111;
	25 :	0000101010100110;
	24 :	0000101010111110;
	23 :	1111110001111110;
	22 :	1111100000101100;
	21 :	0000001111011101;
	20 :	0000000111110001;
	19 :	0000011010010010;
	18 :	1111111101011000;
	17 :	1111111110010010;
	16 :	0000100010010000;
	15 :	0000110110000101;
	14 :	1110111011101001;
	13 :	0000001101101011;
	12 :	0000011001111001;
	11 :	0000000111000000;
	10 :	0000011111000001;
	9 :	1111100001110011;
	8 :	0000011101000111;
	7 :	0000101100111110;
	6 :	1111110111110111;
	5 :	0000110101110110;
	4 :	1111000111110110;
	3 :	1111100010110101;
	2 :	1111100011110011;
	1 :	1111100110000101;
	0 :	0000100111101000;
END;
