-- begin_signature
-- Weight_Memory(numWeight
-- 45
-- neuronNo
-- 23
-- layerNo
-- 2
-- addressWidth
-- 6
-- dataWidth
-- 16
-- weightFile
-- "w_2_23.mif")
-- end_signature
WIDTH=16;
DEPTH=45;

ADDRESS_RADIX=UNS;
DATA_RADIX=BIN;

CONTENT BEGIN
	44 :	1111111010101000;
	43 :	0000001100000001;
	42 :	1111111100100110;
	41 :	0000000000101001;
	40 :	0000011100011101;
	39 :	0000101000011111;
	38 :	0000001111001010;
	37 :	1111111100101010;
	36 :	0000110001011001;
	35 :	0000101010000000;
	34 :	1111100011001001;
	33 :	1111101111110100;
	32 :	0001000111010011;
	31 :	0000001100000110;
	30 :	1111110000000011;
	29 :	0000110100100111;
	28 :	1111100101100101;
	27 :	1111101110001000;
	26 :	1111110011000001;
	25 :	1111010010010001;
	24 :	0000101000111000;
	23 :	1111010111011011;
	22 :	0000001000011011;
	21 :	1110110111010101;
	20 :	1111011100111011;
	19 :	0000110111001011;
	18 :	0001111001000010;
	17 :	1111110101111001;
	16 :	1111111111101101;
	15 :	0000000101011010;
	14 :	1111111111000111;
	13 :	1111101011101001;
	12 :	1111100011110011;
	11 :	1110101101001101;
	10 :	1111101011010101;
	9 :	0000110011001111;
	8 :	1111011011011010;
	7 :	0000001110110001;
	6 :	1111010100011011;
	5 :	0000010101100101;
	4 :	0000100001000011;
	3 :	0000101100000100;
	2 :	1111100000110110;
	1 :	1111111111000000;
	0 :	1111001001011000;
END;
