-- begin_signature
-- Weight_Memory(numWeight
-- 45
-- neuronNo
-- 27
-- layerNo
-- 2
-- addressWidth
-- 6
-- dataWidth
-- 16
-- weightFile
-- "w_2_27.mif")
-- end_signature
WIDTH=16;
DEPTH=45;

ADDRESS_RADIX=UNS;
DATA_RADIX=BIN;

CONTENT BEGIN
	44 :	1111111001111011;
	43 :	0000000110111000;
	42 :	1110111110110100;
	41 :	1111001000000111;
	40 :	1111111010100010;
	39 :	0001010001011100;
	38 :	0000101100010110;
	37 :	1110110100101000;
	36 :	1111100011010100;
	35 :	1111111011011100;
	34 :	0000011011001000;
	33 :	0000001001011100;
	32 :	1111100100110110;
	31 :	1111100011111000;
	30 :	1111111011101100;
	29 :	0001000101110000;
	28 :	0000000000000010;
	27 :	1111001100110111;
	26 :	0000000011100101;
	25 :	1111011010001101;
	24 :	1111101011001100;
	23 :	0000111101000100;
	22 :	1111111100011111;
	21 :	0000001101100010;
	20 :	1111101100111001;
	19 :	0000010111000100;
	18 :	0000011000110001;
	17 :	0000010111000100;
	16 :	0000101101101000;
	15 :	1111101110111100;
	14 :	0000000100110111;
	13 :	1111110000011001;
	12 :	1111111110111000;
	11 :	1111111011001000;
	10 :	0000001010100101;
	9 :	0001011001001100;
	8 :	1111100111001100;
	7 :	0000001101111101;
	6 :	1111101000010100;
	5 :	1111110000111101;
	4 :	1111110011100001;
	3 :	0000000000101010;
	2 :	1111011010001100;
	1 :	0000110010010100;
	0 :	0000011101100010;
END;
