-- begin_signature
-- Weight_Memory(numWeight
-- 64
-- neuronNo
-- 39
-- layerNo
-- 1
-- addressWidth
-- 6
-- dataWidth
-- 16
-- weightFile
-- "w_1_39.mif")
-- end_signature
WIDTH=16;
DEPTH=64;

ADDRESS_RADIX=UNS;
DATA_RADIX=BIN;

CONTENT BEGIN
	63 :	1111001110000110;
	62 :	1110101100111101;
	61 :	1110100101111011;
	60 :	1111010001101011;
	59 :	1111110010011101;
	58 :	0000100011110001;
	57 :	0000000011111000;
	56 :	1111100011100011;
	55 :	1111101010100110;
	54 :	1110111010111000;
	53 :	1110101110001010;
	52 :	1111100111010000;
	51 :	1111110001000011;
	50 :	1111010010001001;
	49 :	0000000110000110;
	48 :	0000001000001101;
	47 :	0000000111110000;
	46 :	0000010011010111;
	45 :	0000011000010110;
	44 :	0000100100010011;
	43 :	0000001101101111;
	42 :	1111100010011110;
	41 :	0000101101111000;
	40 :	0000110001111100;
	39 :	1111110010111100;
	38 :	0001101100010011;
	37 :	0000110011010111;
	36 :	1111111010111100;
	35 :	1111101011111010;
	34 :	0000001001100010;
	33 :	0000100001110101;
	32 :	1111111100010010;
	31 :	0000000111001110;
	30 :	0001100011000111;
	29 :	0000001100010110;
	28 :	1111111101101111;
	27 :	1111100111011100;
	26 :	0000100101000101;
	25 :	0000001100101101;
	24 :	0000000111111000;
	23 :	0000011000000101;
	22 :	1111110010101000;
	21 :	0000001001000001;
	20 :	1111100110111100;
	19 :	1111111110111100;
	18 :	1111110100101100;
	17 :	1111101101110110;
	16 :	1111101011010000;
	15 :	0000111010000100;
	14 :	1111110001000001;
	13 :	1111101010011011;
	12 :	0000010100010010;
	11 :	0000000001110010;
	10 :	0000010000010111;
	9 :	0000000111101001;
	8 :	0000011010010101;
	7 :	0001000100110101;
	6 :	0000111000000111;
	5 :	1111101000101101;
	4 :	0000001011100101;
	3 :	0000000010000111;
	2 :	0000011011011011;
	1 :	0000011001011110;
	0 :	0000000111010010;
END;
