-- begin_signature
-- Weight_Memory(numWeight
-- 45
-- neuronNo
-- 16
-- layerNo
-- 2
-- addressWidth
-- 6
-- dataWidth
-- 16
-- weightFile
-- "w_2_16.mif")
-- end_signature
WIDTH=16;
DEPTH=45;

ADDRESS_RADIX=UNS;
DATA_RADIX=BIN;

CONTENT BEGIN
	44 :	0000111000001100;
	43 :	0000000100010100;
	42 :	0000110010000001;
	41 :	0000011110000000;
	40 :	1111111011111111;
	39 :	0001010010110010;
	38 :	1111011011101010;
	37 :	0000010000011100;
	36 :	0001000000111111;
	35 :	0000000001000101;
	34 :	0000001000001011;
	33 :	1111101101001010;
	32 :	0000001101111001;
	31 :	0001010001101001;
	30 :	1111111111010101;
	29 :	0000001010101100;
	28 :	0000000000000100;
	27 :	0000010001000110;
	26 :	0000000001110000;
	25 :	1111000000010101;
	24 :	1111101001010100;
	23 :	0000000000110111;
	22 :	1111111101111011;
	21 :	1111011110100110;
	20 :	1111100111010000;
	19 :	0000001011010011;
	18 :	0000111101001101;
	17 :	1111111110011110;
	16 :	1111010110100000;
	15 :	1111011100011111;
	14 :	0000011010111010;
	13 :	1111111100001010;
	12 :	1111000011110010;
	11 :	0000110000011110;
	10 :	1111001010110010;
	9 :	0000111111000100;
	8 :	1111000011110110;
	7 :	1111010011010100;
	6 :	1111101100101100;
	5 :	1111100001101011;
	4 :	0001000010011110;
	3 :	1111101101111001;
	2 :	1111110110010011;
	1 :	0000000101001011;
	0 :	1111010111100001;
END;
