-- begin_signature
-- Weight_Memory(numWeight
-- 45
-- neuronNo
-- 12
-- layerNo
-- 2
-- addressWidth
-- 6
-- dataWidth
-- 16
-- weightFile
-- "w_2_12.mif")
-- end_signature
WIDTH=16;
DEPTH=45;

ADDRESS_RADIX=UNS;
DATA_RADIX=BIN;

CONTENT BEGIN
	44 :	0000000001101000;
	43 :	0000011110101000;
	42 :	0000100110101011;
	41 :	0000001111001110;
	40 :	1111101010110001;
	39 :	1111111100011001;
	38 :	0000101000011010;
	37 :	1111001111001111;
	36 :	0001011010011101;
	35 :	0000001011000011;
	34 :	1111011100010111;
	33 :	1111101010110010;
	32 :	1111011000100111;
	31 :	0001011010011010;
	30 :	1111010111001000;
	29 :	0000110001011010;
	28 :	1111001010100010;
	27 :	1111101111001010;
	26 :	0000000001100010;
	25 :	0000010110100011;
	24 :	1111100101000001;
	23 :	0000010110001010;
	22 :	0000011001010011;
	21 :	0000010101111101;
	20 :	0000010010001111;
	19 :	1111000111011111;
	18 :	0000000100011000;
	17 :	0001100010101111;
	16 :	1111111101000010;
	15 :	0000100111000001;
	14 :	1111100011011110;
	13 :	1111000101010001;
	12 :	0000110101100101;
	11 :	1111001001101011;
	10 :	0000000100011011;
	9 :	0000000110100010;
	8 :	0000100011111100;
	7 :	0000110011001001;
	6 :	0000001101001100;
	5 :	1111110111011101;
	4 :	1111111110011001;
	3 :	0000011101011000;
	2 :	1110110111010011;
	1 :	1111110111101000;
	0 :	0000011010110100;
END;
