-- begin_signature
-- Weight_Memory(numWeight
-- 64
-- neuronNo
-- 6
-- layerNo
-- 1
-- addressWidth
-- 6
-- dataWidth
-- 16
-- weightFile
-- "w_1_6.mif")
-- end_signature
WIDTH=16;
DEPTH=64;

ADDRESS_RADIX=UNS;
DATA_RADIX=BIN;

CONTENT BEGIN
	63 :	0001000111001011;
	62 :	0000011100100110;
	61 :	0000110000111000;
	60 :	0000010010010100;
	59 :	0000000011011011;
	58 :	1111011000011110;
	57 :	1111010101110000;
	56 :	0000010110011111;
	55 :	0000000101100110;
	54 :	0000010001110101;
	53 :	0000101100100000;
	52 :	1111111000100100;
	51 :	0000010001001001;
	50 :	0000011101000011;
	49 :	1111110001100110;
	48 :	1111101001000001;
	47 :	1111110101010110;
	46 :	1111101010110100;
	45 :	1111111101011001;
	44 :	1111101001101011;
	43 :	0000011100000010;
	42 :	0000111100100010;
	41 :	1111011110111110;
	40 :	1110111110101010;
	39 :	1111110101110110;
	38 :	1111011100010101;
	37 :	1111011110101111;
	36 :	0000010000111000;
	35 :	0000010101011101;
	34 :	1111101011101001;
	33 :	1111010111011100;
	32 :	1111111111010000;
	31 :	1111101011011101;
	30 :	1111110010000010;
	29 :	0000000000010110;
	28 :	1111110000010010;
	27 :	1111100011011011;
	26 :	1110111000000001;
	25 :	1111001000110001;
	24 :	0000000111111010;
	23 :	1111111100001010;
	22 :	0000111100110110;
	21 :	0001010011001010;
	20 :	0001011011110110;
	19 :	1111110100000001;
	18 :	1111011001101111;
	17 :	1111110111100101;
	16 :	0000100101110111;
	15 :	0000000010110000;
	14 :	0000000110001000;
	13 :	0000100110010011;
	12 :	0000101011011110;
	11 :	1111101111011011;
	10 :	0000000001110000;
	9 :	1111111101110110;
	8 :	1111101000011001;
	7 :	0000010110000110;
	6 :	1111010111010101;
	5 :	1111111101001001;
	4 :	0000001000101010;
	3 :	0000100011011010;
	2 :	1111100110001001;
	1 :	1111110010001011;
	0 :	1111111101111001;
END;
