-- begin_signature
-- Weight_Memory(numWeight
-- 64
-- neuronNo
-- 9
-- layerNo
-- 1
-- addressWidth
-- 6
-- dataWidth
-- 16
-- weightFile
-- "w_1_9.mif")
-- end_signature
WIDTH=16;
DEPTH=64;

ADDRESS_RADIX=UNS;
DATA_RADIX=BIN;

CONTENT BEGIN
	63 :	1110101110010101;
	62 :	1110011000010100;
	61 :	1110000101111101;
	60 :	1111000001101111;
	59 :	1111111010011110;
	58 :	0000101100001111;
	57 :	0000011000110000;
	56 :	1111100011101011;
	55 :	1111010011010000;
	54 :	1110100110111001;
	53 :	1111000001001011;
	52 :	0000001101110100;
	51 :	1111101000100110;
	50 :	1111001101101100;
	49 :	0000010111010011;
	48 :	0000001011001100;
	47 :	1111011010110011;
	46 :	1111100011100101;
	45 :	0000100111000001;
	44 :	0000110101100010;
	43 :	0000000110111010;
	42 :	1111010000001100;
	41 :	0001000101011011;
	40 :	0000110110010000;
	39 :	1111111000110100;
	38 :	0001001110000000;
	37 :	0000010111100011;
	36 :	0000011000001101;
	35 :	1111011111100101;
	34 :	0000011011000001;
	33 :	0000100100110000;
	32 :	0000001001000011;
	31 :	0000011011101111;
	30 :	0000110110000110;
	29 :	0000010011000101;
	28 :	0000001001000111;
	27 :	0000000011011111;
	26 :	0000001111010101;
	25 :	0000011010101010;
	24 :	1111110111000010;
	23 :	0000010010101010;
	22 :	1111110011110001;
	21 :	1111011110011010;
	20 :	1111110100000111;
	19 :	0000000001011000;
	18 :	1111100011101010;
	17 :	1111111010111001;
	16 :	1111101100110110;
	15 :	0000101011011011;
	14 :	1111110010001001;
	13 :	1111011100000001;
	12 :	0000001011110010;
	11 :	0000000001001000;
	10 :	1111111101011001;
	9 :	0000001100011000;
	8 :	0000010101011111;
	7 :	0001000101001100;
	6 :	0001010100100100;
	5 :	0000010101100100;
	4 :	0000000111001100;
	3 :	1111111010000110;
	2 :	0000101110101101;
	1 :	0000110001111100;
	0 :	0000001011100111;
END;
