-- begin_signature
-- Weight_Memory(numWeight
-- 45
-- neuronNo
-- 1
-- layerNo
-- 2
-- addressWidth
-- 6
-- dataWidth
-- 16
-- weightFile
-- "w_2_1.mif")
-- end_signature
WIDTH=16;
DEPTH=45;

ADDRESS_RADIX=UNS;
DATA_RADIX=BIN;

CONTENT BEGIN
	44 :	0000011010000111;
	43 :	1111010110111000;
	42 :	0000010110100010;
	41 :	1111100000111001;
	40 :	1111101001001101;
	39 :	1111011011001001;
	38 :	1111111001001100;
	37 :	0000011001001011;
	36 :	1111111110001100;
	35 :	1111101011000000;
	34 :	0000000110000100;
	33 :	0000001101010111;
	32 :	1111100001110111;
	31 :	0000001111001101;
	30 :	0000111011100100;
	29 :	1111110101111110;
	28 :	0000110001110101;
	27 :	0000010000101110;
	26 :	0000100101111011;
	25 :	0000010110100101;
	24 :	1111111101000110;
	23 :	0000010110011011;
	22 :	0000110000101111;
	21 :	0000101110010000;
	20 :	1111100110101111;
	19 :	1111011110010010;
	18 :	1111001110011111;
	17 :	0000100111000000;
	16 :	1111101100010011;
	15 :	1111100011100010;
	14 :	0000011000010100;
	13 :	0000110011000100;
	12 :	1111110011110011;
	11 :	0000101110011001;
	10 :	0000000010000000;
	9 :	1111000111101101;
	8 :	1111111001011000;
	7 :	1111001111100000;
	6 :	0000000111011101;
	5 :	1111010100011111;
	4 :	0000001101100001;
	3 :	0000001011000000;
	2 :	0000011100111001;
	1 :	0000010011101110;
	0 :	0000000101011110;
END;
