-- begin_signature
-- Weight_Memory(numWeight
-- 37
-- neuronNo
-- 1
-- layerNo
-- 3
-- addressWidth
-- 6
-- dataWidth
-- 16
-- weightFile
-- "w_3_1.mif")
-- end_signature
WIDTH=16;
DEPTH=37;

ADDRESS_RADIX=UNS;
DATA_RADIX=BIN;

CONTENT BEGIN
	36 :	1110100101100000;
	35 :	1111100111001100;
	34 :	1110101101101101;
	33 :	1110110110010101;
	32 :	1110101011011001;
	31 :	0000101100010000;
	30 :	1111111110100000;
	29 :	1111110000100011;
	28 :	1111000010111111;
	27 :	0000001111000111;
	26 :	0000010000011101;
	25 :	1111010001111110;
	24 :	0000011111111101;
	23 :	1111011000001110;
	22 :	1110111010101011;
	21 :	1110010010110000;
	20 :	1111111011111010;
	19 :	1110100000001110;
	18 :	1111100000001000;
	17 :	1110111000100010;
	16 :	0000010111100101;
	15 :	0000011100011001;
	14 :	0000101100001001;
	13 :	1110111110110100;
	12 :	0000011110011100;
	11 :	1110011101110110;
	10 :	1111110001001001;
	9 :	0001000000001010;
	8 :	1111100110110111;
	7 :	0000101101000111;
	6 :	0000110001101110;
	5 :	1110001101110111;
	4 :	0000001011000110;
	3 :	0000110101010011;
	2 :	0000000001001000;
	1 :	0000011001001101;
	0 :	0000011001001001;
END;
