-- begin_signature
-- Weight_Memory(numWeight
-- 45
-- neuronNo
-- 13
-- layerNo
-- 2
-- addressWidth
-- 6
-- dataWidth
-- 16
-- weightFile
-- "w_2_13.mif")
-- end_signature
WIDTH=16;
DEPTH=45;

ADDRESS_RADIX=UNS;
DATA_RADIX=BIN;

CONTENT BEGIN
	44 :	1111001000011011;
	43 :	0000001001100110;
	42 :	1110110100010000;
	41 :	0000000010000101;
	40 :	0000011010011101;
	39 :	1111000100100100;
	38 :	0000100110101111;
	37 :	1111010101110111;
	36 :	1111010000000111;
	35 :	0000100111101111;
	34 :	1111100100100001;
	33 :	0000000010101010;
	32 :	0000100011000010;
	31 :	1110101110110010;
	30 :	1111110111100001;
	29 :	0000011111111011;
	28 :	1111010001100001;
	27 :	1111100000100000;
	26 :	1111100000110110;
	25 :	0000011111101111;
	24 :	0000011010010100;
	23 :	1111111000000100;
	22 :	1111110110101001;
	21 :	1111111101100101;
	20 :	0000010001001110;
	19 :	0000010001011111;
	18 :	1111100110101000;
	17 :	0000000111101001;
	16 :	0000110011110011;
	15 :	0000010101100011;
	14 :	1111001001011101;
	13 :	1111101100101001;
	12 :	0000001010010011;
	11 :	1111001010001101;
	10 :	0000100101001100;
	9 :	1111011000111010;
	8 :	0000100011111111;
	7 :	0001000010110111;
	6 :	0000010000111110;
	5 :	0000101011010111;
	4 :	1111001111011011;
	3 :	1111110110110100;
	2 :	1111101011110001;
	1 :	0000001101111110;
	0 :	0000111011011100;
END;
