-- begin_signature
-- Weight_Memory(numWeight
-- 45
-- neuronNo
-- 11
-- layerNo
-- 2
-- addressWidth
-- 6
-- dataWidth
-- 16
-- weightFile
-- "w_2_11.mif")
-- end_signature
WIDTH=16;
DEPTH=45;

ADDRESS_RADIX=UNS;
DATA_RADIX=BIN;

CONTENT BEGIN
	44 :	1111011101101111;
	43 :	1111111101001110;
	42 :	1110101011010000;
	41 :	1111100101011001;
	40 :	1111110111011000;
	39 :	0000000100111110;
	38 :	0000011111000101;
	37 :	1111001011100101;
	36 :	1111000100111001;
	35 :	0000010101001011;
	34 :	1111110000110010;
	33 :	0001001111110111;
	32 :	0000100011000000;
	31 :	1110101010111000;
	30 :	0000101100101000;
	29 :	0000000110101110;
	28 :	0000011001110111;
	27 :	1111010111000100;
	26 :	0000000100010011;
	25 :	0000001100001011;
	24 :	0000111001010100;
	23 :	0000011000110110;
	22 :	0000001000110111;
	21 :	1111110000101001;
	20 :	1111010110001001;
	19 :	0000101111111010;
	18 :	1111111011100001;
	17 :	1110110011111010;
	16 :	0000110010001001;
	15 :	1111101001110101;
	14 :	1111101111100110;
	13 :	0000000111110001;
	12 :	1111111010010110;
	11 :	0000001101111100;
	10 :	1111111011010001;
	9 :	0000011101111010;
	8 :	0000001111000100;
	7 :	1111101011011111;
	6 :	0000001111111100;
	5 :	0000011000010110;
	4 :	1111100001101100;
	3 :	0000100000111101;
	2 :	1111011010001010;
	1 :	1111011000011100;
	0 :	1111101000001000;
END;
