-- begin_signature
-- Weight_Memory(numWeight
-- 64
-- neuronNo
-- 24
-- layerNo
-- 1
-- addressWidth
-- 6
-- dataWidth
-- 16
-- weightFile
-- "w_1_24.mif")
-- end_signature
WIDTH=16;
DEPTH=64;

ADDRESS_RADIX=UNS;
DATA_RADIX=BIN;

CONTENT BEGIN
	63 :	0000110100111110;
	62 :	0000010001010000;
	61 :	0000100101010001;
	60 :	0000010011001010;
	59 :	0000010100100110;
	58 :	0000001111110010;
	57 :	0001010110001101;
	56 :	0000010000000010;
	55 :	0000010100111001;
	54 :	0000010010110100;
	53 :	0000111011111111;
	52 :	0000011000111101;
	51 :	0000100101001100;
	50 :	0000011111111101;
	49 :	1111101011001111;
	48 :	0000011001001001;
	47 :	0000010111100001;
	46 :	1111100100101000;
	45 :	1111101010011010;
	44 :	0000000110101001;
	43 :	0000101011110011;
	42 :	0000101011111101;
	41 :	1111011110001010;
	40 :	1111011010000000;
	39 :	0000001010101001;
	38 :	1110101110110100;
	37 :	1111101001000100;
	36 :	0000100111011000;
	35 :	0000100001011001;
	34 :	1111100101010010;
	33 :	1111100011001110;
	32 :	0000001001011100;
	31 :	1111100111010001;
	30 :	1110011010100100;
	29 :	1110111011000111;
	28 :	0000001010001010;
	27 :	0000000000011111;
	26 :	1111001110000110;
	25 :	1111011010101101;
	24 :	1111111111010010;
	23 :	1111110101011101;
	22 :	1111011111000001;
	21 :	1110101000100011;
	20 :	1111100000000111;
	19 :	1111011011011110;
	18 :	1111101110110010;
	17 :	1111101001110000;
	16 :	0000100001011101;
	15 :	0000010111100000;
	14 :	0000011001010101;
	13 :	1111111111010110;
	12 :	1111111011001101;
	11 :	1111111110111001;
	10 :	0000001101000011;
	9 :	0000100001001111;
	8 :	0000001110101001;
	7 :	0000000100001010;
	6 :	0000100101101110;
	5 :	0001000111011100;
	4 :	0000001101001110;
	3 :	0000001011001100;
	2 :	0000011111111100;
	1 :	0000101110010000;
	0 :	0000000001100111;
END;
