-- begin_signature
-- Weight_Memory(numWeight
-- 40
-- neuronNo
-- 8
-- layerNo
-- 3
-- addressWidth
-- 6
-- dataWidth
-- 16
-- weightFile
-- "w_3_8.mif")
-- end_signature
WIDTH=16;
DEPTH=40;

ADDRESS_RADIX=UNS;
DATA_RADIX=BIN;

CONTENT BEGIN
	39 :	1111100010010001;
	38 :	1110011101101001;
	37 :	1111111101001111;
	36 :	0000000100110100;
	35 :	1111011100101011;
	34 :	1110110110110001;
	33 :	1110110111100000;
	32 :	1110100110010010;
	31 :	0000011101100010;
	30 :	0000011100000110;
	29 :	1110110011011111;
	28 :	1111011101100100;
	27 :	0000000010011010;
	26 :	0000000000001110;
	25 :	0000010011110111;
	24 :	0000111010110111;
	23 :	0000000111010101;
	22 :	1111000010010101;
	21 :	1111001110100100;
	20 :	0000010011101011;
	19 :	0000100111101000;
	18 :	1110110001011110;
	17 :	0000010111111001;
	16 :	1110110011100010;
	15 :	1110000010111001;
	14 :	1111110000110111;
	13 :	0000100001011010;
	12 :	1111110010010001;
	11 :	0000010000100010;
	10 :	0000100000100010;
	9 :	0000100011001101;
	8 :	1111101001011011;
	7 :	0000010000111010;
	6 :	1111111000110000;
	5 :	1111001011000110;
	4 :	1110110000110000;
	3 :	0000101011000001;
	2 :	1110100000011101;
	1 :	0000011010001111;
	0 :	0000100111011111;
END;
