-- begin_signature
-- Weight_Memory(numWeight
-- 64
-- neuronNo
-- 35
-- layerNo
-- 1
-- addressWidth
-- 6
-- dataWidth
-- 16
-- weightFile
-- "w_1_35.mif")
-- end_signature
WIDTH=16;
DEPTH=64;

ADDRESS_RADIX=UNS;
DATA_RADIX=BIN;

CONTENT BEGIN
	63 :	1111010000111110;
	62 :	1111101110001101;
	61 :	0000010000001110;
	60 :	0000000100001100;
	59 :	0000000110111110;
	58 :	0000010110000011;
	57 :	0000010111101001;
	56 :	1111110110110011;
	55 :	0000001110101001;
	54 :	0000101101110101;
	53 :	1111111010101001;
	52 :	1111001001001110;
	51 :	1111100111111110;
	50 :	1111111101110001;
	49 :	1111110001010101;
	48 :	1111111001011111;
	47 :	0000010101010100;
	46 :	0000010011101011;
	45 :	1111110110111001;
	44 :	1111011001101001;
	43 :	1111101111101111;
	42 :	1111010110011100;
	41 :	1111000100100101;
	40 :	1111110110101001;
	39 :	0000000111100000;
	38 :	1111010101111100;
	37 :	0000000101111111;
	36 :	0000111000110100;
	35 :	0001000010110011;
	34 :	1111110111001010;
	33 :	1111001010101010;
	32 :	0000000100100110;
	31 :	1111111000000001;
	30 :	1110111100111110;
	29 :	1111101001011111;
	28 :	0001001111011110;
	27 :	0001001111110100;
	26 :	0000000101000100;
	25 :	1111101010001010;
	24 :	1111111110111110;
	23 :	1111111100000111;
	22 :	1111011110101010;
	21 :	1111100010010001;
	20 :	0000011111100100;
	19 :	1111101011011001;
	18 :	0000011000100010;
	17 :	0000011111110110;
	16 :	0000011101101001;
	15 :	0000000101111101;
	14 :	0000110110100100;
	13 :	0000000001000011;
	12 :	1111101111000000;
	11 :	1111111111010110;
	10 :	0000001011110101;
	9 :	0000011111011110;
	8 :	0000000001000000;
	7 :	0000010010101100;
	6 :	0001001001001101;
	5 :	0000111010011100;
	4 :	0000000001111000;
	3 :	0000000000001011;
	2 :	0000011100000111;
	1 :	0000010101110111;
	0 :	1111111011110010;
END;
