-- begin_signature
-- Weight_Memory(numWeight
-- 64
-- neuronNo
-- 26
-- layerNo
-- 1
-- addressWidth
-- 6
-- dataWidth
-- 16
-- weightFile
-- "w_1_26.mif")
-- end_signature
WIDTH=16;
DEPTH=64;

ADDRESS_RADIX=UNS;
DATA_RADIX=BIN;

CONTENT BEGIN
	63 :	0000011000100100;
	62 :	1111110111100100;
	61 :	1111110101011111;
	60 :	1111111101001111;
	59 :	1111101101100110;
	58 :	1111100100011101;
	57 :	0000000000011101;
	56 :	1111011010111010;
	55 :	0000100100111111;
	54 :	1111011100101010;
	53 :	1111101100011101;
	52 :	1111100011000000;
	51 :	0000000010000101;
	50 :	0000100011110111;
	49 :	1111110010100001;
	48 :	1111101100001011;
	47 :	0000010111101101;
	46 :	1111110111010101;
	45 :	0000001000110110;
	44 :	0000011100010010;
	43 :	0000111101100010;
	42 :	0001010000000000;
	41 :	1111100011100011;
	40 :	0000001111000100;
	39 :	0000001110110100;
	38 :	0000001100001101;
	37 :	0000000111000010;
	36 :	1111111011010111;
	35 :	0000001000001000;
	34 :	0000101101010101;
	33 :	0000110010011111;
	32 :	0000000011110110;
	31 :	0000100100001000;
	30 :	0000000100110111;
	29 :	1111111101100101;
	28 :	1111110100001011;
	27 :	0000011101100101;
	26 :	0001001001100010;
	25 :	0000110001000111;
	24 :	0000000010010100;
	23 :	1111110000100111;
	22 :	1111110010000011;
	21 :	1111101010000111;
	20 :	1111010001011010;
	19 :	0000101001000010;
	18 :	0001000100101101;
	17 :	0000001100100101;
	16 :	0000001000011000;
	15 :	1111101111111110;
	14 :	1111110000011110;
	13 :	1111110011100111;
	12 :	1111101010110101;
	11 :	0000001001110001;
	10 :	1111110111100101;
	9 :	1111101101011100;
	8 :	0000100000100011;
	7 :	1111101010001110;
	6 :	1111111001110110;
	5 :	1111110101001100;
	4 :	1111100010001010;
	3 :	1111100110010111;
	2 :	1111110100001000;
	1 :	1111101100101001;
	0 :	0000001110101111;
END;
