-- begin_signature
-- Weight_Memory(numWeight
-- 45
-- neuronNo
-- 32
-- layerNo
-- 2
-- addressWidth
-- 6
-- dataWidth
-- 16
-- weightFile
-- "w_2_32.mif")
-- end_signature
WIDTH=16;
DEPTH=45;

ADDRESS_RADIX=UNS;
DATA_RADIX=BIN;

CONTENT BEGIN
	44 :	0000101001000111;
	43 :	0000000010001100;
	42 :	0001000101110110;
	41 :	0000001010000001;
	40 :	1111100110110011;
	39 :	0001000100100111;
	38 :	1111101011000010;
	37 :	0000110101001001;
	36 :	0000110000001011;
	35 :	1111011011111100;
	34 :	0000001111111010;
	33 :	0000011000011010;
	32 :	0000000001101000;
	31 :	0001011010000111;
	30 :	0000010101110110;
	29 :	1111110010111100;
	28 :	0000010100000101;
	27 :	0000100100111100;
	26 :	1111111010000110;
	25 :	1111011010000111;
	24 :	1111100100110010;
	23 :	0000010001111011;
	22 :	0000010110001100;
	21 :	1111101011100110;
	20 :	0000001111010000;
	19 :	1111111001111111;
	18 :	0000100001000100;
	17 :	1111100101101100;
	16 :	1111001000101100;
	15 :	1111011100111010;
	14 :	0000101111100101;
	13 :	0000001000110100;
	12 :	0000001111001111;
	11 :	0000001100000000;
	10 :	1110110110110001;
	9 :	0000101010011111;
	8 :	1111100101110111;
	7 :	1111010101011000;
	6 :	1111110101100010;
	5 :	1111010100010101;
	4 :	0000111100010011;
	3 :	0000010101011101;
	2 :	0000000011101011;
	1 :	1111101010101110;
	0 :	1110101110100101;
END;
