-- begin_signature
-- Weight_Memory(numWeight
-- 37
-- neuronNo
-- 2
-- layerNo
-- 3
-- addressWidth
-- 6
-- dataWidth
-- 16
-- weightFile
-- "w_3_2.mif")
-- end_signature
WIDTH=16;
DEPTH=37;

ADDRESS_RADIX=UNS;
DATA_RADIX=BIN;

CONTENT BEGIN
	36 :	0000000010001110;
	35 :	1111001001111100;
	34 :	0000001111100000;
	33 :	1110110011000000;
	32 :	1111010010010010;
	31 :	0000101110111000;
	30 :	0000001100111001;
	29 :	0000101011111010;
	28 :	1111000011101110;
	27 :	1110101001011100;
	26 :	1111100011111111;
	25 :	1111111001100000;
	24 :	1111010110101001;
	23 :	1110101011010010;
	22 :	1111000100100011;
	21 :	1111011000010100;
	20 :	0000111010001110;
	19 :	0001010001010011;
	18 :	1111100101000101;
	17 :	1110000111111010;
	16 :	0000000101001111;
	15 :	0000001111111111;
	14 :	0000101100100010;
	13 :	1111010010100110;
	12 :	1111011000000001;
	11 :	1111110110000001;
	10 :	0001000110000010;
	9 :	1110101100000110;
	8 :	0000000101111101;
	7 :	1101100110001001;
	6 :	1110100100011110;
	5 :	1111100100101111;
	4 :	1110010100010011;
	3 :	1111011011100010;
	2 :	0000100110111101;
	1 :	1111111111011001;
	0 :	0001000100010100;
END;
