-- begin_signature
-- Weight_Memory(numWeight
-- 64
-- neuronNo
-- 11
-- layerNo
-- 1
-- addressWidth
-- 6
-- dataWidth
-- 16
-- weightFile
-- "w_1_11.mif")
-- end_signature
WIDTH=16;
DEPTH=64;

ADDRESS_RADIX=UNS;
DATA_RADIX=BIN;

CONTENT BEGIN
	63 :	0001100101001000;
	62 :	0001000101111100;
	61 :	0000000101010011;
	60 :	0000001001011111;
	59 :	1111111110000101;
	58 :	0000011011100001;
	57 :	0000110101001100;
	56 :	0000010110000110;
	55 :	0000100110001000;
	54 :	1111110011010110;
	53 :	0000011000100110;
	52 :	0001001111101100;
	51 :	0001001101010011;
	50 :	0000000101010011;
	49 :	1111111111000010;
	48 :	0000000110100010;
	47 :	0000100111111111;
	46 :	1111110110000000;
	45 :	1111011101100101;
	44 :	0000000101000101;
	43 :	0001000100010010;
	42 :	1111111100010000;
	41 :	0000010010100001;
	40 :	1111111000100111;
	39 :	1111110001010010;
	38 :	0000100101100110;
	37 :	1111110011100000;
	36 :	1111011110011111;
	35 :	1111001111001000;
	34 :	0000000101100111;
	33 :	0001011001101100;
	32 :	1111110011010011;
	31 :	0000011101000110;
	30 :	0000110001101010;
	29 :	1111100000101111;
	28 :	1111011010010001;
	27 :	1111000111111000;
	26 :	0000011001110011;
	25 :	0001001000111101;
	24 :	0000000001011100;
	23 :	1111111000110001;
	22 :	1111000110111110;
	21 :	1110011101000111;
	20 :	1110110000111110;
	19 :	0000001001000010;
	18 :	0000001100101011;
	17 :	1111111101100110;
	16 :	1111101110010011;
	15 :	1111101000010111;
	14 :	1111101011010010;
	13 :	1111000000010011;
	12 :	1111111110100001;
	11 :	0000100001111111;
	10 :	1111110110001000;
	9 :	1111111101000000;
	8 :	1111111010101010;
	7 :	1111111111111101;
	6 :	0000100100000101;
	5 :	0000000011110000;
	4 :	0000001001110001;
	3 :	0000000111111111;
	2 :	0000100100101000;
	1 :	0000101001011001;
	0 :	1111111101111111;
END;
