-- begin_signature
-- Weight_Memory(numWeight
-- 45
-- neuronNo
-- 26
-- layerNo
-- 2
-- addressWidth
-- 6
-- dataWidth
-- 16
-- weightFile
-- "w_2_26.mif")
-- end_signature
WIDTH=16;
DEPTH=45;

ADDRESS_RADIX=UNS;
DATA_RADIX=BIN;

CONTENT BEGIN
	44 :	1111100000011011;
	43 :	0000000010001100;
	42 :	0000101001001000;
	41 :	0000100010000010;
	40 :	0000011010011100;
	39 :	1111011110110101;
	38 :	0000000001101111;
	37 :	0000111011000001;
	36 :	0000011100101010;
	35 :	0000000110010110;
	34 :	1111011011011110;
	33 :	1111100101100000;
	32 :	0000101010110111;
	31 :	0000011000111101;
	30 :	1111101010000001;
	29 :	1111011111001110;
	28 :	1111110100000011;
	27 :	0001001011111011;
	26 :	1111110001011100;
	25 :	0000011100111110;
	24 :	0000011110000110;
	23 :	1110110011100011;
	22 :	0000000101101101;
	21 :	1111001010001101;
	20 :	0000000000100111;
	19 :	0000001101100011;
	18 :	0000010110100101;
	17 :	1111101100101110;
	16 :	1111010111011101;
	15 :	0000100000111011;
	14 :	1111101001011000;
	13 :	0000100000101010;
	12 :	0000011000111111;
	11 :	1111001000000011;
	10 :	1111010110100110;
	9 :	1111000100110101;
	8 :	0000010010000110;
	7 :	0000000100011000;
	6 :	0000001110001001;
	5 :	0000010100101101;
	4 :	1111111101110000;
	3 :	0000011111010101;
	2 :	0000010111010110;
	1 :	1111100100110000;
	0 :	1111101011011001;
END;
