-- begin_signature
-- Weight_Memory(numWeight
-- 64
-- neuronNo
-- 20
-- layerNo
-- 1
-- addressWidth
-- 6
-- dataWidth
-- 16
-- weightFile
-- "w_1_20.mif")
-- end_signature
WIDTH=16;
DEPTH=64;

ADDRESS_RADIX=UNS;
DATA_RADIX=BIN;

CONTENT BEGIN
	63 :	1111111111001101;
	62 :	0000101001001100;
	61 :	0000010000100000;
	60 :	0000010100111010;
	59 :	0000000111110001;
	58 :	0000010001010011;
	57 :	1111110010100001;
	56 :	0000010111111100;
	55 :	1111101010011110;
	54 :	0000101100101111;
	53 :	0000001101100110;
	52 :	0000011100110001;
	51 :	1111101111101101;
	50 :	0000001010101011;
	49 :	0000000100111101;
	48 :	0000000100010111;
	47 :	1111100000010111;
	46 :	1111111111010001;
	45 :	1111110111110001;
	44 :	1111010010001111;
	43 :	1110111001100011;
	42 :	1111010011101100;
	41 :	0000010111011000;
	40 :	1111101101000011;
	39 :	0000001110110001;
	38 :	0000010101001111;
	37 :	1111110111011011;
	36 :	1111000001101010;
	35 :	1111010000010101;
	34 :	1111011111100101;
	33 :	1111101101011101;
	32 :	0000001101000110;
	31 :	1111011011100000;
	30 :	0000011101000100;
	29 :	0000010001111100;
	28 :	0000000000100001;
	27 :	1111000101101111;
	26 :	1111100101101101;
	25 :	1111101110000111;
	24 :	1111100111010000;
	23 :	0000001111011011;
	22 :	0000101110011100;
	21 :	0001001011011110;
	20 :	0000100011100010;
	19 :	1111010101111110;
	18 :	1111111001010011;
	17 :	0000000000101000;
	16 :	1111101010100101;
	15 :	0000000010111100;
	14 :	1111111011000011;
	13 :	0000000101011011;
	12 :	0000100010111100;
	11 :	0000001011100110;
	10 :	0000001001111101;
	9 :	0000010001000101;
	8 :	1111110011100101;
	7 :	1111100101010101;
	6 :	1111011111111101;
	5 :	1111100001101100;
	4 :	0000000101010000;
	3 :	1111111111001101;
	2 :	0000000011101110;
	1 :	1111111000001011;
	0 :	0000000100000100;
END;
