-- begin_signature
-- Weight_Memory(numWeight
-- 64
-- neuronNo
-- 38
-- layerNo
-- 1
-- addressWidth
-- 6
-- dataWidth
-- 16
-- weightFile
-- "w_1_38.mif")
-- end_signature
WIDTH=16;
DEPTH=64;

ADDRESS_RADIX=UNS;
DATA_RADIX=BIN;

CONTENT BEGIN
	63 :	0000100010100110;
	62 :	1111110101000001;
	61 :	1111111100011001;
	60 :	1111111111001101;
	59 :	1111111100000010;
	58 :	1111101010101011;
	57 :	1111000111110001;
	56 :	1111101100011010;
	55 :	0000100100011100;
	54 :	0000010000001101;
	53 :	0000000000100110;
	52 :	1111111100011100;
	51 :	1111010101010000;
	50 :	1111101000110101;
	49 :	1111101101101001;
	48 :	1111110000100011;
	47 :	1111100100011001;
	46 :	0000000001011000;
	45 :	1111111010001101;
	44 :	0000001000101011;
	43 :	1111010010011111;
	42 :	1110111101010000;
	41 :	1111011111100111;
	40 :	0000010001001010;
	39 :	0000001011010101;
	38 :	1111010100000010;
	37 :	1111111101111101;
	36 :	0000010110110100;
	35 :	0000010000101110;
	34 :	1111101001001101;
	33 :	1110111100010000;
	32 :	1111110101100001;
	31 :	1111011100111011;
	30 :	1111001000010100;
	29 :	1111111110100011;
	28 :	0000100100110101;
	27 :	0000010011100011;
	26 :	1111101100011011;
	25 :	1111101001011001;
	24 :	1111111001111010;
	23 :	1111110111101000;
	22 :	0000000010100100;
	21 :	0000011010110001;
	20 :	0001000011101010;
	19 :	0000001011011101;
	18 :	1111100100110100;
	17 :	1111011110011011;
	16 :	0000001011100100;
	15 :	0000000010110111;
	14 :	0000010111000101;
	13 :	0000000110110100;
	12 :	0000010100110101;
	11 :	1111110011111010;
	10 :	1111100001110010;
	9 :	1111011011000001;
	8 :	1111111011010000;
	7 :	1111110101011111;
	6 :	1111110000001010;
	5 :	0000011111100111;
	4 :	1111111011000001;
	3 :	0000001110010110;
	2 :	1111100001101100;
	1 :	1111011011100111;
	0 :	1111111111000101;
END;
