-- begin_signature
-- Weight_Memory(numWeight
-- 64
-- neuronNo
-- 28
-- layerNo
-- 1
-- addressWidth
-- 6
-- dataWidth
-- 16
-- weightFile
-- "w_1_28.mif")
-- end_signature
WIDTH=16;
DEPTH=64;

ADDRESS_RADIX=UNS;
DATA_RADIX=BIN;

CONTENT BEGIN
	63 :	0001011001010111;
	62 :	0000010101000010;
	61 :	1111111010110011;
	60 :	1111111110010011;
	59 :	0000000100011011;
	58 :	1111110011000001;
	57 :	0000000101001110;
	56 :	0000011100100001;
	55 :	0000100000001001;
	54 :	1111100011001111;
	53 :	0000000010101111;
	52 :	0000000001101001;
	51 :	0001000110111111;
	50 :	0000010000011010;
	49 :	1111101111100011;
	48 :	0000001110111111;
	47 :	0000100100001110;
	46 :	1110111001110111;
	45 :	1111101011111100;
	44 :	0000110011010110;
	43 :	0010011010101010;
	42 :	0001111111000101;
	41 :	0000000100100001;
	40 :	0000010011000011;
	39 :	1111110001110101;
	38 :	1111011110111100;
	37 :	1111110011100010;
	36 :	0000011101111000;
	35 :	0000000000011110;
	34 :	0000010001110001;
	33 :	0001000001110000;
	32 :	0000001100111111;
	31 :	0000101010011000;
	30 :	0000001011001010;
	29 :	1111111101001000;
	28 :	1111100100011001;
	27 :	1111101001111100;
	26 :	1111111001000101;
	25 :	0000001010100101;
	24 :	0000010001000000;
	23 :	0000011001011010;
	22 :	1111111110010111;
	21 :	1110111111010010;
	20 :	1111001001111000;
	19 :	0000010111011110;
	18 :	0000001000111001;
	17 :	1111111101111011;
	16 :	0000000110111101;
	15 :	0000001010100001;
	14 :	1111101100110000;
	13 :	1111110000001011;
	12 :	1111111110111011;
	11 :	1111111000011110;
	10 :	0000000011001100;
	9 :	0000001101111000;
	8 :	0000001110100111;
	7 :	0000101101001110;
	6 :	1111101100001011;
	5 :	0000000001010001;
	4 :	1111111011010110;
	3 :	0000000001000011;
	2 :	0000001101011111;
	1 :	1111110110000000;
	0 :	0000000100001111;
END;
