-- begin_signature
-- Weight_Memory(numWeight
-- 45
-- neuronNo
-- 21
-- layerNo
-- 2
-- addressWidth
-- 6
-- dataWidth
-- 16
-- weightFile
-- "w_2_21.mif")
-- end_signature
WIDTH=16;
DEPTH=45;

ADDRESS_RADIX=UNS;
DATA_RADIX=BIN;

CONTENT BEGIN
	44 :	0000001001100100;
	43 :	0000000111010011;
	42 :	0000111001010111;
	41 :	1111111011010101;
	40 :	1111101001111101;
	39 :	0000011011001101;
	38 :	0000011100011001;
	37 :	0000101100111111;
	36 :	0000110010010110;
	35 :	1111111010000010;
	34 :	0000101000011111;
	33 :	0000010011100001;
	32 :	1111010100001010;
	31 :	0000111000111101;
	30 :	1111001111101011;
	29 :	1111100110001011;
	28 :	1111011110001100;
	27 :	0000100001100101;
	26 :	0000000110011001;
	25 :	0000000010101000;
	24 :	1111011110110001;
	23 :	0000110010100101;
	22 :	0000001111101110;
	21 :	0000010010100001;
	20 :	0000110000100001;
	19 :	1111011111111101;
	18 :	1111100100101101;
	17 :	0000110011100010;
	16 :	1111110111110100;
	15 :	0000001111011110;
	14 :	0000110111001101;
	13 :	1111110100100101;
	12 :	0000110010010010;
	11 :	1111110100011111;
	10 :	1111011100011010;
	9 :	1111101010010000;
	8 :	0000000101100111;
	7 :	0000000000010001;
	6 :	0000010001001111;
	5 :	1111001110111111;
	4 :	0000001111000001;
	3 :	1111111001001110;
	2 :	0000000011100101;
	1 :	1111111110000100;
	0 :	0000010011010111;
END;
