-- begin_signature
-- Weight_Memory(numWeight
-- 40
-- neuronNo
-- 5
-- layerNo
-- 3
-- addressWidth
-- 6
-- dataWidth
-- 16
-- weightFile
-- "w_3_5.mif")
-- end_signature
WIDTH=16;
DEPTH=40;

ADDRESS_RADIX=UNS;
DATA_RADIX=BIN;

CONTENT BEGIN
	39 :	0000111100101110;
	38 :	1111111111101110;
	37 :	0000010001111000;
	36 :	1110110111111000;
	35 :	1110100110101100;
	34 :	1110111110111010;
	33 :	0000011000110101;
	32 :	1111000010100010;
	31 :	0000000111101001;
	30 :	0000010111100110;
	29 :	1111101011000001;
	28 :	0000110110110010;
	27 :	0000010111101100;
	26 :	1111001010110101;
	25 :	0000010000111110;
	24 :	1110101000010101;
	23 :	0000110001001011;
	22 :	1111011001000001;
	21 :	1110011011110010;
	20 :	1110010001110110;
	19 :	0000011101010100;
	18 :	0001001001111011;
	17 :	0000011011110111;
	16 :	0000000101101111;
	15 :	1111101011101101;
	14 :	1111111111100101;
	13 :	0000001001111001;
	12 :	1111010100001000;
	11 :	0000010001010011;
	10 :	1110010101101111;
	9 :	1110010111010001;
	8 :	1111011100011000;
	7 :	0000100000111111;
	6 :	1111100001000000;
	5 :	1110110001000010;
	4 :	0000100001110111;
	3 :	0000100110110011;
	2 :	0000100100111101;
	1 :	1111001100001000;
	0 :	1111100000000001;
END;
