-- begin_signature
-- Weight_Memory(numWeight
-- 45
-- neuronNo
-- 15
-- layerNo
-- 2
-- addressWidth
-- 6
-- dataWidth
-- 16
-- weightFile
-- "w_2_15.mif")
-- end_signature
WIDTH=16;
DEPTH=45;

ADDRESS_RADIX=UNS;
DATA_RADIX=BIN;

CONTENT BEGIN
	44 :	0000001010111110;
	43 :	0000011100001111;
	42 :	0001001000100110;
	41 :	0001000100111101;
	40 :	0000100011101111;
	39 :	1111011100000001;
	38 :	1111110111101000;
	37 :	0000011011110011;
	36 :	1111110000100011;
	35 :	1111010011011010;
	34 :	0000000110111000;
	33 :	0000011010010110;
	32 :	0000010111011000;
	31 :	0000100000110100;
	30 :	0000001001010000;
	29 :	1110010011000011;
	28 :	0000010011010011;
	27 :	0000010110010101;
	26 :	1111001110101001;
	25 :	0000001010011100;
	24 :	0000100100111111;
	23 :	1111011000110000;
	22 :	1111010111100110;
	21 :	1111111010000110;
	20 :	0000110010001001;
	19 :	0000000011001110;
	18 :	1111010111110101;
	17 :	1110101011110100;
	16 :	1111101001100000;
	15 :	0000010001001001;
	14 :	1111110101011000;
	13 :	1111111001010110;
	12 :	0000101101110000;
	11 :	0000110000001010;
	10 :	1111101111000001;
	9 :	0000000001011101;
	8 :	0000001001001110;
	7 :	0000001011010111;
	6 :	0000010010011001;
	5 :	0000001011011000;
	4 :	0000101100101100;
	3 :	1111100111101000;
	2 :	0000011100110011;
	1 :	1110011111010010;
	0 :	1111101110001111;
END;
