-- begin_signature
-- Weight_Memory(numWeight
-- 64
-- neuronNo
-- 14
-- layerNo
-- 1
-- addressWidth
-- 6
-- dataWidth
-- 16
-- weightFile
-- "w_1_14.mif")
-- end_signature
WIDTH=16;
DEPTH=64;

ADDRESS_RADIX=UNS;
DATA_RADIX=BIN;

CONTENT BEGIN
	63 :	0000011110011110;
	62 :	1111011011101000;
	61 :	1111011000111111;
	60 :	1111011111001110;
	59 :	1111100010100001;
	58 :	1111011011101010;
	57 :	1111010010011000;
	56 :	1111100101011101;
	55 :	1111101000001100;
	54 :	1111000101100011;
	53 :	1111001010110100;
	52 :	1111010101001001;
	51 :	0000001011111101;
	50 :	0000010000011100;
	49 :	1111111111100011;
	48 :	1111111000000011;
	47 :	1111101100110111;
	46 :	1111110001101100;
	45 :	1111111111111001;
	44 :	0000011101100011;
	43 :	0000100100110110;
	42 :	0000111110110110;
	41 :	0000101111101101;
	40 :	0000100101101111;
	39 :	0000001110101011;
	38 :	0001000011100000;
	37 :	0000010000100100;
	36 :	0000000001000001;
	35 :	1111110101100000;
	34 :	0000000111101010;
	33 :	0000100000010011;
	32 :	0000000011110100;
	31 :	0000010010110111;
	30 :	0001101010011011;
	29 :	0000100010111110;
	28 :	1111011011110100;
	27 :	1111001000001110;
	26 :	1111110101010011;
	25 :	1111111011111110;
	24 :	0000000111000000;
	23 :	0000010001101000;
	22 :	0000110000000010;
	21 :	0000111101111110;
	20 :	0000000111110011;
	19 :	1111110100101111;
	18 :	1111100110010010;
	17 :	0000000000110011;
	16 :	1111110110000011;
	15 :	0000001111010111;
	14 :	1111111000001000;
	13 :	0000011100111001;
	12 :	0000011000110000;
	11 :	1111110101000010;
	10 :	1111110010101100;
	9 :	1111101110100011;
	8 :	0000000101100001;
	7 :	0000100000000001;
	6 :	1111111010011000;
	5 :	1111100000110101;
	4 :	0000000001100000;
	3 :	1111110111111111;
	2 :	1111101001000110;
	1 :	1111011001011010;
	0 :	0000000010111110;
END;
