-- begin_signature
-- Weight_Memory(numWeight
-- 45
-- neuronNo
-- 28
-- layerNo
-- 2
-- addressWidth
-- 6
-- dataWidth
-- 16
-- weightFile
-- "w_2_28.mif")
-- end_signature
WIDTH=16;
DEPTH=45;

ADDRESS_RADIX=UNS;
DATA_RADIX=BIN;

CONTENT BEGIN
	44 :	0000001001101010;
	43 :	0000101001011011;
	42 :	0000100011011110;
	41 :	0000001011011001;
	40 :	0000111111011101;
	39 :	0000010111001100;
	38 :	1111101110110110;
	37 :	0000000111100111;
	36 :	0000010010111001;
	35 :	1111101011011001;
	34 :	0000110110110011;
	33 :	1111010010011010;
	32 :	0000000100100110;
	31 :	0000001101001001;
	30 :	1111111111110010;
	29 :	1111111001110101;
	28 :	1111100111001110;
	27 :	1111010110011001;
	26 :	0000010010100011;
	25 :	1111011111001000;
	24 :	1111011100111000;
	23 :	1111100001010001;
	22 :	1110111111100010;
	21 :	0000010011001100;
	20 :	0000001110101001;
	19 :	1111111011100010;
	18 :	1111101011011110;
	17 :	0000101111000111;
	16 :	1111101111110111;
	15 :	1111111000011000;
	14 :	1111100100101011;
	13 :	1111110111001101;
	12 :	1111011010101101;
	11 :	0000100100010001;
	10 :	0000100001000011;
	9 :	0000101111100110;
	8 :	1111001101000000;
	7 :	0000011001000001;
	6 :	1111011101011100;
	5 :	0000010001101011;
	4 :	0000000000110000;
	3 :	1110110111000011;
	2 :	0000001001001000;
	1 :	0000101001111010;
	0 :	0000101101100110;
END;
