-- begin_signature
-- Weight_Memory(numWeight
-- 40
-- neuronNo
-- 4
-- layerNo
-- 3
-- addressWidth
-- 6
-- dataWidth
-- 16
-- weightFile
-- "w_3_4.mif")
-- end_signature
WIDTH=16;
DEPTH=40;

ADDRESS_RADIX=UNS;
DATA_RADIX=BIN;

CONTENT BEGIN
	39 :	1110011000000000;
	38 :	0000001111000010;
	37 :	1111010110001101;
	36 :	0000010010001011;
	35 :	1111110011101111;
	34 :	1111010111100011;
	33 :	1110111110001100;
	32 :	0000100001101110;
	31 :	1111011010001010;
	30 :	1110100000001110;
	29 :	0000100101010010;
	28 :	0000001011011101;
	27 :	0000101000000000;
	26 :	1110000010001001;
	25 :	1111111011110111;
	24 :	0000101100100010;
	23 :	0000000010010011;
	22 :	1111000110001111;
	21 :	0000000111010100;
	20 :	1111000001111101;
	19 :	0000000010111111;
	18 :	0000110101011010;
	17 :	0000010011111011;
	16 :	0000011011001011;
	15 :	1110011110010101;
	14 :	1101110000000010;
	13 :	1110110000111011;
	12 :	0000100100111110;
	11 :	1111000011111001;
	10 :	0000011111000001;
	9 :	1111011111110001;
	8 :	1110111010001000;
	7 :	1110000101011111;
	6 :	1110010000101101;
	5 :	1111110100011111;
	4 :	0000101010110101;
	3 :	0000100001010100;
	2 :	0000011000111101;
	1 :	0000000001110100;
	0 :	0000011001111011;
END;
