-- begin_signature
-- Weight_Memory(numWeight
-- 64
-- neuronNo
-- 29
-- layerNo
-- 1
-- addressWidth
-- 6
-- dataWidth
-- 16
-- weightFile
-- "w_1_29.mif")
-- end_signature
WIDTH=16;
DEPTH=64;

ADDRESS_RADIX=UNS;
DATA_RADIX=BIN;

CONTENT BEGIN
	63 :	1111111111010010;
	62 :	1111010110110111;
	61 :	1111101011001111;
	60 :	1111111010000011;
	59 :	1111101010010010;
	58 :	1111101110101110;
	57 :	1111100100111001;
	56 :	1111110010110001;
	55 :	0000011110100101;
	54 :	1111011110011000;
	53 :	1111001100000000;
	52 :	1111001110100011;
	51 :	1110111101110001;
	50 :	1111110011001110;
	49 :	0000001001100010;
	48 :	0000000101100110;
	47 :	1110111110111000;
	46 :	1111100110111010;
	45 :	0000100011101001;
	44 :	0000100101000010;
	43 :	1111101111110001;
	42 :	1111001010110000;
	41 :	0000000000100001;
	40 :	0000101101101111;
	39 :	1111111100000011;
	38 :	1111111101101100;
	37 :	0000011100001101;
	36 :	0000010101011000;
	35 :	0000101111111101;
	34 :	0000010001011100;
	33 :	1111100001010000;
	32 :	1111111111011000;
	31 :	0000001110000110;
	30 :	1111111111111001;
	29 :	0000010100100111;
	28 :	0000111110111000;
	27 :	0001110011110000;
	26 :	0001010110101110;
	25 :	0000011010101100;
	24 :	0000010111111011;
	23 :	0000011111101110;
	22 :	1111101110010001;
	21 :	0000000001111100;
	20 :	1111101011000110;
	19 :	0001000011101111;
	18 :	0000011110110001;
	17 :	0000000101110101;
	16 :	0000011011101111;
	15 :	0000000010010100;
	14 :	0000001011100101;
	13 :	1111110100100101;
	12 :	1111010101011100;
	11 :	1111111011101010;
	10 :	0000000000001010;
	9 :	1111110100001110;
	8 :	0000100001000011;
	7 :	1111011011100000;
	6 :	0000100000011001;
	5 :	0000011010011101;
	4 :	0000000110000100;
	3 :	1111100111110000;
	2 :	0000000000100111;
	1 :	1111011111001001;
	0 :	1111111110110111;
END;
