-- begin_signature
-- Weight_Memory(numWeight
-- 64
-- neuronNo
-- 3
-- layerNo
-- 1
-- addressWidth
-- 6
-- dataWidth
-- 16
-- weightFile
-- "w_1_3.mif")
-- end_signature
WIDTH=16;
DEPTH=64;

ADDRESS_RADIX=UNS;
DATA_RADIX=BIN;

CONTENT BEGIN
	63 :	1111111011100110;
	62 :	1111100111101000;
	61 :	0000010110000000;
	60 :	1111110100110111;
	59 :	1111110011011001;
	58 :	1111000101110011;
	57 :	1111011101000000;
	56 :	1111100101001000;
	55 :	0000000110100101;
	54 :	0000001100100001;
	53 :	1111111011110011;
	52 :	1111011010011111;
	51 :	1111111000001000;
	50 :	0000000011100001;
	49 :	0000001010101010;
	48 :	0000000110110111;
	47 :	0000011000011101;
	46 :	0000001111001110;
	45 :	0000011001011110;
	44 :	0001000001001001;
	43 :	0001000100110101;
	42 :	0001001010001110;
	41 :	0000111101100101;
	40 :	0000001010101110;
	39 :	1111111111010001;
	38 :	1111100011111111;
	37 :	0000100100101011;
	36 :	0001010010010100;
	35 :	0000111011100001;
	34 :	0000000000111111;
	33 :	0000001001001010;
	32 :	1111111010000100;
	31 :	0000011011001110;
	30 :	1111100101100110;
	29 :	1111101110011100;
	28 :	0000100101111011;
	27 :	0000000000011000;
	26 :	1111100101010110;
	25 :	1111000101110111;
	24 :	0000011010111111;
	23 :	0000010110010001;
	22 :	0000010100110101;
	21 :	1111111010100010;
	20 :	0001000010111010;
	19 :	0000001011111001;
	18 :	1111001100001010;
	17 :	1111100110111000;
	16 :	0000100001001000;
	15 :	0000101011011001;
	14 :	0000000101000111;
	13 :	1111111100011011;
	12 :	0000000010010010;
	11 :	1111100101001101;
	10 :	1111011100110001;
	9 :	1111111000111110;
	8 :	0000001101010100;
	7 :	0000010101010110;
	6 :	1111111001010001;
	5 :	0000001100010000;
	4 :	1111111000111010;
	3 :	1111110011000010;
	2 :	1111000111101111;
	1 :	1111110001010111;
	0 :	1111110111010011;
END;
