-- begin_signature
-- Weight_Memory(numWeight
-- 45
-- neuronNo
-- 31
-- layerNo
-- 2
-- addressWidth
-- 6
-- dataWidth
-- 16
-- weightFile
-- "w_2_31.mif")
-- end_signature
WIDTH=16;
DEPTH=45;

ADDRESS_RADIX=UNS;
DATA_RADIX=BIN;

CONTENT BEGIN
	44 :	1111000001101111;
	43 :	1111110001001101;
	42 :	1110100110100010;
	41 :	1111011001001100;
	40 :	1111101111100100;
	39 :	1111111010111111;
	38 :	0000101100110101;
	37 :	1111101111101011;
	36 :	1111010100110111;
	35 :	0000110001001011;
	34 :	0000000100010010;
	33 :	0000111000001001;
	32 :	0000011111000101;
	31 :	1110110010001010;
	30 :	1111100101100111;
	29 :	0000100110100111;
	28 :	1111111110010101;
	27 :	0000000001011000;
	26 :	1111111001011101;
	25 :	1111110000111100;
	24 :	0000011000001111;
	23 :	0000011010111000;
	22 :	1111100111010001;
	21 :	0000011110001000;
	20 :	1111111100100101;
	19 :	0000111000101111;
	18 :	1111110110011000;
	17 :	1111110101101001;
	16 :	0001100000111001;
	15 :	1111110000100110;
	14 :	1111110011011111;
	13 :	0000001110011010;
	12 :	1111111010110010;
	11 :	1111011000011000;
	10 :	0000001100101000;
	9 :	0000000111101001;
	8 :	1111111111101110;
	7 :	0000101010110100;
	6 :	1111110110110101;
	5 :	0000000101000101;
	4 :	1111010000011011;
	3 :	0000001010110100;
	2 :	0000000001000001;
	1 :	0000010000111110;
	0 :	0000010010001100;
END;
