-- begin_signature
-- Weight_Memory(numWeight
-- 64
-- neuronNo
-- 42
-- layerNo
-- 1
-- addressWidth
-- 6
-- dataWidth
-- 16
-- weightFile
-- "w_1_42.mif")
-- end_signature
WIDTH=16;
DEPTH=64;

ADDRESS_RADIX=UNS;
DATA_RADIX=BIN;

CONTENT BEGIN
	63 :	1110101001001010;
	62 :	1111111001111100;
	61 :	0000011001110000;
	60 :	0000001101000001;
	59 :	1111100101111111;
	58 :	1111000101001011;
	57 :	1111011010110111;
	56 :	0000011001100101;
	55 :	1111000110011010;
	54 :	0000001110100001;
	53 :	0000001111000010;
	52 :	0000010001101010;
	51 :	0000001101100000;
	50 :	0000011010100011;
	49 :	0000000010111000;
	48 :	0000000101100111;
	47 :	0000101000110101;
	46 :	0000110111100111;
	45 :	0000011100000110;
	44 :	1111111101001100;
	43 :	0000000000110011;
	42 :	0000111001111010;
	41 :	0000101111100100;
	40 :	1111011000101101;
	39 :	1111110011000111;
	38 :	0000101111011000;
	37 :	1111111100101000;
	36 :	1111011001101000;
	35 :	1111011110111100;
	34 :	0000101111101010;
	33 :	0001010000000100;
	32 :	1111110111110000;
	31 :	0000010001011100;
	30 :	0000110001000000;
	29 :	1111100001101111;
	28 :	1110101110011110;
	27 :	1111001111011010;
	26 :	0000101100000011;
	25 :	0000001110111101;
	24 :	1111110111000110;
	23 :	1111100011111111;
	22 :	1111100111010101;
	21 :	1111101010111011;
	20 :	1110100111101100;
	19 :	0000011110111111;
	18 :	0000000001101100;
	17 :	1111010011101100;
	16 :	1111010110110101;
	15 :	1111010011111111;
	14 :	1111010010010010;
	13 :	1111101111101000;
	12 :	0000000011001100;
	11 :	0000000010100100;
	10 :	1111100101111000;
	9 :	1110110101001000;
	8 :	1111110011001010;
	7 :	1111100011001111;
	6 :	1110101000000011;
	5 :	1111000110101110;
	4 :	1111110110111011;
	3 :	1111100111100111;
	2 :	1110111010000100;
	1 :	1111001111111011;
	0 :	0000001011110100;
END;
