-- begin_signature
-- Weight_Memory(numWeight
-- 64
-- neuronNo
-- 31
-- layerNo
-- 1
-- addressWidth
-- 6
-- dataWidth
-- 16
-- weightFile
-- "w_1_31.mif")
-- end_signature
WIDTH=16;
DEPTH=64;

ADDRESS_RADIX=UNS;
DATA_RADIX=BIN;

CONTENT BEGIN
	63 :	1110110100110011;
	62 :	1111101101100010;
	61 :	0000001110001100;
	60 :	0000010001110000;
	59 :	1111100010101110;
	58 :	1110110001110010;
	57 :	1111000011000100;
	56 :	0000000110100010;
	55 :	1111100011111110;
	54 :	0000000100101111;
	53 :	1111111001110110;
	52 :	0000001111110111;
	51 :	0000000011101001;
	50 :	1111111001111010;
	49 :	1111111111001111;
	48 :	1111110100010011;
	47 :	0000101001111110;
	46 :	0000101010010100;
	45 :	0000010110101001;
	44 :	0000010000011010;
	43 :	0000010011010110;
	42 :	0000111011000101;
	41 :	0001000001110010;
	40 :	0000000010110001;
	39 :	1111110101010000;
	38 :	0000111101100000;
	37 :	0000100101000111;
	36 :	1111110011110001;
	35 :	1111100111111001;
	34 :	0000110110100001;
	33 :	0001000111100001;
	32 :	1111110001010100;
	31 :	0000011111001001;
	30 :	0001000000101000;
	29 :	1111101010001000;
	28 :	1110111000111100;
	27 :	1111101001101111;
	26 :	0000100010001101;
	25 :	0000101010100010;
	24 :	0000000000111111;
	23 :	0000001101110001;
	22 :	0000001011101011;
	21 :	1111011110100111;
	20 :	1111010100001101;
	19 :	0000100101000110;
	18 :	0000001000000010;
	17 :	1111010111110011;
	16 :	1111011100011010;
	15 :	1111111111011110;
	14 :	1111010110111011;
	13 :	1110111011110110;
	12 :	1111100101101010;
	11 :	0000000111011100;
	10 :	1111001101001001;
	9 :	1110111001010010;
	8 :	1111111001000111;
	7 :	0000000111100001;
	6 :	1110111101000011;
	5 :	1110011111000001;
	4 :	1111110110000110;
	3 :	1111100111000100;
	2 :	1110010101101111;
	1 :	1111010001001100;
	0 :	0000001000001000;
END;
