-- begin_signature
-- Weight_Memory(numWeight
-- 64
-- neuronNo
-- 25
-- layerNo
-- 1
-- addressWidth
-- 6
-- dataWidth
-- 16
-- weightFile
-- "w_1_25.mif")
-- end_signature
WIDTH=16;
DEPTH=64;

ADDRESS_RADIX=UNS;
DATA_RADIX=BIN;

CONTENT BEGIN
	63 :	0001001000011011;
	62 :	0000110111100001;
	61 :	0001010000101000;
	60 :	0000100111001011;
	59 :	0000000111110010;
	58 :	1111011011001010;
	57 :	0000000000001000;
	56 :	0000000110110010;
	55 :	0000101000111101;
	54 :	0000100110010110;
	53 :	0001001001000101;
	52 :	0000001010010111;
	51 :	0000000110110001;
	50 :	0000100101101101;
	49 :	1111100100010001;
	48 :	0000010000100111;
	47 :	0000100111010100;
	46 :	1110111111010110;
	45 :	1111101111011000;
	44 :	1111111110101110;
	43 :	0000101100010010;
	42 :	0000110010110000;
	41 :	1111001000001000;
	40 :	1111010000110110;
	39 :	1111111010011111;
	38 :	1110010011100011;
	37 :	1111001100101011;
	36 :	0000011000111011;
	35 :	0000011110110111;
	34 :	1111101110000111;
	33 :	1111010000011111;
	32 :	1111111011110000;
	31 :	1111101000010111;
	30 :	1110011101011101;
	29 :	1111010011010100;
	28 :	1111111000011011;
	27 :	0000001100110000;
	26 :	1111010110001010;
	25 :	1111110000100010;
	24 :	0000001000101011;
	23 :	1111010110101110;
	22 :	0000000101001110;
	21 :	1111100111011100;
	20 :	0000001110110111;
	19 :	0000010000011010;
	18 :	0000000011110001;
	17 :	1111111101111111;
	16 :	0000010001000011;
	15 :	1111011001010011;
	14 :	0000000111001011;
	13 :	0000010100001010;
	12 :	1111110000111101;
	11 :	1111111011110011;
	10 :	1111100111100010;
	9 :	1111110000111110;
	8 :	1111101001010110;
	7 :	1111000111100010;
	6 :	1110111001000110;
	5 :	0000010100000110;
	4 :	1111110101111101;
	3 :	1111110001111000;
	2 :	1111001011001111;
	1 :	1111101011101101;
	0 :	1111111001010111;
END;
