-- begin_signature
-- Weight_Memory(numWeight
-- 64
-- neuronNo
-- 5
-- layerNo
-- 1
-- addressWidth
-- 6
-- dataWidth
-- 16
-- weightFile
-- "w_1_5.mif")
-- end_signature
WIDTH=16;
DEPTH=64;

ADDRESS_RADIX=UNS;
DATA_RADIX=BIN;

CONTENT BEGIN
	63 :	1111011111011101;
	62 :	1111100110001101;
	61 :	1111101111110101;
	60 :	0000010110110001;
	59 :	0000110011100001;
	58 :	0000101001000111;
	57 :	0000111110011101;
	56 :	0000011011110011;
	55 :	1111000101101010;
	54 :	1111110110000010;
	53 :	0000101101101011;
	52 :	0000100001101001;
	51 :	1111101101100011;
	50 :	0000100111000100;
	49 :	0000100001010111;
	48 :	0000010000111100;
	47 :	1111101010100110;
	46 :	0000001111000010;
	45 :	0000010000011001;
	44 :	1111001100110111;
	43 :	1110110011110010;
	42 :	1111011000000101;
	41 :	1111110101110011;
	40 :	1111011111111110;
	39 :	0000000100000100;
	38 :	1111101010010110;
	37 :	1111100011010111;
	36 :	1111011010001000;
	35 :	1111100110100111;
	34 :	1111101011111111;
	33 :	1111110111110100;
	32 :	0000001101000110;
	31 :	1111010101110000;
	30 :	1111001011101011;
	29 :	1111100010100100;
	28 :	0000000100100011;
	27 :	0000001101001101;
	26 :	1111101000110111;
	25 :	0000001000110010;
	24 :	1111101000010111;
	23 :	1111110011100000;
	22 :	1111101110011110;
	21 :	1111111100000101;
	20 :	1111100000110111;
	19 :	1111001110010111;
	18 :	0000010001010111;
	17 :	0000011100111110;
	16 :	1111100000100101;
	15 :	1111101001110101;
	14 :	1111111110011010;
	13 :	0000100100111101;
	12 :	1111111010111110;
	11 :	1111111000010100;
	10 :	0000110000001101;
	9 :	0000100110111110;
	8 :	1111110010001001;
	7 :	1111011110000001;
	6 :	1111111111110000;
	5 :	0000010110000101;
	4 :	0000011100001111;
	3 :	0000011001110011;
	2 :	0000110000001111;
	1 :	0000010111100100;
	0 :	1111111011101100;
END;
