-- begin_signature
-- Weight_Memory(numWeight
-- 64
-- neuronNo
-- 2
-- layerNo
-- 1
-- addressWidth
-- 6
-- dataWidth
-- 16
-- weightFile
-- "w_1_2.mif")
-- end_signature
WIDTH=16;
DEPTH=64;

ADDRESS_RADIX=UNS;
DATA_RADIX=BIN;

CONTENT BEGIN
	63 :	0000110000111011;
	62 :	0000100101111010;
	61 :	0000000010110101;
	60 :	1111101101011001;
	59 :	1111111100111000;
	58 :	0000000000010100;
	57 :	1111111000111000;
	56 :	0000001110101010;
	55 :	1111111101010001;
	54 :	1111110111000111;
	53 :	0000001111110101;
	52 :	1111111110001101;
	51 :	0000010110111111;
	50 :	0000101101100111;
	49 :	0000000111101111;
	48 :	1111110101011100;
	47 :	1111101100100111;
	46 :	1110101001000011;
	45 :	1111011101001111;
	44 :	1111010110001011;
	43 :	0000110001100011;
	42 :	0001000110000100;
	41 :	0000000110100010;
	40 :	1111011001001011;
	39 :	0000001011011111;
	38 :	0000011011100101;
	37 :	1111010010110100;
	36 :	1111011010010000;
	35 :	1111110010011110;
	34 :	1111110111100100;
	33 :	1111101110101010;
	32 :	1111110001011001;
	31 :	1111011100000011;
	30 :	0000111110011010;
	29 :	0000110010010011;
	28 :	1111101001111001;
	27 :	1111001010101000;
	26 :	1111001101111011;
	25 :	1111010101101000;
	24 :	1111011101011110;
	23 :	0000010110000100;
	22 :	0001010010000111;
	21 :	0000111001100110;
	20 :	1111110010100001;
	19 :	1110110011100100;
	18 :	0000001101110101;
	17 :	0000010010000000;
	16 :	1111111000110111;
	15 :	0000010100110000;
	14 :	0000011000010101;
	13 :	0000010001101001;
	12 :	0000010101011110;
	11 :	1111110000110010;
	10 :	0000101011101001;
	9 :	0000011010010110;
	8 :	0000000001001111;
	7 :	0000101001100001;
	6 :	1111110000010010;
	5 :	1111011101010111;
	4 :	1111101101010000;
	3 :	0000001101000010;
	2 :	0000001101100110;
	1 :	1111101011000110;
	0 :	0000001100011110;
END;
