-- begin_signature
-- Weight_Memory(numWeight
-- 45
-- neuronNo
-- 5
-- layerNo
-- 2
-- addressWidth
-- 6
-- dataWidth
-- 16
-- weightFile
-- "w_2_5.mif")
-- end_signature
WIDTH=16;
DEPTH=45;

ADDRESS_RADIX=UNS;
DATA_RADIX=BIN;

CONTENT BEGIN
	44 :	0000011000010110;
	43 :	1111010011011110;
	42 :	0000011101000001;
	41 :	1111110101010100;
	40 :	1111110001011010;
	39 :	1111110010111110;
	38 :	1111100001110011;
	37 :	0000100110001011;
	36 :	0000000011101111;
	35 :	1111000100111111;
	34 :	0000001111100101;
	33 :	0000101101101100;
	32 :	1111101000111001;
	31 :	0001000001001101;
	30 :	0000101010101000;
	29 :	1110100011000101;
	28 :	0000110010101010;
	27 :	0000001000100000;
	26 :	1111110001101001;
	25 :	0000011011110001;
	24 :	0000000100001110;
	23 :	0000110111101001;
	22 :	1111111101000010;
	21 :	0000011100111111;
	20 :	0000000011111011;
	19 :	1111110100000000;
	18 :	1110111110111001;
	17 :	1111001101101101;
	16 :	1111011100010111;
	15 :	1111110000111000;
	14 :	0000100100101101;
	13 :	0000010110100001;
	12 :	0000001000100110;
	11 :	0001101001010110;
	10 :	0000000000111110;
	9 :	1111011111100111;
	8 :	1111111100111111;
	7 :	1111010010111000;
	6 :	0000010101011110;
	5 :	1111100001110000;
	4 :	0000101010100000;
	3 :	0000001001011100;
	2 :	0000101111000110;
	1 :	1111000101100000;
	0 :	1111110001000110;
END;
