-- begin_signature
-- Weight_Memory(numWeight
-- 40
-- neuronNo
-- 7
-- layerNo
-- 3
-- addressWidth
-- 6
-- dataWidth
-- 16
-- weightFile
-- "w_3_7.mif")
-- end_signature
WIDTH=16;
DEPTH=40;

ADDRESS_RADIX=UNS;
DATA_RADIX=BIN;

CONTENT BEGIN
	39 :	1110101111001101;
	38 :	0000011110001111;
	37 :	1110001110010100;
	36 :	1111110100111111;
	35 :	1111000111110110;
	34 :	1111100010111100;
	33 :	1110100111011000;
	32 :	0000101001010101;
	31 :	0000110000010010;
	30 :	0000110011000111;
	29 :	0000100110101101;
	28 :	1110110010000000;
	27 :	0000011111101010;
	26 :	1111001101100001;
	25 :	1101111110000110;
	24 :	0000001100011101;
	23 :	0000101100010000;
	22 :	1111011100100110;
	21 :	1111110001011100;
	20 :	0000110011011010;
	19 :	0000001100101100;
	18 :	1110110101111110;
	17 :	1111111000111011;
	16 :	0000101101001010;
	15 :	1110110000101101;
	14 :	0000110011010110;
	13 :	1111010110100010;
	12 :	1110001011000100;
	11 :	0000101110111111;
	10 :	0000011111000011;
	9 :	1111010000011011;
	8 :	1111000101000000;
	7 :	1111000101000000;
	6 :	0000100011000011;
	5 :	1111101010111111;
	4 :	0000010010111111;
	3 :	1110110010111111;
	2 :	1111110110000001;
	1 :	0000001010101010;
	0 :	0000001110111110;
END;
