-- begin_signature
-- Weight_Memory(numWeight
-- 45
-- neuronNo
-- 33
-- layerNo
-- 2
-- addressWidth
-- 6
-- dataWidth
-- 16
-- weightFile
-- "w_2_33.mif")
-- end_signature
WIDTH=16;
DEPTH=45;

ADDRESS_RADIX=UNS;
DATA_RADIX=BIN;

CONTENT BEGIN
	44 :	0000100010011101;
	43 :	0000100110010000;
	42 :	0001000000101101;
	41 :	0001010001010111;
	40 :	0000101110111001;
	39 :	1111100000011010;
	38 :	1111011110010111;
	37 :	0000100101011101;
	36 :	0000010011111000;
	35 :	1111111111101111;
	34 :	1111111010010010;
	33 :	1111101110101011;
	32 :	0000010010101101;
	31 :	0000100001000111;
	30 :	1111111100101011;
	29 :	1111001111000110;
	28 :	0000000100001001;
	27 :	1111111110110011;
	26 :	1111101100100001;
	25 :	0000011110101101;
	24 :	0000010010111100;
	23 :	1111010010110101;
	22 :	1111010001111000;
	21 :	1111001101001110;
	20 :	0000101111111111;
	19 :	1111100110101000;
	18 :	1111111001101001;
	17 :	1111100001101111;
	16 :	1111010110110100;
	15 :	0000101110011101;
	14 :	1111001001011100;
	13 :	0000010011111000;
	12 :	0000110100101101;
	11 :	0001001010011101;
	10 :	0000001000011110;
	9 :	1111011001100000;
	8 :	1111110111111110;
	7 :	1111111001100110;
	6 :	1111100000000110;
	5 :	0000100111011111;
	4 :	0000010000010010;
	3 :	1111001011101111;
	2 :	1111111100101110;
	1 :	1110111000000000;
	0 :	0000001100111101;
END;
