-- begin_signature
-- Weight_Memory(numWeight
-- 64
-- neuronNo
-- 27
-- layerNo
-- 1
-- addressWidth
-- 6
-- dataWidth
-- 16
-- weightFile
-- "w_1_27.mif")
-- end_signature
WIDTH=16;
DEPTH=64;

ADDRESS_RADIX=UNS;
DATA_RADIX=BIN;

CONTENT BEGIN
	63 :	1111101101111100;
	62 :	0000100000100001;
	61 :	0000100110001111;
	60 :	1111111011011000;
	59 :	0000001110010011;
	58 :	1111110010011100;
	57 :	1111011101110001;
	56 :	0000010000010100;
	55 :	1111001101100001;
	54 :	0000101000011100;
	53 :	0000101111111001;
	52 :	1111011011101010;
	51 :	0000100001100100;
	50 :	0000100100011001;
	49 :	1111011011010001;
	48 :	1111100100101101;
	47 :	0000101111100001;
	46 :	0000010111100111;
	45 :	0000000001001001;
	44 :	1111000010101001;
	43 :	0000001011000000;
	42 :	0001010111001100;
	41 :	1111011110110011;
	40 :	1111000111011010;
	39 :	0000001010111110;
	38 :	1111101100000010;
	37 :	0000000000011100;
	36 :	0000001001111000;
	35 :	0000100010001000;
	34 :	1111101010011100;
	33 :	1111001111011110;
	32 :	1111110100111010;
	31 :	1111100001000101;
	30 :	0000011101011100;
	29 :	0000010011000000;
	28 :	1111011010001101;
	27 :	1111001000001101;
	26 :	1111000111010011;
	25 :	1110110111111011;
	24 :	0000001000100101;
	23 :	0000001111010010;
	22 :	0001010010010111;
	21 :	0001110110111110;
	20 :	0000010001001110;
	19 :	1110110111011011;
	18 :	1111101000101110;
	17 :	1111110011101101;
	16 :	1111111101000000;
	15 :	0000001110010010;
	14 :	0000010101100100;
	13 :	0001000100001100;
	12 :	0000010011100111;
	11 :	0000000000011110;
	10 :	0000000111011110;
	9 :	0000000000100000;
	8 :	1111101110100000;
	7 :	0000110000110111;
	6 :	1111101100111010;
	5 :	1111110010001000;
	4 :	0000000011101001;
	3 :	0000011100111100;
	2 :	1111100110111001;
	1 :	1111101101001101;
	0 :	0000001101000110;
END;
