-- begin_signature
-- Weight_Memory(numWeight
-- 37
-- neuronNo
-- 5
-- layerNo
-- 3
-- addressWidth
-- 6
-- dataWidth
-- 16
-- weightFile
-- "w_3_5.mif")
-- end_signature
WIDTH=16;
DEPTH=37;

ADDRESS_RADIX=UNS;
DATA_RADIX=BIN;

CONTENT BEGIN
	36 :	0000010101111000;
	35 :	1111011010001100;
	34 :	0000000100101101;
	33 :	0000010000011101;
	32 :	1110011000000100;
	31 :	1110100000101011;
	30 :	0000000000011100;
	29 :	1110100101110111;
	28 :	1110001111101100;
	27 :	0000101000010011;
	26 :	1111111101011010;
	25 :	0000101011100110;
	24 :	1110010110100110;
	23 :	0001000001000000;
	22 :	1110101100000111;
	21 :	0000100010000100;
	20 :	1110111101001111;
	19 :	0000000101001010;
	18 :	0000111101111110;
	17 :	0000100011101110;
	16 :	1110011101111001;
	15 :	1111111001011110;
	14 :	1110110010010100;
	13 :	0000000001010111;
	12 :	1111110110111001;
	11 :	0000010001001100;
	10 :	0000101010010000;
	9 :	1110100100001010;
	8 :	0000110001110110;
	7 :	0000110010000011;
	6 :	0000010111100110;
	5 :	0000100000110111;
	4 :	1111000101111000;
	3 :	1111011011110101;
	2 :	1111001101010100;
	1 :	1110011000111100;
	0 :	1110110001100101;
END;
