-- begin_signature
-- Weight_Memory(numWeight
-- 64
-- neuronNo
-- 16
-- layerNo
-- 1
-- addressWidth
-- 6
-- dataWidth
-- 16
-- weightFile
-- "w_1_16.mif")
-- end_signature
WIDTH=16;
DEPTH=64;

ADDRESS_RADIX=UNS;
DATA_RADIX=BIN;

CONTENT BEGIN
	63 :	0001001100011100;
	62 :	0000011100010011;
	61 :	1111110001110101;
	60 :	1111110101101110;
	59 :	0000011001011000;
	58 :	0001001100000011;
	57 :	0000101010100111;
	56 :	1111101001000011;
	55 :	0000100100001000;
	54 :	1111111000010100;
	53 :	1111101010100100;
	52 :	1111111100100010;
	51 :	1111110101100100;
	50 :	1111110100011011;
	49 :	1111110001010000;
	48 :	1111101010111110;
	47 :	1111001100110111;
	46 :	1111001011111001;
	45 :	1111101011111000;
	44 :	1111110001110011;
	43 :	1111100111110001;
	42 :	1111000110010110;
	41 :	1110111110110110;
	40 :	0000000110001110;
	39 :	1111111001010001;
	38 :	1111000010100001;
	37 :	1111101010011100;
	36 :	0000001101001011;
	35 :	0000010111000111;
	34 :	1111010011111010;
	33 :	1110100110111000;
	32 :	0000000100110011;
	31 :	1111100110010101;
	30 :	1111010011001000;
	29 :	0000001111001101;
	28 :	0001000100010000;
	27 :	0000100001011101;
	26 :	1111100101110111;
	25 :	1111001010111010;
	24 :	1111111000110011;
	23 :	1111110101100011;
	22 :	1111111111000010;
	21 :	0000011011110010;
	20 :	0001000111110100;
	19 :	1111101110110010;
	18 :	1111111010001000;
	17 :	0000100010001100;
	16 :	0000010110101110;
	15 :	0000001111100001;
	14 :	0000110001100111;
	13 :	0000110111011011;
	12 :	0000000111011011;
	11 :	1111111010101111;
	10 :	0000101111001111;
	9 :	0001001001101001;
	8 :	0000001101010101;
	7 :	1111111011010011;
	6 :	0001000001000010;
	5 :	0001000111010000;
	4 :	1111110101110000;
	3 :	0000011110011101;
	2 :	0001001100111100;
	1 :	0000110100101010;
	0 :	0000000001110011;
END;
