-- begin_signature
-- Weight_Memory(numWeight
-- 64
-- neuronNo
-- 18
-- layerNo
-- 1
-- addressWidth
-- 6
-- dataWidth
-- 16
-- weightFile
-- "w_1_18.mif")
-- end_signature
WIDTH=16;
DEPTH=64;

ADDRESS_RADIX=UNS;
DATA_RADIX=BIN;

CONTENT BEGIN
	63 :	1110010110101001;
	62 :	1111100000011100;
	61 :	1111110011110101;
	60 :	1111100011010010;
	59 :	1111101000111100;
	58 :	0000011100001001;
	57 :	0000001001101100;
	56 :	1111101001001011;
	55 :	1111100011101010;
	54 :	0000100100010000;
	53 :	1111010101100110;
	52 :	1111001100010111;
	51 :	1111111010101001;
	50 :	1111011110110100;
	49 :	0000001000011110;
	48 :	0000000110011001;
	47 :	0000010011101110;
	46 :	0001000100111100;
	45 :	0000110111011010;
	44 :	0000100101101100;
	43 :	0000001110010100;
	42 :	1111101110111000;
	41 :	0000100010010001;
	40 :	0000101100111100;
	39 :	0000000001110100;
	38 :	0000100000101110;
	37 :	0001001010100110;
	36 :	0001000011110111;
	35 :	0000010010001101;
	34 :	0000100000101011;
	33 :	1111111110101000;
	32 :	1111110110111100;
	31 :	0000011000011010;
	30 :	1111111111100101;
	29 :	1111110010000101;
	28 :	0000100001100110;
	27 :	0000010111101111;
	26 :	0000010001101110;
	25 :	1111101110010101;
	24 :	1111111110100111;
	23 :	0000110000101110;
	22 :	1111001101010100;
	21 :	1110111101111111;
	20 :	1111000100000011;
	19 :	1111101111011110;
	18 :	1111111100111000;
	17 :	1111011010101010;
	16 :	1111110000110000;
	15 :	0000100011110000;
	14 :	0000001000011010;
	13 :	1111001010101001;
	12 :	1111011110101100;
	11 :	0000000100010110;
	10 :	0000001100110100;
	9 :	1111101100011100;
	8 :	0000011001100011;
	7 :	0000101100111111;
	6 :	0001001100001100;
	5 :	0000010100011111;
	4 :	0000100000011110;
	3 :	0000000011101101;
	2 :	0000010100110110;
	1 :	0000100000111111;
	0 :	0000001001101000;
END;
