-- begin_signature
-- Weight_Memory(numWeight
-- 37
-- neuronNo
-- 3
-- layerNo
-- 3
-- addressWidth
-- 6
-- dataWidth
-- 16
-- weightFile
-- "w_3_3.mif")
-- end_signature
WIDTH=16;
DEPTH=37;

ADDRESS_RADIX=UNS;
DATA_RADIX=BIN;

CONTENT BEGIN
	36 :	0000011001011011;
	35 :	1111110111100001;
	34 :	1111111011110001;
	33 :	1110100100111101;
	32 :	1111010011000010;
	31 :	0000010011100011;
	30 :	1111101110010011;
	29 :	0000011001100100;
	28 :	1111010011100110;
	27 :	0000100010001001;
	26 :	1110011110000100;
	25 :	0000011001000100;
	24 :	0000100100010001;
	23 :	1110011010000100;
	22 :	1111001001101011;
	21 :	0000101000100100;
	20 :	0000101100001101;
	19 :	1111010001001100;
	18 :	1111110001110101;
	17 :	0000110110111110;
	16 :	1111110111111100;
	15 :	1111111110100001;
	14 :	1110111010000001;
	13 :	0000010010010001;
	12 :	1101110110100011;
	11 :	0000001011111011;
	10 :	1110111010101000;
	9 :	1110101101001011;
	8 :	0000101001001101;
	7 :	0000010010000001;
	6 :	1110100011110111;
	5 :	1110111110011110;
	4 :	1110011111001001;
	3 :	1111101101011100;
	2 :	0000110000111110;
	1 :	0000101001110000;
	0 :	1110110011010100;
END;
