-- begin_signature
-- Weight_Memory(numWeight
-- 64
-- neuronNo
-- 1
-- layerNo
-- 1
-- addressWidth
-- 6
-- dataWidth
-- 16
-- weightFile
-- "w_1_1.mif")
-- end_signature
WIDTH=16;
DEPTH=64;

ADDRESS_RADIX=UNS;
DATA_RADIX=BIN;

CONTENT BEGIN
	63 :	1111001100000001;
	62 :	1111010100110000;
	61 :	1111000001101011;
	60 :	1111101010011001;
	59 :	1111111011010110;
	58 :	1111100011010010;
	57 :	1110111111101001;
	56 :	1111110111000000;
	55 :	1111100101110010;
	54 :	1111001010010101;
	53 :	1110111101100000;
	52 :	1110110001111011;
	51 :	1111000111010011;
	50 :	0000000011000111;
	49 :	0000010011100111;
	48 :	1111101000011100;
	47 :	1111001101000110;
	46 :	1111110110110011;
	45 :	0000000010111100;
	44 :	1111110101111111;
	43 :	1111110001001101;
	42 :	0000010101001010;
	41 :	0000100010110110;
	40 :	0000110111110010;
	39 :	1111111000000111;
	38 :	0000100111000011;
	37 :	1111111010011001;
	36 :	1111011101111000;
	35 :	0000000111101111;
	34 :	0000011101000000;
	33 :	0000000100111011;
	32 :	1111110111111101;
	31 :	0000001010101001;
	30 :	0010000010010101;
	29 :	0001001110001111;
	28 :	0000001111100011;
	27 :	0000110111101000;
	26 :	0001001110001111;
	25 :	0000011010010000;
	24 :	0000010011000011;
	23 :	0000000101111101;
	22 :	0000011110010110;
	21 :	0001010111000101;
	20 :	1111101100000100;
	19 :	0000101000011011;
	18 :	0001000010111001;
	17 :	0000011111011100;
	16 :	0000000011100001;
	15 :	0000000110001001;
	14 :	1111111000011000;
	13 :	0000010000101001;
	12 :	1111110110000110;
	11 :	1111111111111010;
	10 :	0000010100110001;
	9 :	1111111001010010;
	8 :	0000010110110000;
	7 :	1111111011010110;
	6 :	1111110111001111;
	5 :	1111010100110101;
	4 :	1111101011100000;
	3 :	1111111100011010;
	2 :	0000000010110110;
	1 :	1110111111110001;
	0 :	1111110110010000;
END;
