1111111001010111
1111101011101101
1111001011001111
1111110001111000
1111110101111101
0000010100000110
1110111001000110
1111000111100010
1111101001010110
1111110000111110
1111100111100010
1111111011110011
1111110000111101
0000010100001010
0000000111001011
1111011001010011
0000010001000011
1111111101111111
0000000011110001
0000010000011010
0000001110110111
1111100111011100
0000000101001110
1111010110101110
0000001000101011
1111110000100010
1111010110001010
0000001100110000
1111111000011011
1111010011010100
1110011101011101
1111101000010111
1111111011110000
1111010000011111
1111101110000111
0000011110110111
0000011000111011
1111001100101011
1110010011100011
1111111010011111
1111010000110110
1111001000001000
0000110010110000
0000101100010010
1111111110101110
1111101111011000
1110111111010110
0000100111010100
0000010000100111
1111100100010001
0000100101101101
0000000110110001
0000001010010111
0001001001000101
0000100110010110
0000101000111101
0000000110110010
0000000000001000
1111011011001010
0000000111110010
0000100111001011
0001010000101000
0000110111100001
0001001000011011
