0000001100011110
1111101011000110
0000001101100110
0000001101000010
1111101101010000
1111011101010111
1111110000010010
0000101001100001
0000000001001111
0000011010010110
0000101011101001
1111110000110010
0000010101011110
0000010001101001
0000011000010101
0000010100110000
1111111000110111
0000010010000000
0000001101110101
1110110011100100
1111110010100001
0000111001100110
0001010010000111
0000010110000100
1111011101011110
1111010101101000
1111001101111011
1111001010101000
1111101001111001
0000110010010011
0000111110011010
1111011100000011
1111110001011001
1111101110101010
1111110111100100
1111110010011110
1111011010010000
1111010010110100
0000011011100101
0000001011011111
1111011001001011
0000000110100010
0001000110000100
0000110001100011
1111010110001011
1111011101001111
1110101001000011
1111101100100111
1111110101011100
0000000111101111
0000101101100111
0000010110111111
1111111110001101
0000001111110101
1111110111000111
1111111101010001
0000001110101010
1111111000111000
0000000000010100
1111111100111000
1111101101011001
0000000010110101
0000100101111010
0000110000111011
