0000000011110011
0000110000110111
0000111011100001
0000010101101100
0000001011110101
0000000001100110
1111111101011100
1111011001010100
0000000010100001
0000101110100010
0000111011001010
0000000011001100
0000000001110001
0000001110001000
1111110001011101
1111101110011011
1111010111101100
0000100011011010
0000010001011001
1111000110101011
1111011000001001
0000001011110100
1111110101001110
1111100100100111
1111011111010001
0000011010010001
1111110110100101
1111111101010010
1111110101110100
1111111001101100
1111111000011100
1111011101110111
0000000100010100
0000010101101000
1111100111110000
1111100100010100
1111010011011101
1111010001101111
0000001001100010
1111111100110111
1111111100100000
1111110111010011
1111010101111000
1110111001000101
1111101000010010
0000001000001110
0000001101110011
1111100010111011
0000001010000001
0000110101101101
0000100010010111
1111110111011011
0000011011000111
0000001110100100
1111110100101100
1111000000111011
0000100001101000
0000111000100000
0000111110010111
0000110000000011
0000000110001111
1111101101010001
1111110100000110
1111010111010010
