0000001001000101
1110100000110101
1111011000110110
1111101010011100
1111011101110101
1110110100111111
1110111100010101
1111100001001011
0000010110010000
1111000100000011
1111100000000011
1111101100101100
1111001011101101
1111110110100011
1111011101011000
1111001111101011
0000001010000001
0000000101111001
0000111101110001
0001000111101001
0000000100101100
0000101010010100
0000001010001101
1111110111011110
0000010001111000
0000110100010010
0001010111010111
0001100000001011
0000001011001111
0000110000000001
0000101101100000
0000100111111000
1111111010011110
1111101111010111
0000011101011000
0000001101000101
1111100011100110
1111111001110111
0000011000000010
1111111101011010
0000100101100111
1111101000000111
0000011011011100
1111101010110101
0000001000110010
0000010101100100
0000010110001101
1111111001111100
1111111110011011
1111110001101010
1111110110110100
1111010110111111
1111100100101000
1111110001111101
1111111111010101
0000001000101011
1111110111100100
1110110111111111
1111000110101100
1111100101110111
0000100100010110
0000001001111110
1111100000100011
1111111101000000
