0000000001110011
0000110100101010
0001001100111100
0000011110011101
1111110101110000
0001000111010000
0001000001000010
1111111011010011
0000001101010101
0001001001101001
0000101111001111
1111111010101111
0000000111011011
0000110111011011
0000110001100111
0000001111100001
0000010110101110
0000100010001100
1111111010001000
1111101110110010
0001000111110100
0000011011110010
1111111111000010
1111110101100011
1111111000110011
1111001010111010
1111100101110111
0000100001011101
0001000100010000
0000001111001101
1111010011001000
1111100110010101
0000000100110011
1110100110111000
1111010011111010
0000010111000111
0000001101001011
1111101010011100
1111000010100001
1111111001010001
0000000110001110
1110111110110110
1111000110010110
1111100111110001
1111110001110011
1111101011111000
1111001011111001
1111001100110111
1111101010111110
1111110001010000
1111110100011011
1111110101100100
1111111100100010
1111101010100100
1111111000010100
0000100100001000
1111101001000011
0000101010100111
0001001100000011
0000011001011000
1111110101101110
1111110001110101
0000011100010011
0001001100011100
