0000000000010001
1111111010000101
0000001111100101
0000000001100000
1111110101011011
0000000101100001
0000001111100001
0000010110101111
0000010100000000
1111111110000001
0000100001100001
0000001000011011
1111111000000101
0000001010110010
0000000100111101
0000010011001011
0000010010111011
0000001011000010
0000010110111001
1111010101001111
1111000001111010
1111010011001001
1111111101011001
1111110010001100
1111100100100011
1111011010111000
1111110111000001
1111110111000100
1111101011101011
1111101111111001
1111011000011010
1111101111000011
0000000001001001
1111100000101111
0000000111111011
0000011011001011
0000001010001111
1111011001110011
1111000111110011
0000000110110001
1111100011000110
1111011010100010
0001101100100001
0001000111001000
1111101101010111
1111101001000100
1111000100000101
0000101101010101
1111110110000011
0000000001110110
0000100011011100
0000110001101100
1111100110111010
0000001101111101
1111100101011001
0000000000011000
0000001011001010
0000010100011010
0000000110101101
0000001101101011
1111101011100010
0000001111100101
0000010110110110
0000111111111100
