0000000001100001
1111111000011101
1111110000111010
1111001100110101
1111101111000010
0000011000011101
1111100100111011
1111010101011110
0000000000100111
0000000001000000
1111111011010100
1111111000100101
1111101101000110
1111100001000110
1111111010000001
1111011111001010
0000000100111100
0001010000011100
0001001111010011
0000110100110100
1111101111010100
1111110000111101
1111101100101010
1111100110101000
0000000011111101
0001000001110000
0000110110100011
0000110110001010
0000011111001011
1111110100110011
1110111111000000
0000011110101100
1111110011100100
1111110011000100
0000000111000101
0000010111101000
1111100111100110
1111100001011001
1110011101110111
1111110100111111
0000011100011010
1111111010011100
1111111111100111
1111110110011111
0000011000110001
1111101000101110
1110111100001010
1111010010100111
0000001001010110
0000101110100110
1111111011011110
1111100011011101
0000110011011110
0000010100100000
1111101111101100
0000011011001001
0000000110010011
0000000111010000
1111101100111100
1111110101111101
0000110001100100
0000100011000101
0000110110111000
0001001110000000
