0000001011100111
0000110001111100
0000101110101101
1111111010000110
0000000111001100
0000010101100100
0001010100100100
0001000101001100
0000010101011111
0000001100011000
1111111101011001
0000000001001000
0000001011110010
1111011100000001
1111110010001001
0000101011011011
1111101100110110
1111111010111001
1111100011101010
0000000001011000
1111110100000111
1111011110011010
1111110011110001
0000010010101010
1111110111000010
0000011010101010
0000001111010101
0000000011011111
0000001001000111
0000010011000101
0000110110000110
0000011011101111
0000001001000011
0000100100110000
0000011011000001
1111011111100101
0000011000001101
0000010111100011
0001001110000000
1111111000110100
0000110110010000
0001000101011011
1111010000001100
0000000110111010
0000110101100010
0000100111000001
1111100011100101
1111011010110011
0000001011001100
0000010111010011
1111001101101100
1111101000100110
0000001101110100
1111000001001011
1110100110111001
1111010011010000
1111100011101011
0000011000110000
0000101100001111
1111111010011110
1111000001101111
1110000101111101
1110011000010100
1110101110010101
