0000000111101101
1111001100110011
1110111101100011
1111101110011011
1111101111100110
0000000011100001
1111100100010111
0000011000110111
0000011010010010
1111011011010000
1111000110100010
1111101011011010
1111101010000100
0000000111100010
1111111111100010
0000000100001110
0000011001100000
1111101010101000
1111110011010011
0000110001011010
0000010000001010
1111101100001001
0000001110000010
0000001000101111
0000010000110001
1111110001101100
1111110100011000
0000011010010011
1111111001110101
0000001000010100
1111110001000000
0000100011101100
1111111100001000
0000000011110000
0000010001001100
0000101010011010
0000110111000001
0000100011000101
1111011111101100
0000000010000110
1111111111011100
0000100110001001
0001001111000011
0001001011010001
0000100010100010
0000010101100100
0000000110111001
0000010010101010
0000000011110011
1111100001110111
1111101100110000
0000000001111111
1111101010101001
1111111001010001
0000010001110100
0000100110011100
1111011111110001
1111000000101100
1110111111110101
1111101001001000
1111111001000010
0000011001110010
0000000111001101
0000001100001110
