1111110001110011
0000001100101101
1111011111010011
0000001111011110
0000000101001001
0000000111110110
1111101010010001
1111110111010001
1111101101000110
1111110111000011
1111110010101000
1111111101101001
0000011111011010
0000010001001001
0000001000001010
1111101101011001
1111110110011111
1111001100101110
1110110001110000
0000001110101100
0001001011000001
0000000100101011
1111110001011011
0000000001010111
1111111110000100
1111000100100000
1110110101110001
1111110000011110
1111101110110010
1111011110001011
1110110100011000
1111011111011010
1111111000011111
1111101000100111
1111011001100001
1111110110100111
1111110000101011
1111110000000100
1111101101101110
0000000000110110
1111011001000001
1111011000000010
1111001011001010
1111001110101101
1111111001000001
0000000101111101
0000101101000000
0000110111011101
1111111111111000
1111101010001100
1111101000010111
0000000110101011
0000100110111001
0000010111010001
0000111110111001
0000101110110010
0000100001111011
0000010100011100
1111110111111111
0000000100111000
0000100100000111
0000100000001011
0000011100011101
0000001000100011
