1111110110010000
1110111111110001
0000000010110110
1111111100011010
1111101011100000
1111010100110101
1111110111001111
1111111011010110
0000010110110000
1111111001010010
0000010100110001
1111111111111010
1111110110000110
0000010000101001
1111111000011000
0000000110001001
0000000011100001
0000011111011100
0001000010111001
0000101000011011
1111101100000100
0001010111000101
0000011110010110
0000000101111101
0000010011000011
0000011010010000
0001001110001111
0000110111101000
0000001111100011
0001001110001111
0010000010010101
0000001010101001
1111110111111101
0000000100111011
0000011101000000
0000000111101111
1111011101111000
1111111010011001
0000100111000011
1111111000000111
0000110111110010
0000100010110110
0000010101001010
1111110001001101
1111110101111111
0000000010111100
1111110110110011
1111001101000110
1111101000011100
0000010011100111
0000000011000111
1111000111010011
1110110001111011
1110111101100000
1111001010010101
1111100101110010
1111110111000000
1110111111101001
1111100011010010
1111111011010110
1111101010011001
1111000001101011
1111010100110000
1111001100000001
