0000000100000100
1111111000001011
0000000011101110
1111111111001101
0000000101010000
1111100001101100
1111011111111101
1111100101010101
1111110011100101
0000010001000101
0000001001111101
0000001011100110
0000100010111100
0000000101011011
1111111011000011
0000000010111100
1111101010100101
0000000000101000
1111111001010011
1111010101111110
0000100011100010
0001001011011110
0000101110011100
0000001111011011
1111100111010000
1111101110000111
1111100101101101
1111000101101111
0000000000100001
0000010001111100
0000011101000100
1111011011100000
0000001101000110
1111101101011101
1111011111100101
1111010000010101
1111000001101010
1111110111011011
0000010101001111
0000001110110001
1111101101000011
0000010111011000
1111010011101100
1110111001100011
1111010010001111
1111110111110001
1111111111010001
1111100000010111
0000000100010111
0000000100111101
0000001010101011
1111101111101101
0000011100110001
0000001101100110
0000101100101111
1111101010011110
0000010111111100
1111110010100001
0000010001010011
0000000111110001
0000010100111010
0000010000100000
0000101001001100
1111111111001101
