1111111111000101
1111011011100111
1111100001101100
0000001110010110
1111111011000001
0000011111100111
1111110000001010
1111110101011111
1111111011010000
1111011011000001
1111100001110010
1111110011111010
0000010100110101
0000000110110100
0000010111000101
0000000010110111
0000001011100100
1111011110011011
1111100100110100
0000001011011101
0001000011101010
0000011010110001
0000000010100100
1111110111101000
1111111001111010
1111101001011001
1111101100011011
0000010011100011
0000100100110101
1111111110100011
1111001000010100
1111011100111011
1111110101100001
1110111100010000
1111101001001101
0000010000101110
0000010110110100
1111111101111101
1111010100000010
0000001011010101
0000010001001010
1111011111100111
1110111101010000
1111010010011111
0000001000101011
1111111010001101
0000000001011000
1111100100011001
1111110000100011
1111101101101001
1111101000110101
1111010101010000
1111111100011100
0000000000100110
0000010000001101
0000100100011100
1111101100011010
1111000111110001
1111101010101011
1111111100000010
1111111111001101
1111111100011001
1111110101000001
0000100010100110
