0000001101110101
1111001000010111
1111101111001011
1111110100000100
1111011010011010
1111111000011010
1111011101100101
1111011000100011
0000001000000001
1111101011110011
1111101010101111
0000001010010001
1111111111001001
1111111110011010
1111101111000101
1111100101111010
0000001000100110
0001001000000111
0000111101011011
0000110110111110
0000001010001000
0000101010001010
0000000011001101
1111010100001110
1111111110010110
0000111111011111
0000110100001101
0000111100010000
0000001010000011
0000011000100100
1111111111000010
1111111010001100
1111111011010011
1111011100000111
1111111011100101
1111111000100110
1111001111110110
1111001110001100
1111010101111000
0000001000101111
0000010110101111
1111100110101100
1111100011011011
1111100111100100
1111101000010110
1111010100100111
1111010101110001
1111001100010001
1111101101010111
0000000100101011
1111110110111000
1111010011010111
0000100111101000
1111101110001000
1111101111001111
0000101110101111
1111110110101111
1111100110010001
1111011111100110
1111111011010011
0000110111010110
0000000111111100
0000010010100011
0000101010011100
