0000001001101000
0000100000111111
0000010100110110
0000000011101101
0000100000011110
0000010100011111
0001001100001100
0000101100111111
0000011001100011
1111101100011100
0000001100110100
0000000100010110
1111011110101100
1111001010101001
0000001000011010
0000100011110000
1111110000110000
1111011010101010
1111111100111000
1111101111011110
1111000100000011
1110111101111111
1111001101010100
0000110000101110
1111111110100111
1111101110010101
0000010001101110
0000010111101111
0000100001100110
1111110010000101
1111111111100101
0000011000011010
1111110110111100
1111111110101000
0000100000101011
0000010010001101
0001000011110111
0001001010100110
0000100000101110
0000000001110100
0000101100111100
0000100010010001
1111101110111000
0000001110010100
0000100101101100
0000110111011010
0001000100111100
0000010011101110
0000000110011001
0000001000011110
1111011110110100
1111111010101001
1111001100010111
1111010101100110
0000100100010000
1111100011101010
1111101001001011
0000001001101100
0000011100001001
1111101000111100
1111100011010010
1111110011110101
1111100000011100
1110010110101001
