0000000111010101
0000001010011101
0000010010111100
0000000010000000
1111110000110000
0000101110001000
0000001110011011
0000001100100100
1111111100010110
0000101110001100
1111110110101100
1111111101011001
0000011100110011
0000011011000110
0000011011000001
0000100110010101
0000010011001111
1111101111010110
1111000111111011
1111110000110000
0001000101101101
1111111110011011
1111111111101011
0000000100101010
0000000110000111
1111001101101110
1110101100111010
1111101110000001
0000000110010111
1111101110000010
1111100000110001
1111011000110110
0000001101000111
1111010011001001
1111011101111000
0000001001100100
0000101101110011
1111101001011100
1111010011000100
0000000011001010
1111110011011101
1111011011100100
1111101101110110
0000100110001010
0000010001101001
1111101101011010
1110111100101010
1111110011000001
0000001010101010
0000000001111110
1111110100011010
0000011001100111
0000011101110100
0000001001010111
1111111000111111
0000110110000101
0000100000100110
0000011010010011
0000001100000001
0000000011100110
1111100111001110
0000000000111100
0000011101111110
0001011000111110
