1111111011001000
0000110010111001
0000011010001111
0000011100101110
0000011101000101
1111111010111110
0000000101111101
1111011111111111
1111110010011000
0000001001001101
0000010000111110
0000010100000100
0000000111001110
1111110010110010
1111101010101110
1111101001101101
1111101001110111
1111111110101010
1111110001101101
1111100000001011
1111011010110000
1111100000001001
1111000110001111
1111011111011100
1111011010000011
0000010111101000
1111110111111111
1111011001110011
1111010100001001
1111010000000101
1111001010101011
1111011111101011
1111111111100001
0000010011110011
0000000000111001
1111010100100110
1111100000100110
1111110011100001
0000011011010001
0000000010111000
1111011010110010
1111001010100111
1111101101110011
1111010000010001
1111001000001111
0000011010000101
0001010111011010
0001000100110011
1111101111011011
1111101001100100
0000001110111000
0000010111100011
0000011011110100
0000011001011111
0000100100011100
1111011001100100
0000011000000111
0001001001000000
0000110001110111
0000010111011111
0000001111110100
0000000010000110
1111111100111010
1111000000010100
