0000000010111110
1111011001011010
1111101001000110
1111110111111111
0000000001100000
1111100000110101
1111111010011000
0000100000000001
0000000101100001
1111101110100011
1111110010101100
1111110101000010
0000011000110000
0000011100111001
1111111000001000
0000001111010111
1111110110000011
0000000000110011
1111100110010010
1111110100101111
0000000111110011
0000111101111110
0000110000000010
0000010001101000
0000000111000000
1111111011111110
1111110101010011
1111001000001110
1111011011110100
0000100010111110
0001101010011011
0000010010110111
0000000011110100
0000100000010011
0000000111101010
1111110101100000
0000000001000001
0000010000100100
0001000011100000
0000001110101011
0000100101101111
0000101111101101
0000111110110110
0000100100110110
0000011101100011
1111111111111001
1111110001101100
1111101100110111
1111111000000011
1111111111100011
0000010000011100
0000001011111101
1111010101001001
1111001010110100
1111000101100011
1111101000001100
1111100101011101
1111010010011000
1111011011101010
1111100010100001
1111011111001110
1111011000111111
1111011011101000
0000011110011110
