0000000111010010
0000011001011110
0000011011011011
0000000010000111
0000001011100101
1111101000101101
0000111000000111
0001000100110101
0000011010010101
0000000111101001
0000010000010111
0000000001110010
0000010100010010
1111101010011011
1111110001000001
0000111010000100
1111101011010000
1111101101110110
1111110100101100
1111111110111100
1111100110111100
0000001001000001
1111110010101000
0000011000000101
0000000111111000
0000001100101101
0000100101000101
1111100111011100
1111111101101111
0000001100010110
0001100011000111
0000000111001110
1111111100010010
0000100001110101
0000001001100010
1111101011111010
1111111010111100
0000110011010111
0001101100010011
1111110010111100
0000110001111100
0000101101111000
1111100010011110
0000001101101111
0000100100010011
0000011000010110
0000010011010111
0000000111110000
0000001000001101
0000000110000110
1111010010001001
1111110001000011
1111100111010000
1110101110001010
1110111010111000
1111101010100110
1111100011100011
0000000011111000
0000100011110001
1111110010011101
1111010001101011
1110100101111011
1110101100111101
1111001110000110
