1111111101110000
1111110100001100
1111111101010111
0000011110000101
1111101111101111
1111001001101000
1111110100100011
0000101011110011
1111111100000110
0000000100011100
0000011111001110
1111111110101110
0000010010100110
0000010001001001
0000010000000001
0000011011111100
1111011010101111
1111101100001011
1111110001110001
1111000110101011
1111011100011110
0001000001010001
0001000111010001
0000010100000010
1111101110100011
1111001011101101
1111011000111001
1110110111111101
1111010110010111
0000011010100000
0001100000001100
1111011011011110
1111111100010100
1111111110011101
1111110010000001
1111110100000010
1111111001111000
0000000101111000
0000111001000110
0000000110100101
1111000100001111
1111111111001000
0000100110100100
0000110110101011
1111010110111001
1111100010110010
0000101001111110
0000110011110000
0000001000101001
1111101100101101
0000010100001100
0000110110011001
1111100100010101
0000001010010101
0000111010011100
1111010110111100
0000011000011010
1111101011100011
0000001001111010
0000001100000101
1111110011100100
0000001101110110
0000100111001010
1111111101101000
