0000001101000110
1111101101001101
1111100110111001
0000011100111100
0000000011101001
1111110010001000
1111101100111010
0000110000110111
1111101110100000
0000000000100000
0000000111011110
0000000000011110
0000010011100111
0001000100001100
0000010101100100
0000001110010010
1111111101000000
1111110011101101
1111101000101110
1110110111011011
0000010001001110
0001110110111110
0001010010010111
0000001111010010
0000001000100101
1110110111111011
1111000111010011
1111001000001101
1111011010001101
0000010011000000
0000011101011100
1111100001000101
1111110100111010
1111001111011110
1111101010011100
0000100010001000
0000001001111000
0000000000011100
1111101100000010
0000001010111110
1111000111011010
1111011110110011
0001010111001100
0000001011000000
1111000010101001
0000000001001001
0000010111100111
0000101111100001
1111100100101101
1111011011010001
0000100100011001
0000100001100100
1111011011101010
0000101111111001
0000101000011100
1111001101100001
0000010000010100
1111011101110001
1111110010011100
0000001110010011
1111111011011000
0000100110001111
0000100000100001
1111101101111100
