1111111110011110
1111111010110100
0000010110001001
1111111100100100
1111110101000011
0000011000000110
1111101010011110
0000010110001011
0000001100000110
1111111000111001
0000000110101000
0000000000111010
0000000011011011
1111110000001001
1111100000100100
0000010010111000
0000010111010110
0000000011101010
0000011001110000
0000001111101101
1110111001010110
1110111100101010
1111100110100001
0000010111110011
1111111011000100
0000011100111000
0000001000101011
1111111110011010
1111100001011111
1111100000001001
1111011010101100
0000000111100111
0000001010010001
0001010111100010
0000011111011001
1111111111010101
0000001010011011
1111100001000010
1111101010011110
0000000100011000
0000000011011001
0000010011100110
0001110000100010
0010001111100111
0000100000100111
1111110011010001
1111001111001101
0000010110101100
0000100001100011
1111110110011111
0000100011010100
0000111001101011
0000010100111101
0000011010101101
1111010101110001
0000100001110011
0000010110001010
0000010110001111
0000001011011101
1111111101100111
0000000011001100
1111111110000110
0000001110000110
0001011100100110
