1111111101111001
1111110010001011
1111100110001001
0000100011011010
0000001000101010
1111111101001001
1111010111010101
0000010110000110
1111101000011001
1111111101110110
0000000001110000
1111101111011011
0000101011011110
0000100110010011
0000000110001000
0000000010110000
0000100101110111
1111110111100101
1111011001101111
1111110100000001
0001011011110110
0001010011001010
0000111100110110
1111111100001010
0000000111111010
1111001000110001
1110111000000001
1111100011011011
1111110000010010
0000000000010110
1111110010000010
1111101011011101
1111111111010000
1111010111011100
1111101011101001
0000010101011101
0000010000111000
1111011110101111
1111011100010101
1111110101110110
1110111110101010
1111011110111110
0000111100100010
0000011100000010
1111101001101011
1111111101011001
1111101010110100
1111110101010110
1111101001000001
1111110001100110
0000011101000011
0000010001001001
1111111000100100
0000101100100000
0000010001110101
0000000101100110
0000010110011111
1111010101110000
1111011000011110
0000000011011011
0000010010010100
0000110000111000
0000011100100110
0001000111001011
