0000001011101000
1111011011110000
1111011001011111
1111110100010100
1111011001000111
1111111100001011
0000000010100011
0000110000001101
0000001110100010
1111001100111100
1111010001010110
0000000001011110
0000000100011100
1111101100000111
1111110100001110
0000101101010111
0000011101100101
1111110111000101
1111100000101101
0000110110000110
0001000100000000
1111100111000111
0000001101000101
0000010010010001
0000101000010100
1111110101011100
1111110101100011
0000001001100000
0000011001101000
0000010011011111
0000110011001001
0000011011101101
1111111111011011
0000001111110000
0000001111101101
0000000001111010
0000011011000110
0000011000110001
0000000100000010
1111111110001101
0000101111000100
0000010100110000
1111110000010100
0000100111110001
0001000101001001
1111111000111110
1110101001010000
1111000011110001
0000001101100101
1111110110100011
1111010101010000
1111111010100001
0000000000011011
1111010101110110
1111011111101101
0000110110100000
1111100000111111
1111010101011001
1111011011001110
1111101000011101
1111010111111110
1111111110000001
0000001100011000
0001000100001010
