1111111101101011
1111101110100011
1111011110000011
1111111110101011
1111111001111111
0000000110011000
1111000011100011
1111011001011010
1111110001000110
1111110000110010
1111101110011001
1111111100100001
0000000001101011
0000010101000001
0000000011001111
1111110100010100
0000100101110111
1111111111111000
1111010100010110
1111111110000101
0001001000011000
0000100000100000
0000010010011011
1111101011110100
1111111101110010
1111001110001000
1111001101110010
0000001110111001
0000010001000101
1111101010110110
1110100100100110
1111110010010101
1111111100100111
1111001110010011
1111110110101001
0000100001000011
0000010001101111
1111011011100110
1110101100100010
0000000101110000
1111101001000010
1111011001001101
0000010001001100
0000001110000000
0000000000111100
1111101000110110
0000000011111100
0000000101110110
1111110100110100
1111101011111110
0000001110100111
1111110111110011
0000011000000100
0000111010001111
0000101001110000
0000001001001011
0000000101101001
1111100100010000
1111100101101100
1111111000100000
0000101101100001
0000111010101100
0000011110101011
0000011011101000
