1111110100111101
0001001010010101
0000101111100111
1111111000111010
0000100011011000
0000110101010000
0000101000000001
1111101000100111
1111101110110111
0000011001000010
0000100101010001
0000000000101000
1111100001101111
1111101111001001
0000100100110111
0000010011000101
1111101101010000
1111111111001000
1111111000001000
1110110001011000
1111010010101111
1111001111101111
1111101100010001
1111110011111011
1111010100010001
1111000101101011
1111011000011010
1111101100000000
0000001100111101
1111010001000010
1110011001110101
1111101010110000
1111110101101101
1111111010100001
0000000000111111
0000011010010110
0000100011101101
1111110100010110
1111010001001100
1111110011000001
1111100001011101
0000000100111110
0000000010001100
1111110110110011
1111100110111000
1111111100001110
0000000011011000
0000100110010101
0000000010110011
0000010011011001
0000100011000101
0000001010100101
0000001100001110
0000110001110101
0000101111100110
1111001010111111
0000010011101010
0001001111111010
0000101100101100
0000100101001101
0000000111100010
0000011000100011
0000011000110101
1111100100100011
