1111111110110111
1111011111001001
0000000000100111
1111100111110000
0000000110000100
0000011010011101
0000100000011001
1111011011100000
0000100001000011
1111110100001110
0000000000001010
1111111011101010
1111010101011100
1111110100100101
0000001011100101
0000000010010100
0000011011101111
0000000101110101
0000011110110001
0001000011101111
1111101011000110
0000000001111100
1111101110010001
0000011111101110
0000010111111011
0000011010101100
0001010110101110
0001110011110000
0000111110111000
0000010100100111
1111111111111001
0000001110000110
1111111111011000
1111100001010000
0000010001011100
0000101111111101
0000010101011000
0000011100001101
1111111101101100
1111111100000011
0000101101101111
0000000000100001
1111001010110000
1111101111110001
0000100101000010
0000100011101001
1111100110111010
1110111110111000
0000000101100110
0000001001100010
1111110011001110
1110111101110001
1111001110100011
1111001100000000
1111011110011000
0000011110100101
1111110010110001
1111100100111001
1111101110101110
1111101010010010
1111111010000011
1111101011001111
1111010110110111
1111111111010010
