1111011101010000
1111100000100111
0000000100011110
0000010101110010
1111111000010110
0000001110000101
1111110101110101
1111101111100100
0000000001110010
0000100000100111
1111110100100011
1111110101011111
1111100100111110
0000110101110011
1111101011101011
0000000001001001
0000101101001100
1110101000100101
0000000001100111
0001000101000110
1111011001001101
1111100110001100
1111101111010010
0000000100011001
0001001110011000
0000010110000101
1111110111110110
1111101011001000
0000100000001011
0000000011110011
0000100010110000
1110100010110000
0000100110100111
0001000111111000
1111101110101101
0000010010001000
1111010110011101
1111100110110101
0000001000100110
1111111000100001
0000001000010000
1111101110001111
1110101100010000
1111011100111111
1111010110100101
