1110110111100100
1111101000101111
0001000010100001
1111101001100101
0000110111101010
0000111101001110
0000011101111010
1111110101001100
0000000111011100
0000000001110110
1111001110101111
0000000100000011
1111111011110110
0000100010101000
0000000111001011
1111110010010010
0000001101110111
1110101100000111
0000000001101110
0001010010111101
0000010011111001
1111001000100111
1111001111110011
1111011000101010
0000101000111010
0000000000011101
1111101000111010
0000100111010111
0000010000001010
1111000111001110
0000011111101100
1111011110111011
0000101100111111
0000001010101001
0000011111001011
1111110010011100
1111000011000100
0001000010011101
1111110100111000
0000010101000000
0001000010001010
0000101001101110
1111111100111000
0000010100010100
1111011111000111
