1111110111010110
1111011100101010
1111000011001000
1111001101001001
0000111110010101
0000001010110000
1110110100010010
1111100000110101
1111010000111100
0000010010100011
0000001100001011
0001011010010011
1111111000001001
1111110101111101
1111101011001001
0000001000100111
1111001011010111
0000001000111101
0000101011110110
1111110101111101
1111100010010100
1111010010001100
1111101000111010
1111110001001001
1111111111100100
1111100101111100
0000101011000111
1110111011111001
0000011000001010
0000010001111101
0000100111000001
0001011111110110
1111111001111000
1111000101110100
1111111000000101
1111100100101011
0000101110011010
1111011101110011
1111010001100010
0000011011111001
0000100111111110
0000100111010010
0001010110001101
0000100100011000
0000111100010100
