1111010000111000
1111100000110010
1111100101110111
0000010101100110
0000010110010010
1110101010000100
1111111011011000
1110111100100101
1111101101001011
0000010111101101
1111010011110001
0000100100001110
1111100110110111
0000000101000111
0000011011110100
1111101111000000
1111011010100110
1111110000100011
0001000011110110
0000000011010001
1110101011000011
1111100110101010
0000100011110000
0000111011110110
1111111110011111
1111100010110100
0000010100000011
1111111010110010
0000100100011000
0000000100001000
0000000011100101
0000110101110001
1111100100011001
0000001110010111
1111110110011000
0000010000100101
0000111010110100
0000000100110100
0000000000011000
0001000100011000
1111010010010111
1111101100011000
0000010010011011
1111100000101000
0000101111011000
