1111001001011000
1111111111000000
1111100000110110
0000101100000100
0000100001000011
0000010101100101
1111010100011011
0000001110110001
1111011011011010
0000110011001111
1111101011010101
1110101101001101
1111100011110011
1111101011101001
1111111111000111
0000000101011010
1111111111101101
1111110101111001
0001111001000010
0000110111001011
1111011100111011
1110110111010101
0000001000011011
1111010111011011
0000101000111000
1111010010010001
1111110011000001
1111101110001000
1111100101100101
0000110100100111
1111110000000011
0000001100000110
0001000111010011
1111101111110100
1111100011001001
0000101010000000
0000110001011001
1111111100101010
0000001111001010
0000101000011111
0000011100011101
0000000000101001
1111111100100110
0000001100000001
1111111010101000
