0000001101011011
1111110000010110
1111100101000101
1111101111101111
0000011001101011
0000101000101001
1111100100111010
0000100010110001
1111100010001101
0001101000011101
1111111101011110
0000000100010111
0001000001101000
1111011111000101
0000010101110011
0000010000000010
1111111110110000
1111101111110110
0000001111101110
0000001010111010
0001000101111000
1111110101010110
1111100110010100
0000101101011000
1111011111111101
1111000111111111
1111011110011101
1111010011101100
1111010101110100
1111110101000011
1111101100010111
0000011000101000
1111111000100001
0000001101000100
0000100100001011
1111100110111110
1111110101011000
1111111001111110
0000011011010001
0001011100011010
0000101100111110
0000011001011111
0000010111000010
0000111000001101
0000011111011101
