0000100111101000
1111100110000101
1111100011110011
1111100010110101
1111000111110110
0000110101110110
1111110111110111
0000101100111110
0000011101000111
1111100001110011
0000011111000001
0000000111000000
0000011001111001
0000001101101011
1110111011101001
0000110110000101
0000100010010000
1111111110010010
1111111101011000
0000011010010010
0000000111110001
0000001111011101
1111100000101100
1111110001111110
0000101010111110
0000101010100110
1111101000000111
1111111000010001
1111010111011010
0000001100001101
1111111111011100
1110111110110010
0000110010100010
0000000111111101
1111110000110101
0000101011110010
1111110111001000
1111010111100010
0000001001110111
1111000000011010
0000000001001000
0000001001100100
1111011110010011
0000011000110001
1111001110110010
