1111111011010011
0000111101101111
0000111011110001
0000000111000100
1111110101000000
0000000101110110
0001001000110000
0000011011010111
0000100100111111
0000001011000010
1111001001111100
1110100101001110
1111111110111011
0000001010000001
0001001001100110
1111100111000001
0000011011111101
1111110111010001
1111010010000111
0000100011000110
0000100101111000
0000011011010010
0000001010010111
0000010001101001
1111011100100000
1111011110010000
1111110000101100
0001001011000111
1111100100101011
1111101110011101
1111010001101000
1111001111011000
1111100011001001
0000000110101001
0000110010011100
1111101011010111
1111100100001111
0000101001110010
0000010011010001
0000000010111111
1111110110010100
1111100101110001
0000000110110110
0000010000000000
1111010011000100
