0000000101011110
0000010011101110
0000011100111001
0000001011000000
0000001101100001
1111010100011111
0000000111011101
1111001111100000
1111111001011000
1111000111101101
0000000010000000
0000101110011001
1111110011110011
0000110011000100
0000011000010100
1111100011100010
1111101100010011
0000100111000000
1111001110011111
1111011110010010
1111100110101111
0000101110010000
0000110000101111
0000010110011011
1111111101000110
0000010110100101
0000100101111011
0000010000101110
0000110001110101
1111110101111110
0000111011100100
0000001111001101
1111100001110111
0000001101010111
0000000110000100
1111101011000000
1111111110001100
0000011001001011
1111111001001100
1111011011001001
1111101001001101
1111100000111001
0000010110100010
1111010110111000
0000011010000111
