1111011100101001
1111010000010001
1111111101111011
0000111010000010
1111111110111000
1111010101110010
0000100001100010
1111010101000000
0000011111001011
1111100110101111
1111111001100001
0000100101000000
0000000000010110
0000011101010011
0000001011100100
1111101111000101
1111101001100111
1111111010111110
1111111011011011
1111100100000001
1111101001100001
0000100101101011
0000100110000001
0000111000000110
0000010111011001
0001000100110100
0000001010111010
0000000001000101
0000111101100001
1111110100001011
0000101001010111
0000010001101011
1111100000111000
0000100101111001
1111011011000010
0000000011101011
0000101100101011
0000000010011010
1111110010000001
1111010011110111
1111001111010011
1111000101010010
1111111001010101
1110110011000001
1111101100111011
