1111110101001001
0000001011000100
0000100010011010
1111110100110011
1111101011101100
0000001101111010
0000110010010011
0000101000101100
0000100101010101
0000000001100010
1111010101011010
1111110001100111
0000110011011010
1111110000000101
0000101001101011
1111111110010011
0000100000001101
1111010100100101
1111010000000000
0000011011100010
0000111000001101
1111101111000100
1111111010000110
1111111110011111
1111111010011100
1111101011010011
1111101001011100
0000100110110000
1111011110001001
1111101011000100
1111101111001011
1111011010001110
1111111010111001
0000110010100010
0000100101111000
1111101011101010
1111001010100110
0000101010001000
0000011110001101
0000001011101010
1111110111110011
0000001100001010
0000000100001101
0000011001110010
1111011110101111
