1111101000001000
1111011000011100
1111011010001010
0000100000111101
1111100001101100
0000011000010110
0000001111111100
1111101011011111
0000001111000100
0000011101111010
1111111011010001
0000001101111100
1111111010010110
0000000111110001
1111101111100110
1111101001110101
0000110010001001
1110110011111010
1111111011100001
0000101111111010
1111010110001001
1111110000101001
0000001000110111
0000011000110110
0000111001010100
0000001100001011
0000000100010011
1111010111000100
0000011001110111
0000000110101110
0000101100101000
1110101010111000
0000100011000000
0001001111110111
1111110000110010
0000010101001011
1111000100111001
1111001011100101
0000011111000101
0000000100111110
1111110111011000
1111100101011001
1110101011010000
1111111101001110
1111011101101111
