1111101110001111
1110011111010010
0000011100110011
1111100111101000
0000101100101100
0000001011011000
0000010010011001
0000001011010111
0000001001001110
0000000001011101
1111101111000001
0000110000001010
0000101101110000
1111111001010110
1111110101011000
0000010001001001
1111101001100000
1110101011110100
1111010111110101
0000000011001110
0000110010001001
1111111010000110
1111010111100110
1111011000110000
0000100100111111
0000001010011100
1111001110101001
0000010110010101
0000010011010011
1110010011000011
0000001001010000
0000100000110100
0000010111011000
0000011010010110
0000000110111000
1111010011011010
1111110000100011
0000011011110011
1111110111101000
1111011100000001
0000100011101111
0001000100111101
0001001000100110
0000011100001111
0000001010111110
