0000010011000100
1111100001100101
1110110111111111
0000010000000011
1111011101110100
0000011011110011
1111101100011011
0000101111010001
0000011110111111
1111110011001111
0000111100110101
1111111000100111
0000101001001011
1111110001101100
1110111110100011
0000101001010001
1111111011001001
0000100100001000
0000001010000011
1111101010110100
1111111100001101
1111110001001101
0000010111001010
0000001101111011
0000011100100110
0000010101010100
1111101100101110
1111010101010001
1111101100011101
0000100001000001
1111100100011101
0000000010110011
0000010011111100
1111111111110001
1111000110111001
0000011010101111
0000100100110001
1111000111111010
0000011001010111
1111010011001100
1111110100010011
0000010100000111
1111101010011100
0000001111000010
1111110111101111
