0000011000001001
1111010101100001
1111101110000101
0000010110110110
1111011011011011
1111011101101110
0000011011101001
0000010111001111
0000110001011111
1111100111010110
0000000010001110
1111111001100000
0001001000000101
1111000111101010
1111111010110011
0000100100101001
1111111111110011
0000001100111101
0000000111011001
1111011110100011
0000011101111110
0000100011010011
0000100110010111
0000110001010101
1111110100000110
0000000101100011
1111001010111010
1111111111100110
1111011001011001
1111100100111101
1111001101010111
0000101001101010
1111111000110110
0000001010110010
1111101001000000
0000010101110001
0000101111101001
0000000000001011
0000100110011101
0000000001001000
1111011100111001
1111100000101001
0000000010111101
0000000110110110
1111111100110110
