0000100000101110
0001110100000010
1111101111001100
1111111010010000
1111111101111110
1111100101110001
1111001101111010
0000000101010101
1111010001010010
0000000111011110
0000000101100010
1111100001001001
1111011011001010
0000010011101011
1111110101011110
1111110011011001
0000000100100001
0001111100111100
0000010110011101
1111101110001101
1111101110110011
0000001110111011
0000001001100101
1111110001111101
1111101101101000
1111100011100110
0000110011111100
1111110000010010
1111110110011010
0001001011110000
1111111011001111
0000010010111000
1111101110100010
1111000111011000
0000000101000011
0000001101010000
0000111010101011
1111111111011001
1111101000010001
0000100010101111
0000000010000011
1111101110010001
0000001010000111
0000010001000000
0000011000011111
