0000011101100010
0000110010010100
1111011010001100
0000000000101010
1111110011100001
1111110000111101
1111101000010100
0000001101111101
1111100111001100
0001011001001100
0000001010100101
1111111011001000
1111111110111000
1111110000011001
0000000100110111
1111101110111100
0000101101101000
0000010111000100
0000011000110001
0000010111000100
1111101100111001
0000001101100010
1111111100011111
0000111101000100
1111101011001100
1111011010001101
0000000011100101
1111001100110111
0000000000000010
0001000101110000
1111111011101100
1111100011111000
1111100100110110
0000001001011100
0000011011001000
1111111011011100
1111100011010100
1110110100101000
0000101100010110
0001010001011100
1111111010100010
1111001000000111
1110111110110100
0000000110111000
1111111001111011
