1111111010110110
0000101100111010
0001011010011000
0000001000101101
0000000110101011
1111100100100001
0000011000001111
1111101101100111
1111110110011011
1111010101101000
1111111100011000
1111110001110110
1111001011011010
0000001000101111
0001000010100101
1111011111001100
1111110000010110
0000010011010001
1111011110010011
1111111010100101
0000010001111100
0000001101101100
0000000100011100
1111101010111110
1111110011111000
0000000111000000
0000010010010010
0000110111010001
0000110000010100
1111100011000001
0000100110001011
0000010111110100
1111111001001011
0000001001110101
0000011100100001
1111100010011001
1111101111001001
0001001101010011
1111011110010110
1111111001110100
0000000001100101
1111011111111101
1111111000001001
1111001100110010
1111100010101101
