0000010011010111
1111111110000100
0000000011100101
1111111001001110
0000001111000001
1111001110111111
0000010001001111
0000000000010001
0000000101100111
1111101010010000
1111011100011010
1111110100011111
0000110010010010
1111110100100101
0000110111001101
0000001111011110
1111110111110100
0000110011100010
1111100100101101
1111011111111101
0000110000100001
0000010010100001
0000001111101110
0000110010100101
1111011110110001
0000000010101000
0000000110011001
0000100001100101
1111011110001100
1111100110001011
1111001111101011
0000111000111101
1111010100001010
0000010011100001
0000101000011111
1111111010000010
0000110010010110
0000101100111111
0000011100011001
0000011011001101
1111101001111101
1111111011010101
0000111001010111
0000000111010011
0000001001100100
