0001011100110100
0000001001011001
0000000110010110
1111010101000101
1111101111110110
0000000101010111
1111100101110010
1111111001101110
1111110101010000
1111000100110010
0001011010100100
0001000011110110
1111100010010101
0000011111010100
1111110001001011
0000100010110100
1111110010101100
0001000010001000
1111010101101001
1111010000101010
0000001101111101
0000111111110111
1111111110011000
1111100010001011
1111111000011000
0000100011011100
0000100011001011
1111110001111101
0000010000000101
1111110111001011
0000010101000010
0000011000010100
1111101111000110
1111011101111000
0000000100110110
1111110101111110
0000011100101110
0000000100000001
1111110100001100
1111010011010010
0000010000100111
1111110111111000
0000100000110000
1111101100111010
0000000111000101
