1111110001001011
1110011001010101
1111101110100101
1111111110100110
0000010011101100
1111111100101001
0000100001100010
1111110010001101
1111111100001100
1111001100101000
1111101000111000
0001001100110001
0000110101100010
0000001101000000
1111111011111010
0000000101000001
1111101110101000
1111000011101010
1111011101001101
1111111111011100
0000000101101101
1111110101110111
1111111010010101
1111110001101111
0000110000111011
0000011110001001
1111101010010100
0000011100010101
0000100000000001
1110101101011000
0000000100000100
0000100001101011
0000001100101000
0000011101010000
1111100110110011
1111101011011111
1111110010111101
0000011001000111
0000000000010110
1111100011011100
1111110110000100
0000101100010101
0000110110100001
1111101001011101
0000010000100010
