0000001100111101
1110111000000000
1111111100101110
1111001011101111
0000010000010010
0000100111011111
1111100000000110
1111111001100110
1111110111111110
1111011001100000
0000001000011110
0001001010011101
0000110100101101
0000010011111000
1111001001011100
0000101110011101
1111010110110100
1111100001101111
1111111001101001
1111100110101000
0000101111111111
1111001101001110
1111010001111000
1111010010110101
0000010010111100
0000011110101101
1111101100100001
1111111110110011
0000000100001001
1111001111000110
1111111100101011
0000100001000111
0000010010101101
1111101110101011
1111111010010010
1111111111101111
0000010011111000
0000100101011101
1111011110010111
1111100000011010
0000101110111001
0001010001010111
0001000000101101
0000100110010000
0000100010011101
