1110101110100101
1111101010101110
0000000011101011
0000010101011101
0000111100010011
1111010100010101
1111110101100010
1111010101011000
1111100101110111
0000101010011111
1110110110110001
0000001100000000
0000001111001111
0000001000110100
0000101111100101
1111011100111010
1111001000101100
1111100101101100
0000100001000100
1111111001111111
0000001111010000
1111101011100110
0000010110001100
0000010001111011
1111100100110010
1111011010000111
1111111010000110
0000100100111100
0000010100000101
1111110010111100
0000010101110110
0001011010000111
0000000001101000
0000011000011010
0000001111111010
1111011011111100
0000110000001011
0000110101001001
1111101011000010
0001000100100111
1111100110110011
0000001010000001
0001000101110110
0000000010001100
0000101001000111
