0000011011010001
0000010101100001
1111011100000111
0000100110111101
1111011110111111
1111001100101110
1111111110000110
1111101100111011
0000000101011101
1111101010010111
0000011010000100
1111110010000101
1111010111010100
0000000010011000
0000000111011101
1111101111101111
0000001011001101
0000101100111011
0000010001001001
1111100100110001
1111001110110111
0000011001110001
0001000010110010
0000011101010101
1111101000101000
0000001101010001
0000101111100110
1111111001101101
1111111111110111
0000111110011011
1111110110100010
1111110100011010
1111010011011101
1111111101011000
1111101111110001
0000010111110110
0000100010000001
1111111011111000
1111111001000111
1111101001110111
1111000001110100
1111000000111010
1111110111011101
1111001001101100
0000100000100000
