1111011101100011
1110101010010011
1111001100001110
1111110001111001
0000010101000010
0000011001001010
1111100101111010
0000010010000101
1111111011001011
0000000010101110
0000011010101001
0000011111111000
0000101010001000
0000100001011111
1110101100111001
0000011100010100
1111101001110111
1110101111100111
0000101011011001
0000000110000011
1111010110010110
1110111000000110
0000000000001010
1111010101111001
0001001110010011
0000110100011011
1111101010100111
1111011011100110
0000000000110000
1111100011111100
0000001001111111
0000010000011010
0001001101010011
0000000010110110
1111001001000111
0000100011011100
0000010110010000
1111111110100101
1111111011000100
1111010000100101
0000001010111111
0000111101010100
0000011011110001
0000010011111100
1111110010111010
