0000010011001011
0000110100001111
1111110000110001
1111101010101100
0000011000111111
1111111101110011
1111011101110101
0000010010001111
1111001011001111
0001011010001111
1111100111011110
1111111010110110
1111110111110111
1111010111111111
0000001011010011
1111111000110111
1111111110100000
0000101010100000
0000101011011111
0000011001011001
0000100000110010
1111100011011011
1111010100011111
0000101000101001
1111010000101001
1110101100010000
1111101100100011
1111010101001101
1111011101001110
0000011001111001
1111010001011001
0000001111001110
1111100101111011
1111011101011000
0000100110001101
0000000100100100
0000010011111101
0000010111110101
0000010100111011
0001011111011101
0000100101010100
0000000110011101
1111111100100000
0000111010001101
0000011100001100
