0000111101000000
0000100011001011
1111011001010100
1111001101000110
1111010011010110
0000000110100110
1111111111110101
0000000110110011
1110011111010011
0000100011100001
1111100000001011
0000100000000010
0000111010010010
0000010100010000
1101011110110101
1110011110100011
1110101011000000
1111110000111111
1111011101001001
1111100101110100
1111101101110101
0000001100101011
0000001001110011
1110010111111111
0000110100110101
0000001111110011
1110101111000100
0000100110100010
1111000001010101
1111111100111100
1111110110000000
0000011100101111
1110101000000101
1111011100010001
0000000100111011
0000101011111101
0000010111010101
0000100001100100
1110100111001000
1111011100110001
