0000010111001111
0000001010001001
1110010010111000
1111111011011111
1110100110011000
1111111010100000
1110111000001001
1111100010000011
0000101101001111
0000111101001000
1111111010111000
1110100110111101
0000000001000010
1110100111110010
1111011001000111
1111101101001101
0000011110010100
0000000111000111
0000101001111110
1111110110101110
1101111110001100
0000010000100010
0000110011111110
0000000001111001
0000000111110010
1111111011011001
0000111100110101
1110001011000111
1111001100111110
0000101001100110
1110101101001011
1110101001111011
0000010100011111
0000101000111100
1110110000111100
0000001000000010
0000001110101100
0000001011001000
1111001111101001
0001000100101001
