0000011001111011
0000000001110100
0000011000111101
0000100001010100
0000101010110101
1111110100011111
1110010000101101
1110000101011111
1110111010001000
1111011111110001
0000011111000001
1111000011111001
0000100100111110
1110110000111011
1101110000000010
1110011110010101
0000011011001011
0000010011111011
0000110101011010
0000000010111111
1111000001111101
0000000111010100
1111000110001111
0000000010010011
0000101100100010
1111111011110111
1110000010001001
0000101000000000
0000001011011101
0000100101010010
1110100000001110
1111011010001010
0000100001101110
1110111110001100
1111010111100011
1111110011101111
0000010010001011
1111010110001101
0000001111000010
1110011000000000
