1111100000000001
1111001100001000
0000100100111101
0000100110110011
0000100001110111
1110110001000010
1111100001000000
0000100000111111
1111011100011000
1110010111010001
1110010101101111
0000010001010011
1111010100001000
0000001001111001
1111111111100101
1111101011101101
0000000101101111
0000011011110111
0001001001111011
0000011101010100
1110010001110110
1110011011110010
1111011001000001
0000110001001011
1110101000010101
0000010000111110
1111001010110101
0000010111101100
0000110110110010
1111101011000001
0000010111100110
0000000111101001
1111000010100010
0000011000110101
1110111110111010
1110100110101100
1110110111111000
0000010001111000
1111111111101110
0000111100101110
