-- begin_signature
-- Weight_Memory(numWeight
-- 64
-- neuronNo
-- 7
-- layerNo
-- 1
-- addressWidth
-- 6
-- dataWidth
-- 16
-- weightFile
-- "C:/Users/Ohmen/Desktop/Desktop/School/Thesis/tensorflow/w_b/w_1_7.mif")
-- end_signature
WIDTH=16;
DEPTH=64;

ADDRESS_RADIX=UNS;
DATA_RADIX=BIN;

CONTENT BEGIN
	63 :	1111101100101000;
	62 :	0000000001000001;
	61 :	0000000110000110;
	60 :	1111111101010001;
	59 :	0000001110101010;
	58 :	0000001001000010;
	57 :	0000010001010110;
	56 :	0000000111000100;
	55 :	1111011011001110;
	54 :	0000101010101000;
	53 :	0000100001000110;
	52 :	1111101101000101;
	51 :	0000000100000011;
	50 :	0000000101011100;
	49 :	0000001010010100;
	48 :	0000001111001011;
	47 :	0000100000011000;
	46 :	0000001001000111;
	45 :	0000000111011100;
	44 :	1111101111011100;
	43 :	0000000110010101;
	42 :	0000100001101110;
	41 :	1111111111111001;
	40 :	1111101000001011;
	39 :	0000001111010000;
	38 :	0000000000011110;
	37 :	0000000101101010;
	36 :	1111111001000010;
	35 :	0000001001000000;
	34 :	1111101101010011;
	33 :	1111110101000100;
	32 :	0000001001000100;
	31 :	1111011111101011;
	30 :	1111110001111100;
	29 :	1111110111010000;
	28 :	1111110101001001;
	27 :	0000000011111100;
	26 :	1111100010110011;
	25 :	1111100101011110;
	24 :	1111101000111101;
	23 :	1111110100001111;
	22 :	0000001101110101;
	21 :	0000001101111111;
	20 :	1111101110110011;
	19 :	1111010110001010;
	18 :	1111110010000110;
	17 :	1111111000100010;
	16 :	1111101000101011;
	15 :	0000100001111010;
	14 :	0000100000001010;
	13 :	0000011001000010;
	12 :	1111111101001000;
	11 :	0000010001101000;
	10 :	0000011101110010;
	9 :	0000011011111001;
	8 :	0000100000011001;
	7 :	0000001001111100;
	6 :	1111101100110011;
	5 :	1111110100001001;
	4 :	0000011001111110;
	3 :	0000010101011010;
	2 :	1111111100001010;
	1 :	0000001001100011;
	0 :	1111101111111011;
END;
