-- begin_signature
-- Weight_Memory(numWeight
-- 45
-- neuronNo
-- 26
-- layerNo
-- 2
-- addressWidth
-- 6
-- dataWidth
-- 16
-- weightFile
-- "w_2_26.mif")
-- end_signature
WIDTH=16;
DEPTH=45;

ADDRESS_RADIX=UNS;
DATA_RADIX=BIN;

CONTENT BEGIN
	44 :	1111011111110111;
	43 :	0000000001111000;
	42 :	0000100010111011;
	41 :	1111011010101110;
	40 :	0000010101000001;
	39 :	0000011100100101;
	38 :	1111110001110010;
	37 :	1111010100111110;
	36 :	1111011111111001;
	35 :	0000101110110000;
	34 :	1111010010111101;
	33 :	1111110101101100;
	32 :	1111101111101100;
	31 :	0000010100001101;
	30 :	1111011011010011;
	29 :	0000100110001101;
	28 :	0000101000000110;
	27 :	0000011111110001;
	26 :	0000010110011001;
	25 :	0000011011100000;
	24 :	1111100101111011;
	23 :	1111010011001001;
	22 :	0001010100101000;
	21 :	1111101010111101;
	20 :	1111011001011010;
	19 :	1111111101111010;
	18 :	1111110010011101;
	17 :	0000110101101111;
	16 :	1111100111011010;
	15 :	0000111111101110;
	14 :	0000000000100100;
	13 :	1111001000011100;
	12 :	0000100111011110;
	11 :	1111001101110010;
	10 :	1111101111100100;
	9 :	0000000000000010;
	8 :	0000000000011111;
	7 :	1111010000111101;
	6 :	1110101100010101;
	5 :	0000101110010100;
	4 :	1111101001001010;
	3 :	0000000100000001;
	2 :	1111010111010011;
	1 :	1111111111000000;
	0 :	0001010001111000;
END;
