-- begin_signature
-- Weight_Memory(numWeight
-- 64
-- neuronNo
-- 8
-- layerNo
-- 1
-- addressWidth
-- 6
-- dataWidth
-- 16
-- weightFile
-- "w_1_8.mif")
-- end_signature
WIDTH=16;
DEPTH=64;

ADDRESS_RADIX=UNS;
DATA_RADIX=BIN;

CONTENT BEGIN
	63 :	0000011001000111;
	62 :	1111110110000100;
	61 :	1111111000011011;
	60 :	1111111001000110;
	59 :	0000000011101110;
	58 :	1111100101000100;
	57 :	1110110111000101;
	56 :	1111101100000010;
	55 :	0000101011001010;
	54 :	1111101101110011;
	53 :	1111100111101111;
	52 :	1111001011100111;
	51 :	1111101001111000;
	50 :	0000000001010111;
	49 :	0000000111111110;
	48 :	1111100101101010;
	47 :	1111000110011001;
	46 :	1111101100011110;
	45 :	1111111011001001;
	44 :	1111111000101011;
	43 :	0000000011100000;
	42 :	0000010001101001;
	41 :	1111110001000011;
	40 :	1111111110001001;
	39 :	1111111001011001;
	38 :	1111000111101011;
	37 :	1111011101110010;
	36 :	1111110100001100;
	35 :	0000010001111111;
	34 :	1111110100111010;
	33 :	1110011101111111;
	32 :	1111111110110011;
	31 :	1111011000001111;
	30 :	0000001101110010;
	29 :	0000110001010010;
	28 :	0000100001101010;
	27 :	0000011100100110;
	26 :	1111110011101000;
	25 :	1111010111111010;
	24 :	0000100000000101;
	23 :	1111110111111100;
	22 :	0001010011101110;
	21 :	0001100100101011;
	20 :	0000110000111101;
	19 :	1111101110101111;
	18 :	1111110000111001;
	17 :	0000001001000110;
	16 :	0000100010110000;
	15 :	0000010100010000;
	14 :	0000010101100010;
	13 :	0001000010101101;
	12 :	1111111111111001;
	11 :	1111111001110001;
	10 :	0000010000001110;
	9 :	1111111110000001;
	8 :	0000010100110001;
	7 :	0000011011001111;
	6 :	1111100100100001;
	5 :	1111100010110000;
	4 :	1111110000011101;
	3 :	0000010111100110;
	2 :	1111110111010110;
	1 :	1110100111110011;
	0 :	1111111100000110;
END;
