-- begin_signature
-- Weight_Memory(numWeight
-- 45
-- neuronNo
-- 32
-- layerNo
-- 2
-- addressWidth
-- 6
-- dataWidth
-- 16
-- weightFile
-- "w_2_32.mif")
-- end_signature
WIDTH=16;
DEPTH=45;

ADDRESS_RADIX=UNS;
DATA_RADIX=BIN;

CONTENT BEGIN
	44 :	0000001100000111;
	43 :	1111110010100110;
	42 :	0000000101111100;
	41 :	1111110100101111;
	40 :	0000000000101101;
	39 :	1111100011011000;
	38 :	0000000111001111;
	37 :	1111110001111110;
	36 :	1111110000110110;
	35 :	0001001100100010;
	34 :	0000101101111010;
	33 :	0000001010010010;
	32 :	1111111001000100;
	31 :	0000111000001110;
	30 :	1111101001000001;
	29 :	0001000000111110;
	28 :	0000110000111010;
	27 :	0000011000000100;
	26 :	0000000000100011;
	25 :	0000101001011010;
	24 :	0000010110001011;
	23 :	0000100000010110;
	22 :	0001010110001110;
	21 :	1111000101000011;
	20 :	1111111010111101;
	19 :	1111111001000100;
	18 :	1111101101001110;
	17 :	0000011000101111;
	16 :	1111100101101011;
	15 :	0000101001111100;
	14 :	0000000100101110;
	13 :	0000010001010101;
	12 :	0000001111001000;
	11 :	1111110010101100;
	10 :	1111011011100001;
	9 :	1111110101110100;
	8 :	1111101000110110;
	7 :	1111110110100010;
	6 :	1111011111001100;
	5 :	1111111100000100;
	4 :	0000000101111100;
	3 :	1110111110000110;
	2 :	1111111010010011;
	1 :	1111100110110110;
	0 :	0000101010100100;
END;
