-- begin_signature
-- Weight_Memory(numWeight
-- 64
-- neuronNo
-- 40
-- layerNo
-- 1
-- addressWidth
-- 6
-- dataWidth
-- 16
-- weightFile
-- "w_1_40.mif")
-- end_signature
WIDTH=16;
DEPTH=64;

ADDRESS_RADIX=UNS;
DATA_RADIX=BIN;

CONTENT BEGIN
	63 :	0000111010010000;
	62 :	0000110011000010;
	61 :	0000111101101111;
	60 :	0000011001110010;
	59 :	1111111111100001;
	58 :	1111100011011110;
	57 :	1111010011101110;
	56 :	0000001101101001;
	55 :	0000011001001010;
	54 :	0000100000110100;
	53 :	0000110110100011;
	52 :	1111110000011110;
	51 :	0000010101000010;
	50 :	0000111010001110;
	49 :	1111101100111101;
	48 :	0000000000111111;
	47 :	0000100111111100;
	46 :	1111010100100001;
	45 :	1111100111101110;
	44 :	1111111010101010;
	43 :	0000100111110010;
	42 :	0001001000001101;
	41 :	1111001011000110;
	40 :	1111011000101101;
	39 :	1111111010110011;
	38 :	1110001011001000;
	37 :	1111000101110010;
	36 :	0000000001101000;
	35 :	0000101011101100;
	34 :	1111110011101100;
	33 :	1111010101011101;
	32 :	0000000100001111;
	31 :	0000000010010110;
	30 :	1110110100000011;
	29 :	1111110011110000;
	28 :	1111101111000111;
	27 :	0000011011011110;
	26 :	1111110010001100;
	25 :	1111011000100011;
	24 :	1111100100101111;
	23 :	1111111001111111;
	22 :	0000011101100100;
	21 :	0000010110111110;
	20 :	1111010011001000;
	19 :	1111110110000100;
	18 :	0000110011110111;
	17 :	0000001011001000;
	16 :	1111111110001101;
	15 :	1111000100001110;
	14 :	0000000110110101;
	13 :	0000000100000001;
	12 :	1111001001111100;
	11 :	1111111101111100;
	10 :	0000001101001011;
	9 :	1111101001001010;
	8 :	0000001111001100;
	7 :	1111010000010111;
	6 :	1110100101000011;
	5 :	1111110100110111;
	4 :	1111100001100101;
	3 :	1111100111000101;
	2 :	1111100000101011;
	1 :	1111000101101011;
	0 :	0000001010101010;
END;
