-- begin_signature
-- Weight_Memory(numWeight
-- 45
-- neuronNo
-- 6
-- layerNo
-- 2
-- addressWidth
-- 6
-- dataWidth
-- 16
-- weightFile
-- "w_2_6.mif")
-- end_signature
WIDTH=16;
DEPTH=45;

ADDRESS_RADIX=UNS;
DATA_RADIX=BIN;

CONTENT BEGIN
	44 :	1111011111100010;
	43 :	0000000110011011;
	42 :	1111110010100111;
	41 :	0000100101010000;
	40 :	1111111001111001;
	39 :	0000010111001010;
	38 :	1111101001011110;
	37 :	1111100010001000;
	36 :	1111011110111011;
	35 :	1111100111100110;
	34 :	1110101011010100;
	33 :	0000000100100010;
	32 :	1111111111101111;
	31 :	1110111110110000;
	30 :	0000001000011110;
	29 :	1111111100001001;
	28 :	1110101100001010;
	27 :	0000000000110101;
	26 :	1111110110000111;
	25 :	0000011000001100;
	24 :	1111111001111111;
	23 :	1111111110000111;
	22 :	0000111000001101;
	21 :	0000001100111000;
	20 :	0000001011111100;
	19 :	1111101100101010;
	18 :	0000110011001111;
	17 :	0000000010011111;
	16 :	0000100100001000;
	15 :	1110110001100101;
	14 :	0000010000101010;
	13 :	1110101110010010;
	12 :	1111011000011100;
	11 :	1111011011010010;
	10 :	0000100100101011;
	9 :	0000100110101100;
	8 :	0000110011100110;
	7 :	0000000000101100;
	6 :	1111111100111101;
	5 :	0000110110000101;
	4 :	1111111001100101;
	3 :	0000111001110101;
	2 :	0000000100010010;
	1 :	0000101110101101;
	0 :	0000000101111101;
END;
