-- begin_signature
-- Weight_Memory(numWeight
-- 64
-- neuronNo
-- 11
-- layerNo
-- 1
-- addressWidth
-- 6
-- dataWidth
-- 16
-- weightFile
-- "C:/Users/Ohmen/Desktop/Desktop/School/Thesis/rtl/w_1_11.mif")
-- end_signature
WIDTH=16;
DEPTH=64;

ADDRESS_RADIX=UNS;
DATA_RADIX=BIN;

CONTENT BEGIN
	63 :	1111100000100101;
	62 :	1111011100101110;
	61 :	1110100100101101;
	60 :	1111011100010010;
	59 :	0000101001101110;
	58 :	0000001011010110;
	57 :	1111101011011011;
	56 :	1111111010111110;
	55 :	1111110010111100;
	54 :	0000000110111111;
	53 :	1111100000101010;
	52 :	1110101101000101;
	51 :	1111010110011110;
	50 :	0000010111011111;
	49 :	0000000011010100;
	48 :	1111111100011111;
	47 :	1111111110001000;
	46 :	1111011110101101;
	45 :	1111100001001001;
	44 :	1111111100110000;
	43 :	1110001111010010;
	42 :	1111001111000110;
	41 :	1111100101000010;
	40 :	0000000001100010;
	39 :	0000000011100011;
	38 :	1111011000100110;
	37 :	1111100010000010;
	36 :	1111101001000100;
	35 :	0010001001001100;
	34 :	1111111101000111;
	33 :	1110001100100111;
	32 :	0000000010001001;
	31 :	1111111100100001;
	30 :	1111110101011000;
	29 :	0001001001010101;
	28 :	0001001100111110;
	27 :	0001100001100101;
	26 :	1111011100111011;
	25 :	1111000111010001;
	24 :	0000010000110101;
	23 :	0000000111010001;
	22 :	0000001101101000;
	21 :	0001001001010100;
	20 :	1111111101110101;
	19 :	0000001001110011;
	18 :	0000000001011011;
	17 :	0000011001001111;
	16 :	1111111100100101;
	15 :	0000011101111100;
	14 :	0001000001100011;
	13 :	0000111000111001;
	12 :	1111011100111110;
	11 :	0001000010110001;
	10 :	0001010110001101;
	9 :	0000001111001011;
	8 :	0000001000111000;
	7 :	0000001110101101;
	6 :	1111111001100001;
	5 :	1111110110010001;
	4 :	0000101001010101;
	3 :	0000010001001011;
	2 :	0000010011011010;
	1 :	1111110011100110;
	0 :	0000000011101011;
END;
