-- begin_signature
-- Weight_Memory(numWeight
-- 64
-- neuronNo
-- 21
-- layerNo
-- 1
-- addressWidth
-- 6
-- dataWidth
-- 16
-- weightFile
-- "w_1_21.mif")
-- end_signature
WIDTH=16;
DEPTH=64;

ADDRESS_RADIX=UNS;
DATA_RADIX=BIN;

CONTENT BEGIN
	63 :	0000111010010101;
	62 :	0000011101101001;
	61 :	0000001011000000;
	60 :	0000000111101011;
	59 :	0000001111000111;
	58 :	0000011011100100;
	57 :	0000001010111100;
	56 :	0000000001111111;
	55 :	0000101011111100;
	54 :	1111111010110101;
	53 :	1111110000001100;
	52 :	0000100011000011;
	51 :	1111101101001101;
	50 :	0000000010010101;
	49 :	0000000111100011;
	48 :	0000000000110010;
	47 :	1111001011010111;
	46 :	1111001101111101;
	45 :	1111010001011111;
	44 :	1111100111001110;
	43 :	1111011011011100;
	42 :	1110101000101010;
	41 :	1111001110010100;
	40 :	0000001001010111;
	39 :	1111110111011011;
	38 :	1110111111000101;
	37 :	1111011010111010;
	36 :	1111110000000011;
	35 :	0000001001001010;
	34 :	1111001110010001;
	33 :	1110111000000100;
	32 :	0000000001011111;
	31 :	1111110010001100;
	30 :	1111011010111111;
	29 :	0000001001011100;
	28 :	0000111011110001;
	27 :	0000100000111101;
	26 :	0000000000111000;
	25 :	0000001011001111;
	24 :	0000001100000100;
	23 :	1111110110101111;
	22 :	1111110011000100;
	21 :	0000011011010010;
	20 :	0001000011110100;
	19 :	0000100100000001;
	18 :	1111111100000011;
	17 :	0000110001111100;
	16 :	0000010001000000;
	15 :	1111111011100000;
	14 :	1111110110000010;
	13 :	0000010001110111;
	12 :	0000011000001011;
	11 :	0000000000011110;
	10 :	0000000000100001;
	9 :	0000100111000000;
	8 :	0000000110111101;
	7 :	1111001110110010;
	6 :	1111110101100000;
	5 :	0000011010000111;
	4 :	1111110000101100;
	3 :	0000010011100111;
	2 :	0000110011000000;
	1 :	0000011110000101;
	0 :	1111111000101101;
END;
