-- begin_signature
-- Weight_Memory(numWeight
-- 64
-- neuronNo
-- 0
-- layerNo
-- 1
-- addressWidth
-- 6
-- dataWidth
-- 16
-- weightFile
-- "C:/Users/Ohmen/Desktop/Desktop/School/Thesis/rtl/w_1_0.mif")
-- end_signature
WIDTH=16;
DEPTH=64;

ADDRESS_RADIX=UNS;
DATA_RADIX=BIN;

CONTENT BEGIN
	63 :	1111111010011100;
	62 :	0000000010001001;
	61 :	1111111110010010;
	60 :	1111110110011110;
	59 :	1111110111100011;
	58 :	0000000001101010;
	57 :	1111110101011011;
	56 :	1111111100101110;
	55 :	1111111011111101;
	54 :	0000001100011011;
	53 :	1111110101111101;
	52 :	0000000100111001;
	51 :	0000010000111110;
	50 :	0000000100111101;
	49 :	1111111100011010;
	48 :	0000000101100011;
	47 :	1111111010101001;
	46 :	0000000010110110;
	45 :	1111111001101111;
	44 :	1111111000001100;
	43 :	1111110110101011;
	42 :	1111110110001010;
	41 :	1111101110100010;
	40 :	1111111110011011;
	39 :	1111111111100101;
	38 :	0000000001000100;
	37 :	0000000011011001;
	36 :	0000000101011000;
	35 :	1111111011000111;
	34 :	0000000011101101;
	33 :	0000001110001101;
	32 :	0000000010000111;
	31 :	1111111110000101;
	30 :	0000000010110101;
	29 :	1111111011000110;
	28 :	1111111111001011;
	27 :	0000001011110110;
	26 :	0000000101100100;
	25 :	1111111010101000;
	24 :	0000001101010010;
	23 :	1111111010000011;
	22 :	1111111110010000;
	21 :	1111110110001000;
	20 :	1111111001010000;
	19 :	0000000011111101;
	18 :	1111111110010000;
	17 :	0000000101001111;
	16 :	1111110111110010;
	15 :	0000000000000001;
	14 :	1111111010100010;
	13 :	0000001001100111;
	12 :	1111111111000011;
	11 :	1111111111111010;
	10 :	0000000011011010;
	9 :	1111111111101110;
	8 :	1111111101011011;
	7 :	0000001110000111;
	6 :	1111110111001011;
	5 :	1111111111100110;
	4 :	0000001000010110;
	3 :	0000000111101000;
	2 :	1111110101111010;
	1 :	0000010000101101;
	0 :	0000000011101011;
END;
