-- begin_signature
-- Weight_Memory(numWeight
-- 45
-- neuronNo
-- 14
-- layerNo
-- 2
-- addressWidth
-- 6
-- dataWidth
-- 16
-- weightFile
-- "w_2_14.mif")
-- end_signature
WIDTH=16;
DEPTH=45;

ADDRESS_RADIX=UNS;
DATA_RADIX=BIN;

CONTENT BEGIN
	44 :	1111011010000111;
	43 :	0000001001111000;
	42 :	0000010001110111;
	41 :	1111101110010101;
	40 :	0001010001111000;
	39 :	1111111001000011;
	38 :	0000100001110010;
	37 :	1111110110110000;
	36 :	0000001110010001;
	35 :	1111110100010101;
	34 :	1111000100001110;
	33 :	0000010011000010;
	32 :	1111010111111110;
	31 :	1111000101000101;
	30 :	1111011100011010;
	29 :	0000100101001010;
	28 :	1111111111111010;
	27 :	0000010110000111;
	26 :	0000100111111110;
	25 :	1110011011000001;
	24 :	1111001011110110;
	23 :	1111011101101001;
	22 :	1111011110101110;
	21 :	1111111011110100;
	20 :	1111001001000011;
	19 :	0000101010101110;
	18 :	1111111101011101;
	17 :	1111011111001100;
	16 :	0000111101010010;
	15 :	0000001100110011;
	14 :	1111101011000000;
	13 :	1111101101000100;
	12 :	0000011100011100;
	11 :	1110100101000011;
	10 :	1111110110001110;
	9 :	0000010101010110;
	8 :	1111110110000000;
	7 :	1111010111101000;
	6 :	0000001001010111;
	5 :	0000011001010010;
	4 :	1111110110110010;
	3 :	0000101010100010;
	2 :	1111101111000000;
	1 :	0000001110100111;
	0 :	0000100101001100;
END;
