-- begin_signature
-- Weight_Memory(numWeight
-- 37
-- neuronNo
-- 5
-- layerNo
-- 3
-- addressWidth
-- 6
-- dataWidth
-- 16
-- weightFile
-- "w_3_5.mif")
-- end_signature
WIDTH=16;
DEPTH=37;

ADDRESS_RADIX=UNS;
DATA_RADIX=BIN;

CONTENT BEGIN
	36 :	0000001111100000;
	35 :	1110101101101111;
	34 :	1110011111111000;
	33 :	1110110110100110;
	32 :	0000101100011000;
	31 :	0000000011111010;
	30 :	0000000100101111;
	29 :	0000011000010111;
	28 :	0000000111000110;
	27 :	1111000010010001;
	26 :	0000010011110110;
	25 :	0000101101000011;
	24 :	1110110110011111;
	23 :	1110110011111110;
	22 :	0000100101111110;
	21 :	1110010111010000;
	20 :	0000101110001101;
	19 :	0000010110001111;
	18 :	0000110110011011;
	17 :	0000011001100011;
	16 :	1111111011100000;
	15 :	1110101011011000;
	14 :	1111100100101101;
	13 :	1110110101010000;
	12 :	1110011111001111;
	11 :	1110110001010010;
	10 :	0000100011001101;
	9 :	0000100001000001;
	8 :	1111000111110101;
	7 :	0000010111000110;
	6 :	1110101110111011;
	5 :	0000011000011000;
	4 :	0000101111011100;
	3 :	0000011010110101;
	2 :	1111000001100100;
	1 :	1110100100000100;
	0 :	0000010001111111;
END;
