-- begin_signature
-- Weight_Memory(numWeight
-- 64
-- neuronNo
-- 26
-- layerNo
-- 1
-- addressWidth
-- 6
-- dataWidth
-- 16
-- weightFile
-- "w_1_26.mif")
-- end_signature
WIDTH=16;
DEPTH=64;

ADDRESS_RADIX=UNS;
DATA_RADIX=BIN;

CONTENT BEGIN
	63 :	0000111101110100;
	62 :	0001010101001111;
	61 :	0001001000111101;
	60 :	0000011001010111;
	59 :	0000000111111001;
	58 :	1111111101011010;
	57 :	0000100111001110;
	56 :	0000001100101101;
	55 :	0000100100001011;
	54 :	0000110100110101;
	53 :	0000111001010111;
	52 :	0000100100101110;
	51 :	0000000100101100;
	50 :	1111110101011110;
	49 :	1111110000000101;
	48 :	0000011000111011;
	47 :	0000011011000111;
	46 :	1111111111001001;
	45 :	1111110111001101;
	44 :	1111110100010111;
	43 :	1111110100010001;
	42 :	1111100111100011;
	41 :	1111000110001110;
	40 :	1111011110011010;
	39 :	0000000110000101;
	38 :	1110110100001000;
	37 :	1111101100111100;
	36 :	0000001111001110;
	35 :	0000010100100010;
	34 :	1111111010100101;
	33 :	1111100000111011;
	32 :	0000001000000001;
	31 :	0000000010110010;
	30 :	1110010110101000;
	29 :	1111100100110001;
	28 :	0000011100000010;
	27 :	0000011011010001;
	26 :	1111111111001011;
	25 :	0000000110100110;
	24 :	1111110001011110;
	23 :	1111111001111100;
	22 :	1111011111001110;
	21 :	1111000011101011;
	20 :	0000010011001001;
	19 :	0000000101111011;
	18 :	0000001001101101;
	17 :	1111111101011110;
	16 :	1111111110101011;
	15 :	1111101000111011;
	14 :	0000011100110101;
	13 :	1111110000100011;
	12 :	1111100000110110;
	11 :	0000001011001010;
	10 :	1111101100011110;
	9 :	0000010010010100;
	8 :	1111101100110100;
	7 :	1111001100010001;
	6 :	1111111010111111;
	5 :	0000101110100000;
	4 :	0000000010100011;
	3 :	1111110100100000;
	2 :	0000001100000110;
	1 :	1111111111100001;
	0 :	1111110001001010;
END;
