-- begin_signature
-- Weight_Memory(numWeight
-- 64
-- neuronNo
-- 35
-- layerNo
-- 1
-- addressWidth
-- 6
-- dataWidth
-- 16
-- weightFile
-- "w_1_35.mif")
-- end_signature
WIDTH=16;
DEPTH=64;

ADDRESS_RADIX=UNS;
DATA_RADIX=BIN;

CONTENT BEGIN
	63 :	1110111000101001;
	62 :	1111001111001100;
	61 :	1111100101000111;
	60 :	0000000110101111;
	59 :	0000101100010110;
	58 :	0001001011101011;
	57 :	0000100111010011;
	56 :	0000000110100001;
	55 :	1110111001001001;
	54 :	0000011100000001;
	53 :	0000001011111110;
	52 :	1111010111011100;
	51 :	1111111000101101;
	50 :	0000101011111111;
	49 :	1111111111100110;
	48 :	1111110010000110;
	47 :	0000101010111011;
	46 :	0001100010001011;
	45 :	0000110001010101;
	44 :	1111000100001111;
	43 :	1111001010011110;
	42 :	0000001101111010;
	41 :	1111111010011010;
	40 :	1111011011001111;
	39 :	1111110011000101;
	38 :	0000000100001001;
	37 :	1111101000010010;
	36 :	1111101111100010;
	35 :	0000000000011000;
	34 :	0000001110001101;
	33 :	1111101101010101;
	32 :	1111111001101101;
	31 :	1111011011010110;
	30 :	1111110101110100;
	29 :	1111101110110011;
	28 :	1111110100011111;
	27 :	0000000000001011;
	26 :	1111101010100111;
	25 :	1111010100010010;
	24 :	1111100001011011;
	23 :	1111011110111110;
	22 :	1111110010010110;
	21 :	0000011100011010;
	20 :	1111000101110011;
	19 :	1110100010100101;
	18 :	1111111110111011;
	17 :	0000000110010011;
	16 :	1111011111110111;
	15 :	0000001001101101;
	14 :	0000101001001010;
	13 :	0000110010101010;
	12 :	1111111111000010;
	11 :	0000010011100000;
	10 :	0001000011111101;
	9 :	0000110010010111;
	8 :	0000000111010111;
	7 :	1111111011100001;
	6 :	0000001111010000;
	5 :	0000001001110100;
	4 :	0000100110000111;
	3 :	0000100010011001;
	2 :	0000111110010001;
	1 :	0000100111011001;
	0 :	0000001000111110;
END;
