-- begin_signature
-- Weight_Memory(numWeight
-- 64
-- neuronNo
-- 3
-- layerNo
-- 1
-- addressWidth
-- 6
-- dataWidth
-- 16
-- weightFile
-- "w_1_3.mif")
-- end_signature
WIDTH=16;
DEPTH=64;

ADDRESS_RADIX=UNS;
DATA_RADIX=BIN;

CONTENT BEGIN
	63 :	0001010000001110;
	62 :	0000100100000111;
	61 :	0000111100110110;
	60 :	0000100010000100;
	59 :	0000001011010010;
	58 :	1111011000101100;
	57 :	1111111010011100;
	56 :	1111111100110011;
	55 :	0000010000101010;
	54 :	0000000011101000;
	53 :	0000111000010100;
	52 :	0000100010100101;
	51 :	1111111100111010;
	50 :	0000100000011011;
	49 :	0000000110100111;
	48 :	0000000110100001;
	47 :	1111001110011001;
	46 :	1110100110000111;
	45 :	1111001001111111;
	44 :	1111101001111100;
	43 :	1111111011000101;
	42 :	1111110101000110;
	41 :	1111010111011000;
	40 :	1111110001011110;
	39 :	0000000110001100;
	38 :	1110000011001111;
	37 :	1111010011010111;
	36 :	1111110110100000;
	35 :	0000010101011100;
	34 :	1110111011010110;
	33 :	1110111010111010;
	32 :	0000000001101010;
	31 :	1111111111010111;
	30 :	1110101111001011;
	29 :	1111111011110001;
	28 :	0000100100111101;
	27 :	0000010111010011;
	26 :	1111011011001101;
	25 :	1111011111100011;
	24 :	1111111100001001;
	23 :	1111101111100101;
	22 :	0000101011001111;
	21 :	0000101011000101;
	20 :	0001010000100001;
	19 :	0000000001010110;
	18 :	1111111010010101;
	17 :	0000011011100000;
	16 :	0000011111000101;
	15 :	1111100011001001;
	14 :	0000010010010011;
	13 :	0000100000000011;
	12 :	0000001100110101;
	11 :	1111100110100111;
	10 :	0000001000011010;
	9 :	0000000000001000;
	8 :	1111110111100001;
	7 :	1111011110100000;
	6 :	1111000001001110;
	5 :	0000001101110110;
	4 :	0000000011000101;
	3 :	1111110100001101;
	2 :	1111111001011100;
	1 :	1111100110000011;
	0 :	1111111111100111;
END;
