-- begin_signature
-- Weight_Memory(numWeight
-- 45
-- neuronNo
-- 17
-- layerNo
-- 2
-- addressWidth
-- 6
-- dataWidth
-- 16
-- weightFile
-- "w_2_17.mif")
-- end_signature
WIDTH=16;
DEPTH=45;

ADDRESS_RADIX=UNS;
DATA_RADIX=BIN;

CONTENT BEGIN
	44 :	0000000001111100;
	43 :	1111000110001011;
	42 :	0000100010010110;
	41 :	0000010010100010;
	40 :	1111100000100101;
	39 :	0000010110110010;
	38 :	0000000100000101;
	37 :	1111100000100110;
	36 :	1111010110011001;
	35 :	1111010111101010;
	34 :	1111100000011101;
	33 :	1111110011011101;
	32 :	0000010001110111;
	31 :	1111010101100000;
	30 :	0000111000110000;
	29 :	1111100110001000;
	28 :	0000011111101110;
	27 :	1111010110011010;
	26 :	0000010111111000;
	25 :	0000100000111111;
	24 :	0000010011111010;
	23 :	0000001000100110;
	22 :	1111110000111100;
	21 :	0000011001110011;
	20 :	0000100101110111;
	19 :	0000000011011101;
	18 :	1111101100000100;
	17 :	1111110110011011;
	16 :	1111011000100100;
	15 :	0000011100101101;
	14 :	0000110000011111;
	13 :	1111010110110011;
	12 :	0000100001111110;
	11 :	0000010111100111;
	10 :	0000001000100101;
	9 :	0000011101111101;
	8 :	1111110000011110;
	7 :	0000111111111001;
	6 :	0000101101011010;
	5 :	0000000110111110;
	4 :	1111001101001010;
	3 :	0000011100100101;
	2 :	0000000000011011;
	1 :	0000101001011010;
	0 :	1111110101000011;
END;
