-- begin_signature
-- Weight_Memory(numWeight
-- 64
-- neuronNo
-- 13
-- layerNo
-- 1
-- addressWidth
-- 6
-- dataWidth
-- 16
-- weightFile
-- "C:/Users/Ohmen/Desktop/Desktop/School/Thesis/rtl/w_1_13.mif")
-- end_signature
WIDTH=16;
DEPTH=64;

ADDRESS_RADIX=UNS;
DATA_RADIX=BIN;

CONTENT BEGIN
	63 :	1111111101000101;
	62 :	1111111001010100;
	61 :	1111101011100001;
	60 :	1111110010001001;
	59 :	0000000010001010;
	58 :	1111111000000101;
	57 :	1111110110101010;
	56 :	1111110100000011;
	55 :	1111111110011111;
	54 :	0000000000101111;
	53 :	0000000101010110;
	52 :	1111100011001101;
	51 :	1111111101000111;
	50 :	0000010011000001;
	49 :	0000000011000000;
	48 :	1111111111101100;
	47 :	0000001000111110;
	46 :	0000000101000010;
	45 :	1111110111011000;
	44 :	1111110101110001;
	43 :	1111100101110110;
	42 :	0000000000001111;
	41 :	1111111011010000;
	40 :	0000000011001100;
	39 :	0000000111011000;
	38 :	1111111011110111;
	37 :	0000001010011111;
	36 :	1111111110011100;
	35 :	0000100010000100;
	34 :	0000000001110001;
	33 :	1111110000011001;
	32 :	0000001100000101;
	31 :	1111111010001100;
	30 :	1111110111001000;
	29 :	0000001110110011;
	28 :	0000011001011000;
	27 :	0000100101001011;
	26 :	1111110100101111;
	25 :	1111111101100101;
	24 :	0000000010001011;
	23 :	0000000100010101;
	22 :	0000000000100011;
	21 :	0000011011011010;
	20 :	0000000000010001;
	19 :	0000001100101011;
	18 :	1111111101100100;
	17 :	0000000000010010;
	16 :	0000000000000101;
	15 :	0000000011001010;
	14 :	1111111110101011;
	13 :	0000000110010010;
	12 :	1111110001101110;
	11 :	0000010110001010;
	10 :	0000010010110011;
	9 :	1111111101011110;
	8 :	0000001010011011;
	7 :	0000001001000101;
	6 :	1111110101011000;
	5 :	1111111101100110;
	4 :	0000001011011101;
	3 :	0000000010010110;
	2 :	1111111110010111;
	1 :	1111100111101100;
	0 :	1111111100101000;
END;
