-- begin_signature
-- Weight_Memory(numWeight
-- 64
-- neuronNo
-- 6
-- layerNo
-- 1
-- addressWidth
-- 6
-- dataWidth
-- 16
-- weightFile
-- "w_1_6.mif")
-- end_signature
WIDTH=16;
DEPTH=64;

ADDRESS_RADIX=UNS;
DATA_RADIX=BIN;

CONTENT BEGIN
	63 :	0000101011100010;
	62 :	1111111000111000;
	61 :	0000000010001010;
	60 :	0000001000100100;
	59 :	1111101011111001;
	58 :	1110111101010110;
	57 :	1110110011010111;
	56 :	1111100111010001;
	55 :	0000101100100011;
	54 :	1111100101100010;
	53 :	1111101111001100;
	52 :	0000011010000010;
	51 :	1111100100110100;
	50 :	1111011001101001;
	49 :	1111101110000010;
	48 :	0000000110111000;
	47 :	1111001010100000;
	46 :	1111010000101001;
	45 :	1111100100011110;
	44 :	0000110001110100;
	43 :	0000001001111101;
	42 :	1111100001010101;
	41 :	1111101100011011;
	40 :	0000100001010100;
	39 :	0000001000001000;
	38 :	1111110101101001;
	37 :	1111111010100111;
	36 :	1111111101111011;
	35 :	1111110000101111;
	34 :	0000001101011001;
	33 :	0000000101111100;
	32 :	0000001011111011;
	31 :	0000011111101011;
	30 :	0000011010001111;
	29 :	0000000100110010;
	28 :	1111111111010101;
	27 :	0000100111100000;
	26 :	0000101111111111;
	25 :	0000100101100011;
	24 :	0000100010011001;
	23 :	1111111111111000;
	22 :	0000001001111001;
	21 :	1111111000100010;
	20 :	0000111101100010;
	19 :	0001010110111010;
	18 :	0000010010001011;
	17 :	0000000101100111;
	16 :	0000010010101000;
	15 :	1111101001011100;
	14 :	1111010000111011;
	13 :	1111101010101011;
	12 :	0000001010100010;
	11 :	0000000111110011;
	10 :	1111000101001110;
	9 :	1110101000001000;
	8 :	1111100111000111;
	7 :	1111111011000011;
	6 :	1111100101100010;
	5 :	1111100100001010;
	4 :	1111001001101101;
	3 :	1111100110110011;
	2 :	1111001110100111;
	1 :	1110111110001101;
	0 :	1111111001110101;
END;
