-- begin_signature
-- Weight_Memory(numWeight
-- 45
-- neuronNo
-- 16
-- layerNo
-- 2
-- addressWidth
-- 6
-- dataWidth
-- 16
-- weightFile
-- "w_2_16.mif")
-- end_signature
WIDTH=16;
DEPTH=45;

ADDRESS_RADIX=UNS;
DATA_RADIX=BIN;

CONTENT BEGIN
	44 :	0000110001000010;
	43 :	1111110010101111;
	42 :	1111110101110001;
	41 :	0000111001110111;
	40 :	1111110100111010;
	39 :	0001010001101001;
	38 :	1111010011011001;
	37 :	1111100011111110;
	36 :	1111011110100111;
	35 :	0000010001000010;
	34 :	1111101010101101;
	33 :	1111101011100100;
	32 :	1111010110100000;
	31 :	1111100011101101;
	30 :	0000100010111001;
	29 :	0000010010001100;
	28 :	1111101001001000;
	27 :	1111011000101000;
	26 :	0000001000110110;
	25 :	1111100000110110;
	24 :	0000010110110110;
	23 :	0001001101100010;
	22 :	1111100010001100;
	21 :	0000110111010100;
	20 :	0000111110110001;
	19 :	1111111110100100;
	18 :	0000000101000001;
	17 :	1111011011110000;
	16 :	0000011000000010;
	15 :	1110111110010010;
	14 :	0000100101100101;
	13 :	1111101001000101;
	12 :	1111110010111101;
	11 :	1111000100011001;
	10 :	0000110001110010;
	9 :	1111111110101101;
	8 :	0000100001111011;
	7 :	0000100111000100;
	6 :	1111110010110011;
	5 :	1111111100100100;
	4 :	1111011111111001;
	3 :	0000111101011101;
	2 :	0000000001100001;
	1 :	0000111000010000;
	0 :	0000000000011110;
END;
