-- begin_signature
-- Weight_Memory(numWeight
-- 64
-- neuronNo
-- 22
-- layerNo
-- 1
-- addressWidth
-- 6
-- dataWidth
-- 16
-- weightFile
-- "w_1_22.mif")
-- end_signature
WIDTH=16;
DEPTH=64;

ADDRESS_RADIX=UNS;
DATA_RADIX=BIN;

CONTENT BEGIN
	63 :	1111111100100101;
	62 :	1111111011100110;
	61 :	1111101111010000;
	60 :	1111101011010110;
	59 :	1111111011001011;
	58 :	0000001101011011;
	57 :	0000010010011111;
	56 :	0000010110110111;
	55 :	1111011010110111;
	54 :	0000000111001001;
	53 :	1111111110101011;
	52 :	1111101011101110;
	51 :	0000011101101100;
	50 :	1111110110010110;
	49 :	1111111101101100;
	48 :	0000010111101010;
	47 :	1111101010111000;
	46 :	0000001100100011;
	45 :	0000010011111000;
	44 :	0000001011000110;
	43 :	0000010000100010;
	42 :	0000000101001010;
	41 :	0000000101010010;
	40 :	0000011000011001;
	39 :	1111111001101100;
	38 :	0000010111110101;
	37 :	0000011101011100;
	36 :	0000111110101110;
	35 :	0000001110100111;
	34 :	1111100111011111;
	33 :	1111110110101101;
	32 :	1111110110001001;
	31 :	1111101010111001;
	30 :	1111110001101011;
	29 :	1111100110000110;
	28 :	0000001000010101;
	27 :	1111001100100011;
	26 :	1110001101000000;
	25 :	1110010001100001;
	24 :	1111111011001010;
	23 :	0000001111101010;
	22 :	0000000100010011;
	21 :	1111111011011110;
	20 :	0001000100010000;
	19 :	1110110001000010;
	18 :	1110011010100100;
	17 :	1111010001101010;
	16 :	0000001111011101;
	15 :	0000101010111011;
	14 :	0000011000011110;
	13 :	0000010001101110;
	12 :	0000011111110101;
	11 :	1111111011110100;
	10 :	0000000000011110;
	9 :	0000011101001010;
	8 :	1111111100000001;
	7 :	0000100011010001;
	6 :	0000001100001011;
	5 :	0000011110110100;
	4 :	0000010001101100;
	3 :	0000010001101010;
	2 :	1111111011111011;
	1 :	0000100101110000;
	0 :	0000001110111011;
END;
