-- begin_signature
-- Weight_Memory(numWeight
-- 45
-- neuronNo
-- 30
-- layerNo
-- 2
-- addressWidth
-- 6
-- dataWidth
-- 16
-- weightFile
-- "w_2_30.mif")
-- end_signature
WIDTH=16;
DEPTH=45;

ADDRESS_RADIX=UNS;
DATA_RADIX=BIN;

CONTENT BEGIN
	44 :	1111110110100110;
	43 :	0000000111101000;
	42 :	0000000001111100;
	41 :	1111001111110100;
	40 :	1111101001110001;
	39 :	1111101011101010;
	38 :	0000101010011010;
	37 :	0000001001111111;
	36 :	1111111001000111;
	35 :	1111001001001110;
	34 :	1111100110110100;
	33 :	0000010101011010;
	32 :	1111110011011011;
	31 :	1111110011110111;
	30 :	0000001101100000;
	29 :	1111000010010110;
	28 :	0001001011110111;
	27 :	0000111000101110;
	26 :	0000010110001011;
	25 :	0000011001110110;
	24 :	1111001100000011;
	23 :	1111011011100000;
	22 :	0000001010010011;
	21 :	1111110000001111;
	20 :	1111010111110010;
	19 :	0001001000011100;
	18 :	1111101101011010;
	17 :	0000001011010000;
	16 :	1111101001111111;
	15 :	0001010000010111;
	14 :	0000010101001010;
	13 :	1111110001000011;
	12 :	0000101000001000;
	11 :	0000111010101110;
	10 :	1111100110001000;
	9 :	1111111110001101;
	8 :	1111011001100111;
	7 :	1111110000010010;
	6 :	0000010010011001;
	5 :	0000100001011101;
	4 :	1111100000101010;
	3 :	1111110110111111;
	2 :	0000101100001001;
	1 :	0000010001010001;
	0 :	0000100100100100;
END;
