-- begin_signature
-- Weight_Memory(numWeight
-- 64
-- neuronNo
-- 36
-- layerNo
-- 1
-- addressWidth
-- 6
-- dataWidth
-- 16
-- weightFile
-- "w_1_36.mif")
-- end_signature
WIDTH=16;
DEPTH=64;

ADDRESS_RADIX=UNS;
DATA_RADIX=BIN;

CONTENT BEGIN
	63 :	0000010000101000;
	62 :	1111011100111110;
	61 :	1111110000110101;
	60 :	0000000100010010;
	59 :	1111101000011010;
	58 :	1111100110000001;
	57 :	1110111011011100;
	56 :	1111100110000111;
	55 :	0000010100101101;
	54 :	1111100111000100;
	53 :	1111100010110111;
	52 :	1111001101011101;
	51 :	1111110011111011;
	50 :	0000000100010110;
	49 :	0000000111110100;
	48 :	1111110001011111;
	47 :	1111111001100110;
	46 :	1111110100011000;
	45 :	1111110010110001;
	44 :	0000000110001011;
	43 :	0000101001100000;
	42 :	0000110101000001;
	41 :	0000001000101101;
	40 :	0000010011111011;
	39 :	1111110111111000;
	38 :	0000100110111111;
	37 :	0000000000110011;
	36 :	1111110000101110;
	35 :	1111111101000100;
	34 :	0000001101011110;
	33 :	0000000010101000;
	32 :	0000001000100000;
	31 :	0000010100100110;
	30 :	0001100011000110;
	29 :	0000100100000011;
	28 :	1111111110011100;
	27 :	0000101100010101;
	26 :	0001000011000101;
	25 :	0000011110000001;
	24 :	0000011001111111;
	23 :	0000010010011100;
	22 :	0000110001100011;
	21 :	0001001001010001;
	20 :	1111101011111111;
	19 :	0000110010110100;
	18 :	0000100010100111;
	17 :	0000010111001011;
	16 :	0000000111010110;
	15 :	1111111100111011;
	14 :	1111101010101011;
	13 :	0000000110001010;
	12 :	1111110111100100;
	11 :	1111100111000111;
	10 :	0000000010111011;
	9 :	1111101010011010;
	8 :	0000000111010111;
	7 :	0000010101011110;
	6 :	1111010111110111;
	5 :	1111011001001001;
	4 :	1111101110011101;
	3 :	1111110100001001;
	2 :	1111101011100011;
	1 :	1111001010010100;
	0 :	0000000000000001;
END;
