-- begin_signature
-- Weight_Memory(numWeight
-- 64
-- neuronNo
-- 10
-- layerNo
-- 1
-- addressWidth
-- 6
-- dataWidth
-- 16
-- weightFile
-- "C:/Users/Ohmen/Desktop/Desktop/School/Thesis/rtl/w_1_10.mif")
-- end_signature
WIDTH=16;
DEPTH=64;

ADDRESS_RADIX=UNS;
DATA_RADIX=BIN;

CONTENT BEGIN
	63 :	0000000111100001;
	62 :	0000001000001101;
	61 :	0000000011100001;
	60 :	1111111011101011;
	59 :	0000001010000110;
	58 :	0000001010100100;
	57 :	1111111110011001;
	56 :	0000000110010101;
	55 :	0000000000011100;
	54 :	0000000011100011;
	53 :	1111111001001110;
	52 :	0000001000101110;
	51 :	0000000000011001;
	50 :	1111110110010010;
	49 :	1111111111010000;
	48 :	1111110101110110;
	47 :	0000001010010111;
	46 :	0000000100111111;
	45 :	0000000110001101;
	44 :	1111111000101010;
	43 :	0000000000010010;
	42 :	0000000011010111;
	41 :	0000000111000011;
	40 :	0000001010010111;
	39 :	0000000001111110;
	38 :	1111110111011010;
	37 :	1111111101111110;
	36 :	0000001000011110;
	35 :	0000000011110100;
	34 :	0000000001011011;
	33 :	1111111111110101;
	32 :	0000000011010100;
	31 :	0000000001111000;
	30 :	0000000110001101;
	29 :	0000000001110110;
	28 :	1111111000101111;
	27 :	1111111111101000;
	26 :	1111110110100011;
	25 :	1111111101000110;
	24 :	0000000110000011;
	23 :	1111111011000111;
	22 :	0000000101110010;
	21 :	1111111101010111;
	20 :	1111111010010101;
	19 :	1111111000100001;
	18 :	1111111101001000;
	17 :	1111111110001110;
	16 :	1111110100110010;
	15 :	0000000011100101;
	14 :	1111110111101000;
	13 :	0000000001101000;
	12 :	0000000101001010;
	11 :	0000000001110111;
	10 :	1111111001100011;
	9 :	0000010001011111;
	8 :	1111110111111111;
	7 :	1111111100111101;
	6 :	1111111010000010;
	5 :	1111111111010101;
	4 :	0000000011010001;
	3 :	0000000000000010;
	2 :	1111110001010010;
	1 :	1111111010110001;
	0 :	0000001001010001;
END;
