-- begin_signature
-- Weight_Memory(numWeight
-- 64
-- neuronNo
-- 3
-- layerNo
-- 1
-- addressWidth
-- 6
-- dataWidth
-- 16
-- weightFile
-- "C:/Users/Ohmen/Desktop/Desktop/School/Thesis/rtl/w_1_3.mif")
-- end_signature
WIDTH=16;
DEPTH=64;

ADDRESS_RADIX=UNS;
DATA_RADIX=BIN;

CONTENT BEGIN
	63 :	0000000000001001;
	62 :	1111111011101110;
	61 :	0000000110110010;
	60 :	0000000000010011;
	59 :	0000000011100011;
	58 :	0000000111000000;
	57 :	0000000001001101;
	56 :	1111111000010011;
	55 :	1111101111010010;
	54 :	1111111111010101;
	53 :	0000001101110110;
	52 :	1111111100110100;
	51 :	1111110110101010;
	50 :	1111111010011101;
	49 :	1111111111101000;
	48 :	0000000000111101;
	47 :	1111111001010111;
	46 :	0000000111100101;
	45 :	1111110111111011;
	44 :	1111111011010100;
	43 :	0000000100110000;
	42 :	1111111110101001;
	41 :	0000000100011011;
	40 :	0000000101001010;
	39 :	0000000010110101;
	38 :	0000000000100100;
	37 :	0000000100100001;
	36 :	0000000101001100;
	35 :	1111110111110100;
	34 :	1111111000100011;
	33 :	0000000010111110;
	32 :	0000000011010110;
	31 :	0000000011000100;
	30 :	0000000011000001;
	29 :	0000000011111011;
	28 :	0000000110000010;
	27 :	1111111111101010;
	26 :	0000001000111110;
	25 :	0000000101111111;
	24 :	1111111111000111;
	23 :	1111111011011010;
	22 :	0000000100101110;
	21 :	0000001010010101;
	20 :	0000001000010101;
	19 :	0000000010011101;
	18 :	0000000000011101;
	17 :	0000000000010110;
	16 :	1111111011000100;
	15 :	0000000101100101;
	14 :	0000000011001100;
	13 :	1111110011101110;
	12 :	1111111110100011;
	11 :	1111110110111101;
	10 :	1111111110010101;
	9 :	1111110110101111;
	8 :	1111111100001100;
	7 :	1111111111001011;
	6 :	0000000001000001;
	5 :	0000000010110101;
	4 :	1111111101011101;
	3 :	0000000011100001;
	2 :	1111111111010111;
	1 :	1111111100111111;
	0 :	1111111111010111;
END;
