-- begin_signature
-- Weight_Memory(numWeight
-- 64
-- neuronNo
-- 37
-- layerNo
-- 1
-- addressWidth
-- 6
-- dataWidth
-- 16
-- weightFile
-- "w_1_37.mif")
-- end_signature
WIDTH=16;
DEPTH=64;

ADDRESS_RADIX=UNS;
DATA_RADIX=BIN;

CONTENT BEGIN
	63 :	1111111100110000;
	62 :	1111101010001111;
	61 :	1111110000001101;
	60 :	1111111000001101;
	59 :	1111101000101110;
	58 :	1111101100100000;
	57 :	1111011000110001;
	56 :	1111110101000111;
	55 :	0000100100110101;
	54 :	1111110010001101;
	53 :	1111011001110011;
	52 :	1111001100011000;
	51 :	1111100011010111;
	50 :	1111100110001000;
	49 :	1111101000011000;
	48 :	1111101100101101;
	47 :	0000010011000100;
	46 :	0000001111100000;
	45 :	0000110001101111;
	44 :	0000010101001110;
	43 :	1111101101000111;
	42 :	1111100110101000;
	41 :	1111010110010010;
	40 :	0000010010011000;
	39 :	1111110011010111;
	38 :	0000010011011101;
	37 :	0000000100011001;
	36 :	1111101111100000;
	35 :	0000010000101000;
	34 :	0000111011010110;
	33 :	1111101101011011;
	32 :	1111110010101111;
	31 :	0000001110000111;
	30 :	0000101111111010;
	29 :	0000011111110010;
	28 :	0000001101100010;
	27 :	0001100100110011;
	26 :	0010001000011100;
	25 :	0001001110010010;
	24 :	1111110101111111;
	23 :	1111100111001110;
	22 :	1111110000011101;
	21 :	1111110101001010;
	20 :	1111010111001000;
	19 :	0001100111000111;
	18 :	0001010100001011;
	17 :	1111111110011100;
	16 :	0000010000001000;
	15 :	1111111110000000;
	14 :	1111110011000011;
	13 :	1111101100111011;
	12 :	1111101000000111;
	11 :	0000001110001110;
	10 :	1111011111100010;
	9 :	1111001101111001;
	8 :	0000010011101001;
	7 :	1111001111010110;
	6 :	0000001110011001;
	5 :	0000000000100000;
	4 :	1111111011100001;
	3 :	1111100110101010;
	2 :	0000000010110011;
	1 :	1111101100101001;
	0 :	1111111110011100;
END;
