-- begin_signature
-- Weight_Memory(numWeight
-- 45
-- neuronNo
-- 9
-- layerNo
-- 2
-- addressWidth
-- 6
-- dataWidth
-- 16
-- weightFile
-- "w_2_9.mif")
-- end_signature
WIDTH=16;
DEPTH=45;

ADDRESS_RADIX=UNS;
DATA_RADIX=BIN;

CONTENT BEGIN
	44 :	0000000100110111;
	43 :	0000011011011111;
	42 :	1111111101001111;
	41 :	1111101100010000;
	40 :	0000000111100010;
	39 :	1111101011101011;
	38 :	0000011010110110;
	37 :	0001000000101011;
	36 :	0000110111001110;
	35 :	0000011110010001;
	34 :	0001000011000000;
	33 :	1111100000011010;
	32 :	0000010011001111;
	31 :	0001010100001110;
	30 :	1111001110100011;
	29 :	0000010110111001;
	28 :	1111011001000001;
	27 :	1111111010011010;
	26 :	1111101001011010;
	25 :	1111101011101010;
	24 :	0000100110000011;
	23 :	0000000000000001;
	22 :	1111000110101011;
	21 :	1111100110100111;
	20 :	0000000110101101;
	19 :	1111100111011001;
	18 :	1111100001000010;
	17 :	0000101010010110;
	16 :	0000000001000011;
	15 :	0000000010011011;
	14 :	1111010001111100;
	13 :	0000011101011100;
	12 :	0000010101111101;
	11 :	0000000000101110;
	10 :	0000001111000111;
	9 :	1111010101111111;
	8 :	0000011100100010;
	7 :	0000001010000100;
	6 :	1111110001111100;
	5 :	1111110010001001;
	4 :	0000110011011001;
	3 :	1111010101101110;
	2 :	1111110001110101;
	1 :	1111010101100111;
	0 :	1111101011001101;
END;
