-- begin_signature
-- Weight_Memory(numWeight
-- 64
-- neuronNo
-- 10
-- layerNo
-- 1
-- addressWidth
-- 6
-- dataWidth
-- 16
-- weightFile
-- "C:/Users/Ohmen/Desktop/Desktop/School/Thesis/tensorflow/w_b/w_1_10.mif")
-- end_signature
WIDTH=16;
DEPTH=64;

ADDRESS_RADIX=UNS;
DATA_RADIX=BIN;

CONTENT BEGIN
	63 :	0001001010011111;
	62 :	0000101011111111;
	61 :	0000100111010010;
	60 :	0000000010000111;
	59 :	0000001101100110;
	58 :	0000000011000101;
	57 :	0000010010110000;
	56 :	0000011100111000;
	55 :	0000101110000110;
	54 :	0000000111100001;
	53 :	0000011101110110;
	52 :	0000010100100111;
	51 :	0000011001001111;
	50 :	0000001110100110;
	49 :	0000010111001001;
	48 :	0000010111110011;
	47 :	1111111010111010;
	46 :	1111101000010010;
	45 :	1111101000010100;
	44 :	0000001000100101;
	43 :	0000011010100111;
	42 :	1111110111111111;
	41 :	1111110010010000;
	40 :	1111110100000010;
	39 :	1111111100100110;
	38 :	1111110100000110;
	37 :	0000001110010001;
	36 :	0000011001011101;
	35 :	1111110010010111;
	34 :	1111110111001000;
	33 :	1111111101111010;
	32 :	0000000011000110;
	31 :	1111111101111110;
	30 :	1111110011001000;
	29 :	0000001001011000;
	28 :	0000010001000111;
	27 :	1111011110000001;
	26 :	1111100100100101;
	25 :	1111100101101010;
	24 :	1111101110010100;
	23 :	0000001101110101;
	22 :	0000000101000001;
	21 :	0000001001001110;
	20 :	0000011001011111;
	19 :	0000000001001100;
	18 :	1111010010101101;
	17 :	1111101100101110;
	16 :	1111110110111110;
	15 :	0000000000111010;
	14 :	1111110101110000;
	13 :	1111111111100001;
	12 :	0000011011111110;
	11 :	1111111001011011;
	10 :	1111100110101101;
	9 :	0000001001001000;
	8 :	1111110111001001;
	7 :	0000000011010001;
	6 :	0000001011110001;
	5 :	0000011101111111;
	4 :	1111110010100111;
	3 :	1111111100011111;
	2 :	0000001000101101;
	1 :	0000011111111001;
	0 :	1111110010010010;
END;
