-- begin_signature
-- Weight_Memory(numWeight
-- 64
-- neuronNo
-- 2
-- layerNo
-- 1
-- addressWidth
-- 6
-- dataWidth
-- 16
-- weightFile
-- "w_1_2.mif")
-- end_signature
WIDTH=16;
DEPTH=64;

ADDRESS_RADIX=UNS;
DATA_RADIX=BIN;

CONTENT BEGIN
	63 :	0001011011101111;
	62 :	0000110101001010;
	61 :	0000011000000000;
	60 :	0000010000010100;
	59 :	1111101001000001;
	58 :	0000000011010111;
	57 :	1111111001001001;
	56 :	1111111001100010;
	55 :	0001001100101100;
	54 :	0000000110011010;
	53 :	0000000011110001;
	52 :	0000100000000011;
	51 :	0000011111000111;
	50 :	1111100111010100;
	49 :	0000010010001010;
	48 :	0000010110011000;
	47 :	0000011001001111;
	46 :	1111111011001110;
	45 :	1111010110001111;
	44 :	0000000011011001;
	43 :	0000101010100111;
	42 :	1111111011000110;
	41 :	0000011010001101;
	40 :	0000101001110100;
	39 :	1111111100010110;
	38 :	0000110110101111;
	37 :	0000010100001100;
	36 :	1111110100011000;
	35 :	1111011011000101;
	34 :	1111110010111011;
	33 :	0000101101000111;
	32 :	0000000100100000;
	31 :	0000011110111001;
	30 :	0001011101001111;
	29 :	0000100010011010;
	28 :	1111100001111011;
	27 :	1111001010000011;
	26 :	1111111000110101;
	25 :	0000100001100011;
	24 :	0000001111111100;
	23 :	0000100100011011;
	22 :	0000101100100001;
	21 :	0000101101010111;
	20 :	0000110001010010;
	19 :	0000100011101100;
	18 :	1111110101100011;
	17 :	1111110000001111;
	16 :	1111111010110100;
	15 :	1111110110011000;
	14 :	1111000111001110;
	13 :	1111101110111010;
	12 :	0000011110110101;
	11 :	1111101010110101;
	10 :	1111100101100011;
	9 :	0000010110101010;
	8 :	1111101011100000;
	7 :	0000000101010110;
	6 :	1110111111011101;
	5 :	1110100111001010;
	4 :	1111111001011100;
	3 :	0000001111111111;
	2 :	1111110100110111;
	1 :	0000001010110001;
	0 :	0000001000001101;
END;
