-- begin_signature
-- Weight_Memory(numWeight
-- 45
-- neuronNo
-- 10
-- layerNo
-- 2
-- addressWidth
-- 6
-- dataWidth
-- 16
-- weightFile
-- "w_2_10.mif")
-- end_signature
WIDTH=16;
DEPTH=45;

ADDRESS_RADIX=UNS;
DATA_RADIX=BIN;

CONTENT BEGIN
	44 :	1111000111110000;
	43 :	1111100001100100;
	42 :	0001001011110011;
	41 :	1111111100100101;
	40 :	0000110000101111;
	39 :	1111101010111001;
	38 :	0000001110111010;
	37 :	0000001111000111;
	36 :	1111100000101100;
	35 :	0000011111011000;
	34 :	0000000010010011;
	33 :	1111001110111010;
	32 :	0000101110010001;
	31 :	1111110110001111;
	30 :	1111110100000001;
	29 :	0000110001001110;
	28 :	1111101111110011;
	27 :	1111010110100101;
	26 :	0001000011001111;
	25 :	0000001000010101;
	24 :	0000110011101000;
	23 :	1111110111001101;
	22 :	1111011110011010;
	21 :	0000001100000111;
	20 :	0000001010111000;
	19 :	1111011101111101;
	18 :	1111100011110001;
	17 :	1111110100000010;
	16 :	0000000111110101;
	15 :	0000110111101100;
	14 :	0000001101101000;
	13 :	1110110000101000;
	12 :	0001000001101111;
	11 :	1111000110111110;
	10 :	1111110010100100;
	9 :	0000100100011001;
	8 :	1111110110000110;
	7 :	0000110011101110;
	6 :	1111011101110000;
	5 :	1111110100010001;
	4 :	1111110000001011;
	3 :	0000000100000101;
	2 :	1111001000100001;
	1 :	0000101110100011;
	0 :	1111111110110111;
END;
