-- begin_signature
-- Weight_Memory(numWeight
-- 64
-- neuronNo
-- 34
-- layerNo
-- 1
-- addressWidth
-- 6
-- dataWidth
-- 16
-- weightFile
-- "w_1_34.mif")
-- end_signature
WIDTH=16;
DEPTH=64;

ADDRESS_RADIX=UNS;
DATA_RADIX=BIN;

CONTENT BEGIN
	63 :	1110110010110110;
	62 :	1111110111010100;
	61 :	0000000110101100;
	60 :	0000011001110001;
	59 :	1111101111000101;
	58 :	1111110101010110;
	57 :	1110111000000110;
	56 :	1111100111111000;
	55 :	1111101100100011;
	54 :	0000001111001111;
	53 :	1111101000011111;
	52 :	1111111111100011;
	51 :	1111100010000111;
	50 :	1111100101000011;
	49 :	0000000011011000;
	48 :	1111110011011000;
	47 :	0000101101000100;
	46 :	0001100110010110;
	45 :	0000100110011111;
	44 :	1111011101011110;
	43 :	1111101011101100;
	42 :	1111111010010100;
	41 :	0000101010111100;
	40 :	0000001011000100;
	39 :	0000000101101001;
	38 :	0001011100101100;
	37 :	0000101011001110;
	36 :	1111001010000110;
	35 :	1111100001000100;
	34 :	0000110011111101;
	33 :	0001001011000010;
	32 :	1111110111011011;
	31 :	0000011010110100;
	30 :	0001000110011010;
	29 :	0000011110001010;
	28 :	1111101011100110;
	27 :	0000001010101001;
	26 :	0001000011000101;
	25 :	0000110111110000;
	24 :	1111111110111110;
	23 :	1111111111001100;
	22 :	0000001101010111;
	21 :	0000010011010011;
	20 :	1111010111001101;
	19 :	0000011111000001;
	18 :	0000010100111111;
	17 :	1111110101111000;
	16 :	1111011110001100;
	15 :	1111100111010100;
	14 :	1111011100100111;
	13 :	1111001011100101;
	12 :	1111011000010010;
	11 :	1111111100010010;
	10 :	1111011100010001;
	9 :	1111010101001100;
	8 :	1111110000010100;
	7 :	1111111101101101;
	6 :	1111100000001100;
	5 :	1110110001110010;
	4 :	1111100110100011;
	3 :	1111101000111111;
	2 :	1111011110010101;
	1 :	1111010001100110;
	0 :	1111111100111001;
END;
