-- begin_signature
-- Weight_Memory(numWeight
-- 37
-- neuronNo
-- 0
-- layerNo
-- 3
-- addressWidth
-- 6
-- dataWidth
-- 16
-- weightFile
-- "w_3_0.mif")
-- end_signature
WIDTH=16;
DEPTH=37;

ADDRESS_RADIX=UNS;
DATA_RADIX=BIN;

CONTENT BEGIN
	36 :	0000100011111001;
	35 :	0001001101000000;
	34 :	0000011011101001;
	33 :	1111100000110111;
	32 :	0000011111001001;
	31 :	1110111000110001;
	30 :	1110110100100101;
	29 :	1110100110010110;
	28 :	0000001100010101;
	27 :	1110001111100111;
	26 :	1110101011111101;
	25 :	1101110100110100;
	24 :	0000111111010110;
	23 :	1111100110000101;
	22 :	0000001101001000;
	21 :	0000010000000010;
	20 :	0000001110101100;
	19 :	0000001111011111;
	18 :	1111110001001011;
	17 :	1110111010011010;
	16 :	0000111010001000;
	15 :	1110110111111010;
	14 :	1111100101110111;
	13 :	1110110011111101;
	12 :	0000110001110001;
	11 :	1111111100110101;
	10 :	1110100000010101;
	9 :	1111111100100001;
	8 :	0000100110010001;
	7 :	1111110000011011;
	6 :	1111001001001011;
	5 :	0000001100111001;
	4 :	1110100011000100;
	3 :	0000011100011001;
	2 :	0000101110111010;
	1 :	1110000110110000;
	0 :	0000101110110110;
END;
