-- begin_signature
-- Weight_Memory(numWeight
-- 45
-- neuronNo
-- 31
-- layerNo
-- 2
-- addressWidth
-- 6
-- dataWidth
-- 16
-- weightFile
-- "w_2_31.mif")
-- end_signature
WIDTH=16;
DEPTH=45;

ADDRESS_RADIX=UNS;
DATA_RADIX=BIN;

CONTENT BEGIN
	44 :	0000100100001010;
	43 :	1111011011001001;
	42 :	0000000101010110;
	41 :	1111111110010111;
	40 :	1111010111010001;
	39 :	1111111110011110;
	38 :	1111101010001110;
	37 :	1111010000110111;
	36 :	1111010110101010;
	35 :	1111100101011101;
	34 :	1111101110110100;
	33 :	1111111110010101;
	32 :	1111111001100110;
	31 :	1111111010001011;
	30 :	0000101110111011;
	29 :	1111011100110111;
	28 :	0000110010111011;
	27 :	1111111010110101;
	26 :	0000010100010010;
	25 :	0000111110010011;
	24 :	0000000010110001;
	23 :	0000000000101100;
	22 :	0000101111110000;
	21 :	0000010100000110;
	20 :	0000000001110111;
	19 :	0000011010111001;
	18 :	0000010011101010;
	17 :	1111010111000001;
	16 :	1111001000100011;
	15 :	0000011110010100;
	14 :	0000111111101111;
	13 :	0000000110100101;
	12 :	0000001011111100;
	11 :	0001010000100111;
	10 :	0000100001100111;
	9 :	0000001101010111;
	8 :	1111101100101111;
	7 :	0000100000011110;
	6 :	0000001000011111;
	5 :	1111111100100011;
	4 :	1110111110101010;
	3 :	0000011011111001;
	2 :	0000101000111100;
	1 :	0000110011100011;
	0 :	1111100011011100;
END;
