-- begin_signature
-- Weight_Memory(numWeight
-- 45
-- neuronNo
-- 0
-- layerNo
-- 2
-- addressWidth
-- 6
-- dataWidth
-- 16
-- weightFile
-- "w_2_0.mif")
-- end_signature
WIDTH=16;
DEPTH=45;

ADDRESS_RADIX=UNS;
DATA_RADIX=BIN;

CONTENT BEGIN
	44 :	0000111011000010;
	43 :	1111011101000111;
	42 :	0000011001011110;
	41 :	1111101111110010;
	40 :	0000000000100001;
	39 :	0000001011011010;
	38 :	1111100000110110;
	37 :	1111000010110001;
	36 :	1111100000011010;
	35 :	0000111010101011;
	34 :	1111101011000111;
	33 :	1111101011100101;
	32 :	1111100011011011;
	31 :	0000000011000110;
	30 :	1111111110010010;
	29 :	0001000000110010;
	28 :	0001011110010010;
	27 :	0000000111100000;
	26 :	0000010011010001;
	25 :	1111010011111011;
	24 :	0000000110111110;
	23 :	0000111011101100;
	22 :	0000110111111110;
	21 :	1111100101100100;
	20 :	0000000010010011;
	19 :	0000011111110101;
	18 :	1111011101001110;
	17 :	1111111110101011;
	16 :	1111110011100011;
	15 :	0000100010010100;
	14 :	0000110000000111;
	13 :	0000011011101011;
	12 :	0000001101010100;
	11 :	1110110001000111;
	10 :	1111101111001000;
	9 :	0000001100111100;
	8 :	1111101001101101;
	7 :	1111011010111010;
	6 :	1111001000101010;
	5 :	1111011110010001;
	4 :	1111001011110010;
	3 :	1111110010111001;
	2 :	1111111001111100;
	1 :	1111111001100111;
	0 :	0000011100111000;
END;
