-- begin_signature
-- Weight_Memory(numWeight
-- 64
-- neuronNo
-- 14
-- layerNo
-- 1
-- addressWidth
-- 6
-- dataWidth
-- 16
-- weightFile
-- "C:/Users/Ohmen/Desktop/Desktop/School/Thesis/tensorflow/w_b/w_1_14.mif")
-- end_signature
WIDTH=16;
DEPTH=64;

ADDRESS_RADIX=UNS;
DATA_RADIX=BIN;

CONTENT BEGIN
	63 :	0000001010110000;
	62 :	1111111001100110;
	61 :	0000010111100100;
	60 :	0000000100110100;
	59 :	0000001001101110;
	58 :	1111011101100011;
	57 :	1111100101010110;
	56 :	0000001000010101;
	55 :	1111101101101110;
	54 :	0000011111000101;
	53 :	0000010000001010;
	52 :	0000000001101101;
	51 :	0000100001010010;
	50 :	0000100011110100;
	49 :	1110111101101110;
	48 :	1111101011111011;
	47 :	0000001110110100;
	46 :	0000101000000100;
	45 :	0000000100000010;
	44 :	0000000100111000;
	43 :	1111111111000000;
	42 :	0000010000001010;
	41 :	1111101000010010;
	40 :	1111011010100110;
	39 :	0000001100000010;
	38 :	0000010111010010;
	37 :	0000000110011100;
	36 :	1111100110110001;
	35 :	0000010000010001;
	34 :	0000011110101110;
	33 :	0000011000101110;
	32 :	1111110110101010;
	31 :	0000000001000011;
	30 :	1111010100001011;
	29 :	1111111100111100;
	28 :	1111101001101110;
	27 :	0000000100110011;
	26 :	0000001101111100;
	25 :	0000010001111111;
	24 :	0000000000000100;
	23 :	1111101111011101;
	22 :	1111001111101101;
	21 :	1111010000000100;
	20 :	1111011010100001;
	19 :	0000010001111010;
	18 :	0000001101111100;
	17 :	1111011110101110;
	16 :	0000001100101100;
	15 :	1111111101100000;
	14 :	1111111011100111;
	13 :	1111011001011101;
	12 :	1111110111110010;
	11 :	1111110100011111;
	10 :	1111110101011001;
	9 :	1111000010100001;
	8 :	0000010001100010;
	7 :	0000000111101111;
	6 :	1111111111111101;
	5 :	1111110111101001;
	4 :	1111110000110001;
	3 :	1111111111001010;
	2 :	1111011111011111;
	1 :	1111011011111000;
	0 :	1111111111100001;
END;
