-- begin_signature
-- Weight_Memory(numWeight
-- 45
-- neuronNo
-- 20
-- layerNo
-- 2
-- addressWidth
-- 6
-- dataWidth
-- 16
-- weightFile
-- "w_2_20.mif")
-- end_signature
WIDTH=16;
DEPTH=45;

ADDRESS_RADIX=UNS;
DATA_RADIX=BIN;

CONTENT BEGIN
	44 :	0001001111011101;
	43 :	0000001110010110;
	42 :	1111011111111111;
	41 :	1110111010001001;
	40 :	1111000010010010;
	39 :	1111111111111110;
	38 :	1111111110100000;
	37 :	1111110101010001;
	36 :	1111111000101000;
	35 :	0000011010111101;
	34 :	1111111011001100;
	33 :	1111100110000110;
	32 :	1111111011001001;
	31 :	0000101111100010;
	30 :	1111100101101010;
	29 :	1111111011110000;
	28 :	0001001000000110;
	27 :	0000101110001111;
	26 :	1111010111101011;
	25 :	0000011100011110;
	24 :	1111110000001110;
	23 :	1111111110010100;
	22 :	0000100011001011;
	21 :	1111100100000011;
	20 :	1111110101000100;
	19 :	0000011011110000;
	18 :	1111110001100011;
	17 :	0000101000110110;
	16 :	1111010100110101;
	15 :	0001001011111000;
	14 :	1111111101011100;
	13 :	0000111101010100;
	12 :	1111111011110100;
	11 :	0000011011001101;
	10 :	0000011111110011;
	9 :	1111001100010100;
	8 :	1111100111010111;
	7 :	1111101011110101;
	6 :	1111100011101110;
	5 :	0000000010111011;
	4 :	1111101100101010;
	3 :	1111000011111111;
	2 :	0000011100010000;
	1 :	1111001001010111;
	0 :	0000001110100011;
END;
