-- begin_signature
-- Weight_Memory(numWeight
-- 64
-- neuronNo
-- 25
-- layerNo
-- 1
-- addressWidth
-- 6
-- dataWidth
-- 16
-- weightFile
-- "w_1_25.mif")
-- end_signature
WIDTH=16;
DEPTH=64;

ADDRESS_RADIX=UNS;
DATA_RADIX=BIN;

CONTENT BEGIN
	63 :	1111001101000001;
	62 :	1111001110011010;
	61 :	1111010010110100;
	60 :	1111100000001011;
	59 :	1111111111101111;
	58 :	0000010110000001;
	57 :	0000001001101011;
	56 :	0000000010011110;
	55 :	1111101001010000;
	54 :	1111111100010010;
	53 :	1111000010010111;
	52 :	1111010111000101;
	51 :	1111110010110101;
	50 :	1111000110000010;
	49 :	1111110001101011;
	48 :	1111111001001101;
	47 :	1111001110000011;
	46 :	0000100110111110;
	45 :	0000010010100010;
	44 :	1111111110011011;
	43 :	1111011001111001;
	42 :	1110011100010110;
	41 :	0000000110001010;
	40 :	0000100101100000;
	39 :	1111111100001010;
	38 :	0001100110101111;
	37 :	0001000111010001;
	36 :	0000100100001100;
	35 :	1111111010111100;
	34 :	1111110010001100;
	33 :	0000000010010000;
	32 :	0000001010101010;
	31 :	1111110110010101;
	30 :	0000000010000101;
	29 :	0000010101010100;
	28 :	0000101100000000;
	27 :	0000000000011111;
	26 :	1111101011110011;
	25 :	1111101001000110;
	24 :	0000010111001011;
	23 :	1111111100000010;
	22 :	1111100010111011;
	21 :	1111110001100010;
	20 :	0001000001101001;
	19 :	1111111001110000;
	18 :	1110111101011000;
	17 :	1111010111101001;
	16 :	0000001010111010;
	15 :	0000011000001000;
	14 :	1111101100101110;
	13 :	0000000000110111;
	12 :	0000110001100010;
	11 :	1111111101001110;
	10 :	1111110100111111;
	9 :	0000011010000000;
	8 :	1111101110010010;
	7 :	0000100000101000;
	6 :	0001001110101101;
	5 :	0000011111111101;
	4 :	0000001011100111;
	3 :	0000001001011110;
	2 :	0000001100101000;
	1 :	0000011101001100;
	0 :	0000000001001111;
END;
