-- begin_signature
-- Weight_Memory(numWeight
-- 64
-- neuronNo
-- 11
-- layerNo
-- 1
-- addressWidth
-- 6
-- dataWidth
-- 16
-- weightFile
-- "w_1_11.mif")
-- end_signature
WIDTH=16;
DEPTH=64;

ADDRESS_RADIX=UNS;
DATA_RADIX=BIN;

CONTENT BEGIN
	63 :	0000100010000000;
	62 :	1111001000100101;
	61 :	1111001010100010;
	60 :	1111001101110100;
	59 :	1111011111111111;
	58 :	1111100111111111;
	57 :	1111100000001010;
	56 :	1111111001110110;
	55 :	0000100000100000;
	54 :	1110000101000100;
	53 :	1110011100000011;
	52 :	1111101111110100;
	51 :	0000001011010010;
	50 :	1110111101011110;
	49 :	0000010101101001;
	48 :	0000001100000111;
	47 :	1111000111000001;
	46 :	1111000101110110;
	45 :	1111111010000010;
	44 :	0000111000110100;
	43 :	0000110100010101;
	42 :	1111101101101100;
	41 :	0000011111001110;
	40 :	0000100100111011;
	39 :	1111111111011001;
	38 :	0001000011111110;
	37 :	0000011111101010;
	36 :	0000110010001000;
	35 :	1111111010111011;
	34 :	0000001110001110;
	33 :	0000010111000001;
	32 :	0000000000000011;
	31 :	0000100001001010;
	30 :	0000111000100110;
	29 :	0000010111010000;
	28 :	0000010101111101;
	27 :	0000000011111100;
	26 :	0000011100001111;
	25 :	0000001000100010;
	24 :	0000011011111101;
	23 :	0000001001101110;
	22 :	1111100111110101;
	21 :	1111100111111010;
	20 :	0000100111101110;
	19 :	0000111010000101;
	18 :	1111101101011100;
	17 :	1111110000110100;
	16 :	0000010010101011;
	15 :	0000010000110011;
	14 :	1111101110100011;
	13 :	1111100101000110;
	12 :	0000001111110010;
	11 :	1111110110001010;
	10 :	1111011011001001;
	9 :	1111100100001101;
	8 :	0000000000101100;
	7 :	0000011111101001;
	6 :	0000011100010100;
	5 :	1111011101100010;
	4 :	1111111001100100;
	3 :	1111110001100100;
	2 :	1111100010100001;
	1 :	1111101110000110;
	0 :	0000001100001010;
END;
