-- begin_signature
-- Weight_Memory(numWeight
-- 64
-- neuronNo
-- 12
-- layerNo
-- 1
-- addressWidth
-- 6
-- dataWidth
-- 16
-- weightFile
-- "w_1_12.mif")
-- end_signature
WIDTH=16;
DEPTH=64;

ADDRESS_RADIX=UNS;
DATA_RADIX=BIN;

CONTENT BEGIN
	63 :	0000101101010000;
	62 :	0001000011000110;
	61 :	0000101101111110;
	60 :	0000001010001000;
	59 :	0000000001010010;
	58 :	0000101010010010;
	57 :	0000011110011100;
	56 :	0000001001010010;
	55 :	0000010101111011;
	54 :	0000110100110000;
	53 :	0000000110010101;
	52 :	0000010111010101;
	51 :	0000011010000111;
	50 :	0000000011001011;
	49 :	1111111111100111;
	48 :	0000001110011110;
	47 :	0000111111001000;
	46 :	0000001001000110;
	45 :	1111101011111001;
	44 :	1111100100111000;
	43 :	1111111110011000;
	42 :	1111011011000111;
	41 :	1111010001110111;
	40 :	1111100001011001;
	39 :	0000001000110000;
	38 :	1111101011000110;
	37 :	1111101001010011;
	36 :	1111101000110111;
	35 :	1111111100000001;
	34 :	1111110111111011;
	33 :	1111101111111001;
	32 :	0000001010010100;
	31 :	1111100110111000;
	30 :	1110111111001100;
	29 :	1111111111101110;
	28 :	0000001110111111;
	27 :	0000001010010011;
	26 :	0000010010110010;
	25 :	1111101111111101;
	24 :	1111100110010110;
	23 :	1111111011001110;
	22 :	1111011111010111;
	21 :	1111000100101011;
	20 :	1110111101101101;
	19 :	1111101111101111;
	18 :	0000010110101110;
	17 :	1111101011111101;
	16 :	1111010101011001;
	15 :	1111101111100110;
	14 :	0000001100010011;
	13 :	1111010101111011;
	12 :	1111110011101001;
	11 :	0000010101000110;
	10 :	0000000010110100;
	9 :	1111110001001111;
	8 :	1111111101110101;
	7 :	1111101100001111;
	6 :	0000101000110010;
	5 :	0000010000010001;
	4 :	1111110011011100;
	3 :	1111110010010010;
	2 :	0000100100101011;
	1 :	0000001111000000;
	0 :	1111111100001011;
END;
