-- begin_signature
-- Weight_Memory(numWeight
-- 37
-- neuronNo
-- 7
-- layerNo
-- 3
-- addressWidth
-- 6
-- dataWidth
-- 16
-- weightFile
-- "w_3_7.mif")
-- end_signature
WIDTH=16;
DEPTH=37;

ADDRESS_RADIX=UNS;
DATA_RADIX=BIN;

CONTENT BEGIN
	36 :	1110000100100001;
	35 :	1110111010100100;
	34 :	1111000011000010;
	33 :	1110010001110101;
	32 :	0000010111000110;
	31 :	1111100111011001;
	30 :	0000001011011101;
	29 :	0000001110010001;
	28 :	1111101001010011;
	27 :	0000111011100010;
	26 :	0000101110101111;
	25 :	0000110100010001;
	24 :	1111100001101101;
	23 :	0000001101100101;
	22 :	1101110101011011;
	21 :	1111110001100010;
	20 :	0001000101110110;
	19 :	0000110101111110;
	18 :	1111000010110100;
	17 :	1110111010100001;
	16 :	1111100000000101;
	15 :	0000110100001110;
	14 :	1110011011100111;
	13 :	1110000011100010;
	12 :	1111000001000101;
	11 :	0000101101001010;
	10 :	1110100110100011;
	9 :	0000001110011011;
	8 :	0000100010011111;
	7 :	0000001000101110;
	6 :	0000010100000100;
	5 :	0000100000001111;
	4 :	1111111001010001;
	3 :	1111011001000010;
	2 :	0000100001101011;
	1 :	0000011110010011;
	0 :	1110111010001101;
END;
