-- begin_signature
-- Weight_Memory(numWeight
-- 45
-- neuronNo
-- 19
-- layerNo
-- 2
-- addressWidth
-- 6
-- dataWidth
-- 16
-- weightFile
-- "w_2_19.mif")
-- end_signature
WIDTH=16;
DEPTH=45;

ADDRESS_RADIX=UNS;
DATA_RADIX=BIN;

CONTENT BEGIN
	44 :	0001000000010000;
	43 :	1111110111111011;
	42 :	1111101101101010;
	41 :	1111101000011111;
	40 :	1110011111010010;
	39 :	0000000011000010;
	38 :	1111100011010100;
	37 :	1111101100111000;
	36 :	1111101111100110;
	35 :	0000001110101011;
	34 :	0000010101001010;
	33 :	1111100010000011;
	32 :	0000001010101010;
	31 :	0000111011010100;
	30 :	0000000000001111;
	29 :	1111101101000111;
	28 :	0000111001010001;
	27 :	1111110111100110;
	26 :	1111010010111111;
	25 :	0001001010110101;
	24 :	0000010100001000;
	23 :	0000011111101100;
	22 :	0000111101010110;
	21 :	1111110011010101;
	20 :	0000000001000110;
	19 :	1111111000010001;
	18 :	0000001000011111;
	17 :	0000011010101111;
	16 :	1111000010101010;
	15 :	0000100011110110;
	14 :	1111111111000101;
	13 :	0001000110110011;
	12 :	1111110000110101;
	11 :	0001010111111011;
	10 :	0000010011111000;
	9 :	1111010000010110;
	8 :	1111110000111010;
	7 :	1111111001100110;
	6 :	0000000101110011;
	5 :	1111111001100111;
	4 :	0000000110110011;
	3 :	1111000001000010;
	2 :	0000010000001100;
	1 :	1110111100111100;
	0 :	0000000111001111;
END;
