-- begin_signature
-- Weight_Memory(numWeight
-- 45
-- neuronNo
-- 33
-- layerNo
-- 2
-- addressWidth
-- 6
-- dataWidth
-- 16
-- weightFile
-- "w_2_33.mif")
-- end_signature
WIDTH=16;
DEPTH=45;

ADDRESS_RADIX=UNS;
DATA_RADIX=BIN;

CONTENT BEGIN
	44 :	1111100100010001;
	43 :	0000100011000100;
	42 :	0000001110100100;
	41 :	0000010011010000;
	40 :	0000111111011110;
	39 :	1111011100000110;
	38 :	0000101001110100;
	37 :	0000011000010000;
	36 :	0000100001101101;
	35 :	1111011110111101;
	34 :	0000001110111001;
	33 :	0000100001011001;
	32 :	1111110111101111;
	31 :	1111000101111111;
	30 :	1111111010011100;
	29 :	1111101000110001;
	28 :	1111100110101001;
	27 :	0000000111011001;
	26 :	0000010111011001;
	25 :	1110101101001100;
	24 :	1111001000111100;
	23 :	1111001000110010;
	22 :	1111001000010101;
	21 :	1111110011000101;
	20 :	1111010000101100;
	19 :	0000111111011010;
	18 :	0000001010101010;
	17 :	1110111000000000;
	16 :	0001010110110010;
	15 :	1111110100101010;
	14 :	1111011101000100;
	13 :	1111111011100101;
	12 :	1111110001000101;
	11 :	1111101001010110;
	10 :	1111101101110100;
	9 :	0000110010000111;
	8 :	0000001000001011;
	7 :	1111011011001011;
	6 :	0000101011011111;
	5 :	0000001111011010;
	4 :	0000001001010100;
	3 :	0000100101010001;
	2 :	0000001110111001;
	1 :	0000011111100100;
	0 :	0000000011111011;
END;
