-- begin_signature
-- Weight_Memory(numWeight
-- 64
-- neuronNo
-- 42
-- layerNo
-- 1
-- addressWidth
-- 6
-- dataWidth
-- 16
-- weightFile
-- "w_1_42.mif")
-- end_signature
WIDTH=16;
DEPTH=64;

ADDRESS_RADIX=UNS;
DATA_RADIX=BIN;

CONTENT BEGIN
	63 :	0000100010001110;
	62 :	0001001001010001;
	61 :	0000101000101010;
	60 :	0000011111101001;
	59 :	0000010010111010;
	58 :	0000011001110100;
	57 :	0000101101000001;
	56 :	0000000001111101;
	55 :	0000100011110111;
	54 :	0000111111011011;
	53 :	0000011111111000;
	52 :	0000110000100010;
	51 :	0000001001010000;
	50 :	1111111011110111;
	49 :	1111100100010111;
	48 :	0000001110101000;
	47 :	0000011000100001;
	46 :	0000000001111011;
	45 :	0000000000001001;
	44 :	1111110001111000;
	43 :	1111100000110110;
	42 :	1111101000000110;
	41 :	1111001010000110;
	40 :	1111100010011111;
	39 :	1111110010101111;
	38 :	1111000101101010;
	37 :	1111111100110111;
	36 :	0000010110101101;
	35 :	0000010111010100;
	34 :	0000000100011110;
	33 :	1111101100111110;
	32 :	1111110001000000;
	31 :	1111111011110110;
	30 :	1110001011001110;
	29 :	1111010101100000;
	28 :	0000011100001011;
	27 :	0000100111010110;
	26 :	1111111011011000;
	25 :	1111101101100111;
	24 :	1111100000000100;
	23 :	1111111101111000;
	22 :	1111001010100111;
	21 :	1110111110100100;
	20 :	1111110101101111;
	19 :	0000001001101110;
	18 :	1111111001101110;
	17 :	1111100111111110;
	16 :	1111101001100001;
	15 :	1111100111100010;
	14 :	0000000101001100;
	13 :	1111101011001100;
	12 :	1111011100111000;
	11 :	1111111100101001;
	10 :	0000000000110100;
	9 :	0000000010011100;
	8 :	0000000000110010;
	7 :	1111001001000110;
	6 :	0000011111100011;
	5 :	0000101110001110;
	4 :	1111110110000001;
	3 :	1111101101111100;
	2 :	0000001111000111;
	1 :	0000100101110010;
	0 :	0000000010110011;
END;
