-- begin_signature
-- Weight_Memory(numWeight
-- 64
-- neuronNo
-- 10
-- layerNo
-- 1
-- addressWidth
-- 6
-- dataWidth
-- 16
-- weightFile
-- "w_1_10.mif")
-- end_signature
WIDTH=16;
DEPTH=64;

ADDRESS_RADIX=UNS;
DATA_RADIX=BIN;

CONTENT BEGIN
	63 :	0001001101001101;
	62 :	0000000001011000;
	61 :	1111010111001011;
	60 :	1111111100100000;
	59 :	0000011011011111;
	58 :	0001101010011111;
	57 :	0000101111110111;
	56 :	1111111101111110;
	55 :	0000100000100000;
	54 :	1111011000010100;
	53 :	1111100000101011;
	52 :	0000010010001010;
	51 :	1111101101011100;
	50 :	1111100101101000;
	49 :	0001010100011011;
	48 :	0000010101110010;
	47 :	1111001110011110;
	46 :	1110111001010110;
	45 :	1111111111000110;
	44 :	0000010010111000;
	43 :	1111101010011011;
	42 :	1111001010001001;
	41 :	0000011110011110;
	40 :	0000010110100110;
	39 :	0000001010000011;
	38 :	1111100100001101;
	37 :	1111100011001000;
	36 :	1111110110101100;
	35 :	0000000111011101;
	34 :	1111100011010100;
	33 :	1111101010001001;
	32 :	0000001011011010;
	31 :	0000000100101010;
	30 :	0000101111100100;
	29 :	0000101101000110;
	28 :	0000111001011100;
	27 :	0000001011101100;
	26 :	1111101111111000;
	25 :	0000000010001000;
	24 :	0000011100000100;
	23 :	1111101011000000;
	22 :	0000110010001100;
	21 :	0001100110001010;
	20 :	0001000001000000;
	19 :	1111110111110001;
	18 :	0000000000010011;
	17 :	0001001000001110;
	16 :	0000010001101011;
	15 :	0000001001011100;
	14 :	0000011010110101;
	13 :	0001000110110111;
	12 :	0000010011100000;
	11 :	1111111011010110;
	10 :	0000100100101000;
	9 :	0001001011101001;
	8 :	0000011100000100;
	7 :	0000000100010100;
	6 :	0000111000100010;
	5 :	0000100110010000;
	4 :	0000000010010111;
	3 :	0000011100011101;
	2 :	0001111010011101;
	1 :	0000101110111011;
	0 :	1111111111111010;
END;
