-- begin_signature
-- Weight_Memory(numWeight
-- 45
-- neuronNo
-- 23
-- layerNo
-- 2
-- addressWidth
-- 6
-- dataWidth
-- 16
-- weightFile
-- "w_2_23.mif")
-- end_signature
WIDTH=16;
DEPTH=45;

ADDRESS_RADIX=UNS;
DATA_RADIX=BIN;

CONTENT BEGIN
	44 :	1111110000100111;
	43 :	0000001010010110;
	42 :	0000011111001001;
	41 :	0000001000111110;
	40 :	0000101001010011;
	39 :	0000001111011101;
	38 :	1111101001000100;
	37 :	1111000101111001;
	36 :	1111010001111101;
	35 :	0000000000101100;
	34 :	1110110011111010;
	33 :	0000110101111101;
	32 :	1111111101000111;
	31 :	1110101100110001;
	30 :	1111110001100101;
	29 :	0000000100101000;
	28 :	0000000111011011;
	27 :	0000110110011001;
	26 :	0000011000011100;
	25 :	1111111110110001;
	24 :	1111001000111001;
	23 :	1111110010011000;
	22 :	0001110100001100;
	21 :	1111101001011100;
	20 :	1111011100111111;
	19 :	0000010110110101;
	18 :	0000010101110110;
	17 :	1111101000001110;
	16 :	0000011100010101;
	15 :	1111110101000011;
	14 :	1111111010101010;
	13 :	1111011101001000;
	12 :	1111100100100110;
	11 :	1110111101111100;
	10 :	1111101010111101;
	9 :	0000111001111100;
	8 :	1111110110110011;
	7 :	1111011100100101;
	6 :	1111111000101010;
	5 :	0001000010111000;
	4 :	1111101100010001;
	3 :	0000011010100101;
	2 :	1111100110001101;
	1 :	0000110000111000;
	0 :	0001000100110101;
END;
