-- begin_signature
-- Weight_Memory(numWeight
-- 45
-- neuronNo
-- 27
-- layerNo
-- 2
-- addressWidth
-- 6
-- dataWidth
-- 16
-- weightFile
-- "w_2_27.mif")
-- end_signature
WIDTH=16;
DEPTH=45;

ADDRESS_RADIX=UNS;
DATA_RADIX=BIN;

CONTENT BEGIN
	44 :	1111010000010111;
	43 :	1111110110001011;
	42 :	1111111100100100;
	41 :	0000101100011000;
	40 :	0000010000110000;
	39 :	0000101110000111;
	38 :	1111011100000011;
	37 :	1111010111000100;
	36 :	1111101010100010;
	35 :	0000001000101000;
	34 :	1110110001001111;
	33 :	1111111110001110;
	32 :	1111101011111001;
	31 :	1111001010001110;
	30 :	0000010110001101;
	29 :	1111100110000100;
	28 :	1110100000010100;
	27 :	1111101010000011;
	26 :	1111111111111101;
	25 :	0000110000011101;
	24 :	1111101000101111;
	23 :	0000000001101101;
	22 :	0001000100111100;
	21 :	0000100101101111;
	20 :	0000000011000100;
	19 :	1111001011100000;
	18 :	0000101011110110;
	17 :	0000010001100111;
	16 :	1111111101000011;
	15 :	1110101100000111;
	14 :	0000001101100001;
	13 :	1111001010000011;
	12 :	1111110100101100;
	11 :	1111110001111111;
	10 :	0000101100111100;
	9 :	0000000110100110;
	8 :	0000111000100110;
	7 :	0000001010101000;
	6 :	1111011110101001;
	5 :	0001000010010011;
	4 :	0000010010011111;
	3 :	0001000110011001;
	2 :	1111110000001100;
	1 :	0001010000110010;
	0 :	1111111111001000;
END;
