-- begin_signature
-- Weight_Memory(numWeight
-- 45
-- neuronNo
-- 1
-- layerNo
-- 2
-- addressWidth
-- 6
-- dataWidth
-- 16
-- weightFile
-- "w_2_1.mif")
-- end_signature
WIDTH=16;
DEPTH=45;

ADDRESS_RADIX=UNS;
DATA_RADIX=BIN;

CONTENT BEGIN
	44 :	1111111101010001;
	43 :	0000001111111111;
	42 :	1111111001000000;
	41 :	0000000001001001;
	40 :	1110111011011100;
	39 :	1111011111110010;
	38 :	1111111011011000;
	37 :	1111100011011100;
	36 :	1111100000111111;
	35 :	1111011000000001;
	34 :	1111101111011011;
	33 :	0000100010000101;
	32 :	0000101101100110;
	31 :	1111100000000000;
	30 :	0000101100001100;
	29 :	1110100100000000;
	28 :	1111101011101111;
	27 :	1111110101111000;
	26 :	1111111000011110;
	25 :	0001010100101100;
	24 :	1111110000010001;
	23 :	1111101000101110;
	22 :	0000111101101010;
	21 :	0000010011001011;
	20 :	1111101100001111;
	19 :	0000000001011011;
	18 :	0000101011011101;
	17 :	1111110011110101;
	16 :	1111110010101011;
	15 :	1111100110001111;
	14 :	1111111111110001;
	13 :	0000010000011011;
	12 :	1111010110000001;
	11 :	0001001010011100;
	10 :	0000001001010011;
	9 :	1111111011100110;
	8 :	1111111110000110;
	7 :	1111110011010001;
	6 :	0000110000101010;
	5 :	0000100001000110;
	4 :	1111111000101011;
	3 :	0000010010100110;
	2 :	0000100101000110;
	1 :	0000110010010111;
	0 :	1111111111010011;
END;
