-- begin_signature
-- Weight_Memory(numWeight
-- 64
-- neuronNo
-- 1
-- layerNo
-- 1
-- addressWidth
-- 6
-- dataWidth
-- 16
-- weightFile
-- "C:/Users/Ohmen/Desktop/Desktop/School/Thesis/rtl/w_1_1.mif")
-- end_signature
WIDTH=16;
DEPTH=64;

ADDRESS_RADIX=UNS;
DATA_RADIX=BIN;

CONTENT BEGIN
	63 :	1111111001001000;
	62 :	1111111100100110;
	61 :	0000000101001101;
	60 :	1111110010001001;
	59 :	1111111110011111;
	58 :	1111111111011000;
	57 :	1111110111100010;
	56 :	1111111010010011;
	55 :	0000000011001000;
	54 :	0000000011000000;
	53 :	0000000110010010;
	52 :	0000000110111111;
	51 :	1111110110101000;
	50 :	1111111010101101;
	49 :	1111111000010000;
	48 :	0000000011100101;
	47 :	0000001010001110;
	46 :	0000000000110001;
	45 :	1111111101111110;
	44 :	1111111000000111;
	43 :	0000000000100010;
	42 :	1111111010100101;
	41 :	1111111011101111;
	40 :	0000000100111110;
	39 :	0000000011010000;
	38 :	0000001001011110;
	37 :	0000000001010100;
	36 :	0000000011010010;
	35 :	0000000000010011;
	34 :	0000000111110010;
	33 :	1111111111000110;
	32 :	0000000101001110;
	31 :	1111111010100001;
	30 :	1111110110111011;
	29 :	0000000001110001;
	28 :	0000000000111100;
	27 :	1111110110100001;
	26 :	0000001001011101;
	25 :	0000000001000111;
	24 :	1111111111101101;
	23 :	1111110001001011;
	22 :	1111111001100000;
	21 :	0000000110001110;
	20 :	1111111011110111;
	19 :	1111111111011010;
	18 :	0000000000110101;
	17 :	1111111111101111;
	16 :	0000000011011001;
	15 :	0000000110010110;
	14 :	1111111100101100;
	13 :	0000000111101011;
	12 :	0000000000110011;
	11 :	1111111111000111;
	10 :	0000000011011001;
	9 :	1111111011101011;
	8 :	1111111101000001;
	7 :	0000000110001101;
	6 :	1111111100101100;
	5 :	0000000011100000;
	4 :	1111111101010110;
	3 :	0000000110010000;
	2 :	0000000000011000;
	1 :	0000001000110111;
	0 :	0000000010101111;
END;
