-- begin_signature
-- Weight_Memory(numWeight
-- 64
-- neuronNo
-- 5
-- layerNo
-- 1
-- addressWidth
-- 6
-- dataWidth
-- 16
-- weightFile
-- "C:/Users/Ohmen/Desktop/Desktop/School/Thesis/rtl/w_1_5.mif")
-- end_signature
WIDTH=16;
DEPTH=64;

ADDRESS_RADIX=UNS;
DATA_RADIX=BIN;

CONTENT BEGIN
	63 :	1111111110101101;
	62 :	1111110110110001;
	61 :	1111110101010010;
	60 :	1111101100011101;
	59 :	1111110100010111;
	58 :	1111111110001110;
	57 :	0000000001011101;
	56 :	0000001000001001;
	55 :	1111110111111010;
	54 :	0000001101110111;
	53 :	1111101011110000;
	52 :	1111001111110111;
	51 :	1111101110000110;
	50 :	1111110110000001;
	49 :	0000000101001001;
	48 :	0000001110000101;
	47 :	0000001010110000;
	46 :	0000001000011011;
	45 :	1111111010111110;
	44 :	1111111110110000;
	43 :	1111110110000111;
	42 :	1111111010010000;
	41 :	1111111101011010;
	40 :	1111111111001111;
	39 :	1111111101100001;
	38 :	1111110110001010;
	37 :	1111111100110010;
	36 :	0000000011010010;
	35 :	0000010110000101;
	34 :	0000000000000110;
	33 :	1111101110010010;
	32 :	1111111010101101;
	31 :	0000000100011011;
	30 :	1111101101111110;
	29 :	0000000001111000;
	28 :	0000010001110011;
	27 :	0000010010000011;
	26 :	0000001100100000;
	25 :	1111110010100010;
	24 :	0000000010110000;
	23 :	1111111111100011;
	22 :	0000000001100001;
	21 :	1111101111111011;
	20 :	1111010001000011;
	19 :	1111111010111111;
	18 :	0000001011010011;
	17 :	1111111001000101;
	16 :	0000000101011011;
	15 :	0000001101000010;
	14 :	0000010000010001;
	13 :	1111111000111110;
	12 :	1111011100011000;
	11 :	1111111110010011;
	10 :	1111110110000111;
	9 :	1111111101000101;
	8 :	0000000000110101;
	7 :	0000001011100011;
	6 :	0000001001001110;
	5 :	0000000100000000;
	4 :	1111101111100111;
	3 :	1111111010001001;
	2 :	1111101011010111;
	1 :	1111111000101011;
	0 :	1111111100111110;
END;
