-- begin_signature
-- Weight_Memory(numWeight
-- 45
-- neuronNo
-- 12
-- layerNo
-- 2
-- addressWidth
-- 6
-- dataWidth
-- 16
-- weightFile
-- "w_2_12.mif")
-- end_signature
WIDTH=16;
DEPTH=45;

ADDRESS_RADIX=UNS;
DATA_RADIX=BIN;

CONTENT BEGIN
	44 :	0000000111111000;
	43 :	0000000110111101;
	42 :	1111100101001101;
	41 :	0000101001111101;
	40 :	0000100001111000;
	39 :	1111011101001100;
	38 :	1111111010001110;
	37 :	1111110111000101;
	36 :	0000101111001010;
	35 :	1111110100000101;
	34 :	0000111100110111;
	33 :	0000011111001111;
	32 :	1111010010101000;
	31 :	0000001011110100;
	30 :	0000101110100000;
	29 :	0000001000011111;
	28 :	1111111011001101;
	27 :	0000110011111001;
	26 :	1111110011101101;
	25 :	1111011100100111;
	24 :	0000000110110011;
	23 :	0000110100010010;
	22 :	1111010101010101;
	21 :	1111100001111000;
	20 :	1111101100111001;
	19 :	0000111010110010;
	18 :	1111100100100001;
	17 :	1110101010100000;
	16 :	0000000011100001;
	15 :	1111011011100101;
	14 :	0000010100000111;
	13 :	0000111011011100;
	12 :	0000000100001010;
	11 :	1111111000100101;
	10 :	1111100011111100;
	9 :	1111101001111000;
	8 :	0000001100001100;
	7 :	0000000111000101;
	6 :	0000001011100000;
	5 :	1111100100100101;
	4 :	0000100100101111;
	3 :	0000010000101000;
	2 :	0001001011111010;
	1 :	0000010111110000;
	0 :	1111010100000110;
END;
