-- begin_signature
-- Weight_Memory(numWeight
-- 37
-- neuronNo
-- 2
-- layerNo
-- 3
-- addressWidth
-- 6
-- dataWidth
-- 16
-- weightFile
-- "w_3_2.mif")
-- end_signature
WIDTH=16;
DEPTH=37;

ADDRESS_RADIX=UNS;
DATA_RADIX=BIN;

CONTENT BEGIN
	36 :	0000000001101111;
	35 :	0001000010000100;
	34 :	1111001100000101;
	33 :	0000001111011110;
	32 :	1111010111111010;
	31 :	0000101101110101;
	30 :	0000001100010011;
	29 :	0000000110110010;
	28 :	1101101110100100;
	27 :	0000000000000000;
	26 :	0000100011101011;
	25 :	1110101000110011;
	24 :	0000111110110001;
	23 :	0000100001000011;
	22 :	0000000110101100;
	21 :	1111000101101010;
	20 :	1111110110011011;
	19 :	1111000010010010;
	18 :	0000100111010110;
	17 :	0000011010001000;
	16 :	0000010010110111;
	15 :	0000101111101001;
	14 :	0000110010100100;
	13 :	0000001100100011;
	12 :	0000000101100101;
	11 :	1111101001100110;
	10 :	1111101101011101;
	9 :	1101101111010100;
	8 :	1110101010011111;
	7 :	1110000111111000;
	6 :	1111111001011111;
	5 :	1111100001001010;
	4 :	1101111111100010;
	3 :	1110101111100100;
	2 :	1111100000110111;
	1 :	1111100111001100;
	0 :	0000100110101111;
END;
