-- begin_signature
-- Weight_Memory(numWeight
-- 45
-- neuronNo
-- 11
-- layerNo
-- 2
-- addressWidth
-- 6
-- dataWidth
-- 16
-- weightFile
-- "w_2_11.mif")
-- end_signature
WIDTH=16;
DEPTH=45;

ADDRESS_RADIX=UNS;
DATA_RADIX=BIN;

CONTENT BEGIN
	44 :	0000010011000000;
	43 :	1111111111001110;
	42 :	1111000111010011;
	41 :	0000000111001001;
	40 :	1111010001100001;
	39 :	0000000100001010;
	38 :	1111101000111110;
	37 :	0000011111000000;
	36 :	0000110110011010;
	35 :	1111001000011011;
	34 :	0000100010110110;
	33 :	0000000001001011;
	32 :	1111110111100111;
	31 :	0000010010101001;
	30 :	0000100101000011;
	29 :	1110110000100001;
	28 :	1110111110001011;
	27 :	0000001111100111;
	26 :	1111010111111101;
	25 :	0000111000001011;
	24 :	1111101111010000;
	23 :	0000000001001001;
	22 :	1111111100000001;
	21 :	0000010111101001;
	20 :	0000011010011001;
	19 :	1111111111101011;
	18 :	0000000010011100;
	17 :	1111111111110010;
	16 :	1111100000100000;
	15 :	1110111111100100;
	14 :	1111110000111110;
	13 :	0000101111110101;
	12 :	1111100011011101;
	11 :	0001110100010110;
	10 :	0000011111101100;
	9 :	1111100001101100;
	8 :	0000011111101010;
	7 :	0000011111011100;
	6 :	0000110110001011;
	5 :	1111101101101011;
	4 :	0000101100000111;
	3 :	1111110011000100;
	2 :	0000110001111011;
	1 :	1111111000110010;
	0 :	1111000010111101;
END;
