-- begin_signature
-- Weight_Memory(numWeight
-- 64
-- neuronNo
-- 7
-- layerNo
-- 1
-- addressWidth
-- 6
-- dataWidth
-- 16
-- weightFile
-- "w_1_7.mif")
-- end_signature
WIDTH=16;
DEPTH=64;

ADDRESS_RADIX=UNS;
DATA_RADIX=BIN;

CONTENT BEGIN
	63 :	1111010011100110;
	62 :	1111110000110001;
	61 :	0000000100110000;
	60 :	0000001000101100;
	59 :	0000000010100001;
	58 :	0000010011000100;
	57 :	0000001101100111;
	56 :	0000010101110100;
	55 :	0000000010011111;
	54 :	0000001110101100;
	53 :	0000000001101101;
	52 :	1111110100110101;
	51 :	1111011010101100;
	50 :	1111110101011000;
	49 :	0000001001101111;
	48 :	1111111000000100;
	47 :	1111010110100010;
	46 :	0000111001100100;
	45 :	1111111100101001;
	44 :	1111000011001011;
	43 :	1110000010010111;
	42 :	1101111100101001;
	41 :	1111010101101110;
	40 :	1111100010100011;
	39 :	1111111010011000;
	38 :	0000000010100011;
	37 :	1111111101001001;
	36 :	1111100110111101;
	35 :	1111110001010111;
	34 :	1111110110000110;
	33 :	1110100110101000;
	32 :	0000000101101010;
	31 :	1111011001000100;
	30 :	1111111101101110;
	29 :	0000010101100101;
	28 :	0000010100110100;
	27 :	0000010101110001;
	26 :	0000011010010110;
	25 :	1111111010000000;
	24 :	0000000101110110;
	23 :	1111100100000011;
	22 :	1111110011001000;
	21 :	0000001111010010;
	20 :	0000010001000101;
	19 :	1111111001000011;
	18 :	0000001101101000;
	17 :	0000001100011001;
	16 :	1111111001000100;
	15 :	1111100110011111;
	14 :	0000001001110101;
	13 :	1111111010100110;
	12 :	0000000011100110;
	11 :	0000001010010111;
	10 :	0000000010011111;
	9 :	1111101110001100;
	8 :	1111100010001001;
	7 :	1111100110011111;
	6 :	0000001001010000;
	5 :	0000001100011111;
	4 :	0000001001111011;
	3 :	1111111100000111;
	2 :	1111111110101111;
	1 :	0000000101010010;
	0 :	0000001100100011;
END;
