-- begin_signature
-- Weight_Memory(numWeight
-- 37
-- neuronNo
-- 6
-- layerNo
-- 3
-- addressWidth
-- 6
-- dataWidth
-- 16
-- weightFile
-- "w_3_6.mif")
-- end_signature
WIDTH=16;
DEPTH=37;

ADDRESS_RADIX=UNS;
DATA_RADIX=BIN;

CONTENT BEGIN
	36 :	0000101100001110;
	35 :	1111001000000111;
	34 :	0000010101100000;
	33 :	0000100100111101;
	32 :	0000110110000011;
	31 :	1110010100100110;
	30 :	0000100000111001;
	29 :	1111101011111110;
	28 :	0000011111100111;
	27 :	1110000011010101;
	26 :	0000011011101110;
	25 :	1110110111111100;
	24 :	1110010011011101;
	23 :	0000100101001000;
	22 :	0000011111111011;
	21 :	0000001111000101;
	20 :	1111000010100111;
	19 :	1110001001010000;
	18 :	0000100100100111;
	17 :	1111010110110101;
	16 :	1110000101001001;
	15 :	1111110011110000;
	14 :	0000110100010011;
	13 :	0000010000001001;
	12 :	0000101101010010;
	11 :	1110010010010011;
	10 :	0000110000010111;
	9 :	1111101110110010;
	8 :	0000011101111111;
	7 :	1110101101000010;
	6 :	1110110100001001;
	5 :	1111101110010101;
	4 :	0000000100000000;
	3 :	1110011001010100;
	2 :	1110111111101010;
	1 :	1110111111001011;
	0 :	1111110101110001;
END;
