-- begin_signature
-- Weight_Memory(numWeight
-- 64
-- neuronNo
-- 1
-- layerNo
-- 1
-- addressWidth
-- 6
-- dataWidth
-- 16
-- weightFile
-- "w_1_1.mif")
-- end_signature
WIDTH=16;
DEPTH=64;

ADDRESS_RADIX=UNS;
DATA_RADIX=BIN;

CONTENT BEGIN
	63 :	0001010000101100;
	62 :	0000111010001101;
	61 :	0001000000111010;
	60 :	0000101000101010;
	59 :	1111110100111110;
	58 :	1111101101001001;
	57 :	0000000101011001;
	56 :	0000010001011101;
	55 :	0000101110010011;
	54 :	0000111111011010;
	53 :	0000110111010110;
	52 :	0000100000010110;
	51 :	1111110101101011;
	50 :	1111101001011100;
	49 :	1111110001000101;
	48 :	0000000010101100;
	47 :	1111011100010011;
	46 :	0000000110110010;
	45 :	1111011101100101;
	44 :	1111101010011000;
	43 :	1111101101100011;
	42 :	1111000011011100;
	41 :	1111001101111000;
	40 :	1111100011101011;
	39 :	0000000000001000;
	38 :	1111000101000000;
	37 :	1111100101110100;
	36 :	0000000011011100;
	35 :	0000000101011110;
	34 :	1111000011111100;
	33 :	1110011010000010;
	32 :	0000001010110110;
	31 :	1111111001001011;
	30 :	1111100001001000;
	29 :	0000001110110110;
	28 :	0000011111001001;
	27 :	1111111100110110;
	26 :	1111000011111100;
	25 :	1111010001101010;
	24 :	0000001101110111;
	23 :	0000000110101101;
	22 :	0000100011100110;
	21 :	0000100000111011;
	20 :	0001001111000101;
	19 :	0000000001101111;
	18 :	1111010100110110;
	17 :	1111101001011101;
	16 :	0000000100110010;
	15 :	1111110110011001;
	14 :	0000011001011011;
	13 :	0000001000110001;
	12 :	0000000010001110;
	11 :	1111100110011110;
	10 :	1111111000000010;
	9 :	0000000001100110;
	8 :	1111100000010011;
	7 :	1111101010010110;
	6 :	1111110010011110;
	5 :	0000000101101001;
	4 :	1111110100001110;
	3 :	1111110111011100;
	2 :	1111100100101001;
	1 :	0000000011011110;
	0 :	0000001101110000;
END;
