-- begin_signature
-- Weight_Memory(numWeight
-- 64
-- neuronNo
-- 14
-- layerNo
-- 1
-- addressWidth
-- 6
-- dataWidth
-- 16
-- weightFile
-- "C:/Users/Ohmen/Desktop/Desktop/School/Thesis/rtl/w_1_14.mif")
-- end_signature
WIDTH=16;
DEPTH=64;

ADDRESS_RADIX=UNS;
DATA_RADIX=BIN;

CONTENT BEGIN
	63 :	1111110110110000;
	62 :	0000000011000100;
	61 :	1111111110011111;
	60 :	0000000110101111;
	59 :	1111110111111111;
	58 :	0000010111001001;
	57 :	1111110001010011;
	56 :	1111110100101101;
	55 :	0000000001101100;
	54 :	0000100001000100;
	53 :	1111101011100101;
	52 :	1111111111011010;
	51 :	0000000000010000;
	50 :	0000010101001100;
	49 :	0000001000101111;
	48 :	0000000011011010;
	47 :	1111111101010010;
	46 :	1111111101001101;
	45 :	1111010001100011;
	44 :	1111011000001110;
	43 :	1111100101000111;
	42 :	1101110000110010;
	41 :	1111011010110100;
	40 :	0000000001010010;
	39 :	0000000001100011;
	38 :	1111101010110000;
	37 :	1111110100110000;
	36 :	1111000011110010;
	35 :	0000101101100101;
	34 :	1111100111011110;
	33 :	1110111000111111;
	32 :	0000001000001010;
	31 :	0000001100001100;
	30 :	0000000111101010;
	29 :	0001100011010010;
	28 :	0000100100100110;
	27 :	1111110100011111;
	26 :	0000011110000001;
	25 :	1111110001110011;
	24 :	1111111111110011;
	23 :	1111111001110111;
	22 :	0000000100000100;
	21 :	0001001011110000;
	20 :	0000101010011000;
	19 :	1111111100000010;
	18 :	0000011010000001;
	17 :	0000010011100011;
	16 :	0000001101000110;
	15 :	0000001010001010;
	14 :	1111110010011011;
	13 :	0000010101000011;
	12 :	0000011010010101;
	11 :	1111110100100000;
	10 :	0000010011010110;
	9 :	1111110101000000;
	8 :	1111111100111000;
	7 :	1111101111001111;
	6 :	1111100110001011;
	5 :	1110011000000101;
	4 :	1110111100000111;
	3 :	0000010001011111;
	2 :	0000100100010100;
	1 :	1111110101100110;
	0 :	0000000111010001;
END;
