-- begin_signature
-- Weight_Memory(numWeight
-- 64
-- neuronNo
-- 9
-- layerNo
-- 1
-- addressWidth
-- 6
-- dataWidth
-- 16
-- weightFile
-- "w_1_9.mif")
-- end_signature
WIDTH=16;
DEPTH=64;

ADDRESS_RADIX=UNS;
DATA_RADIX=BIN;

CONTENT BEGIN
	63 :	0000110010100110;
	62 :	0000101100010010;
	61 :	0001000110110110;
	60 :	0000101001100010;
	59 :	0000000001101111;
	58 :	1111010111110110;
	57 :	0000001001000001;
	56 :	0000000100001110;
	55 :	0000001101001000;
	54 :	0000110001000001;
	53 :	0001000111100111;
	52 :	0000110100011011;
	51 :	0000000000001001;
	50 :	0000000100010001;
	49 :	1111111100011011;
	48 :	0000001111100000;
	47 :	0000010110101110;
	46 :	1111100110101000;
	45 :	1111110011101001;
	44 :	0000001001010001;
	43 :	0000010011100001;
	42 :	0000010011111100;
	41 :	1111011110101011;
	40 :	1111010010011000;
	39 :	1111111010010000;
	38 :	1110101001100100;
	37 :	1111011101100011;
	36 :	0000010111000001;
	35 :	0000010110011010;
	34 :	1111110010110100;
	33 :	1111100110001111;
	32 :	1111110001101011;
	31 :	0000000111010011;
	30 :	1110010010101100;
	29 :	1111011111000110;
	28 :	0000010101010001;
	27 :	0000000011100001;
	26 :	1111011000010000;
	25 :	1111011001110110;
	24 :	0000001001000110;
	23 :	1111101010110000;
	22 :	0000001011111011;
	21 :	1111001110100101;
	20 :	0000100101111010;
	19 :	0000011111000101;
	18 :	1111011111101001;
	17 :	0000000001101110;
	16 :	0000001100010000;
	15 :	1111101101000011;
	14 :	1111111111010110;
	13 :	0000000101100001;
	12 :	1111101100001000;
	11 :	1111101011110010;
	10 :	1111110011011110;
	9 :	0000000101010011;
	8 :	1111111100001111;
	7 :	1111001100100110;
	6 :	1111010010100110;
	5 :	0000011110000111;
	4 :	0000000101010001;
	3 :	1111110100010111;
	2 :	1111100001010101;
	1 :	1111111000001101;
	0 :	1111111000110110;
END;
