-- begin_signature
-- Weight_Memory(numWeight
-- 45
-- neuronNo
-- 28
-- layerNo
-- 2
-- addressWidth
-- 6
-- dataWidth
-- 16
-- weightFile
-- "w_2_28.mif")
-- end_signature
WIDTH=16;
DEPTH=45;

ADDRESS_RADIX=UNS;
DATA_RADIX=BIN;

CONTENT BEGIN
	44 :	1111110101110000;
	43 :	1111111111101010;
	42 :	0000010001011011;
	41 :	0000010001111110;
	40 :	1111100101000010;
	39 :	1111010101010110;
	38 :	0000100010010100;
	37 :	0000100100010010;
	36 :	1111110111010110;
	35 :	0000100101110111;
	34 :	0001100001011110;
	33 :	1111011110110010;
	32 :	0001000000101100;
	31 :	0000101011000000;
	30 :	0000010000101001;
	29 :	0000001101010110;
	28 :	1111110010101101;
	27 :	1111111000101010;
	26 :	1111110110011110;
	25 :	0000111011000010;
	24 :	0001010000010001;
	23 :	0000100110110111;
	22 :	0000010111010111;
	21 :	1111011011111011;
	20 :	0000101100101101;
	19 :	1111010011110111;
	18 :	1111110000001100;
	17 :	1111111001010001;
	16 :	1111101001101010;
	15 :	0000101010010000;
	14 :	1111111110001001;
	13 :	0000001110000110;
	12 :	0000010010010101;
	11 :	0000000110001100;
	10 :	1111011110010000;
	9 :	1111100101001101;
	8 :	1111100110100101;
	7 :	0000110011101111;
	6 :	1111111110011001;
	5 :	1111011000010000;
	4 :	0000100011111000;
	3 :	1111100000001110;
	2 :	1111110000011011;
	1 :	1111110010011011;
	0 :	0000000011100101;
END;
