-- begin_signature
-- Weight_Memory(numWeight
-- 64
-- neuronNo
-- 18
-- layerNo
-- 1
-- addressWidth
-- 6
-- dataWidth
-- 16
-- weightFile
-- "w_1_18.mif")
-- end_signature
WIDTH=16;
DEPTH=64;

ADDRESS_RADIX=UNS;
DATA_RADIX=BIN;

CONTENT BEGIN
	63 :	0000100010000110;
	62 :	1111101011010101;
	61 :	1111111011011001;
	60 :	1111111000111001;
	59 :	1111111110011001;
	58 :	1111011110010000;
	57 :	1111011010011101;
	56 :	1111110100110000;
	55 :	0000011000111100;
	54 :	1111101000110100;
	53 :	0000000001111101;
	52 :	0000001001011011;
	51 :	1111011001111001;
	50 :	1111110000010111;
	49 :	0000011010011110;
	48 :	0000001001000010;
	47 :	1111001000111111;
	46 :	1111001010001011;
	45 :	0000001010000010;
	44 :	0000101010111100;
	43 :	0000001010001000;
	42 :	0000010000110010;
	41 :	0001000101001111;
	40 :	0000101110111100;
	39 :	1111110011000100;
	38 :	1111011110011000;
	37 :	1111111010010000;
	36 :	0000111000100010;
	35 :	0000101010101000;
	34 :	1111100100111111;
	33 :	1111110010101111;
	32 :	0000000000010101;
	31 :	0000000111000101;
	30 :	0000000011011000;
	29 :	0000001010101101;
	28 :	0000100100111000;
	27 :	0000010011011101;
	26 :	1111101010111011;
	25 :	1111010010111001;
	24 :	0000010011101001;
	23 :	0000010010111000;
	22 :	0000011111110101;
	21 :	0000001100111111;
	20 :	0001000100001101;
	19 :	0000010000111001;
	18 :	1111011010100100;
	17 :	1111110101011000;
	16 :	0000010101011010;
	15 :	0000011000001001;
	14 :	0000000110100110;
	13 :	0000010001101010;
	12 :	0000010001110100;
	11 :	0000000001000001;
	10 :	1111110010010001;
	9 :	1111111100100010;
	8 :	0000010010001011;
	7 :	0000010101111000;
	6 :	1111100010000000;
	5 :	0000001111011110;
	4 :	0000000000111101;
	3 :	1111110010100111;
	2 :	1111110001010010;
	1 :	1111001000000001;
	0 :	1111110010000110;
END;
