-- begin_signature
-- Weight_Memory(numWeight
-- 64
-- neuronNo
-- 43
-- layerNo
-- 1
-- addressWidth
-- 6
-- dataWidth
-- 16
-- weightFile
-- "w_1_43.mif")
-- end_signature
WIDTH=16;
DEPTH=64;

ADDRESS_RADIX=UNS;
DATA_RADIX=BIN;

CONTENT BEGIN
	63 :	0000100101011010;
	62 :	1111111000000010;
	61 :	1111111000100101;
	60 :	1111101111001010;
	59 :	1111110000111101;
	58 :	1111001111000001;
	57 :	1111001000101110;
	56 :	1111101010101100;
	55 :	0000100101110110;
	54 :	1111011001111000;
	53 :	0000001000101011;
	52 :	1111011010111011;
	51 :	0000000101101001;
	50 :	0000010110110001;
	49 :	1111100001010110;
	48 :	1111100011100101;
	47 :	0000010010111111;
	46 :	1111100001011101;
	45 :	0000010011001100;
	44 :	0000100011101010;
	43 :	0001000000111100;
	42 :	0001100000001000;
	41 :	0000011001110001;
	40 :	0000001111011100;
	39 :	1111111001101100;
	38 :	0000000110001111;
	37 :	0000001001000101;
	36 :	0000011110001000;
	35 :	0000011010101110;
	34 :	0000011001000011;
	33 :	0000101000100010;
	32 :	1111110010001001;
	31 :	0000011100011111;
	30 :	0000101000011011;
	29 :	1111111111010100;
	28 :	1111111110011000;
	27 :	0000001001010000;
	26 :	0000010111000000;
	25 :	1111111110000000;
	24 :	0000001101000101;
	23 :	1111110110001000;
	22 :	0000010101000010;
	21 :	0000000011101000;
	20 :	1111101111010101;
	19 :	0000101101000001;
	18 :	0000000100101001;
	17 :	1111111011110010;
	16 :	0000011001010111;
	15 :	0000011010100110;
	14 :	1111101110100011;
	13 :	1111111011011101;
	12 :	1111110110011001;
	11 :	1111110100111110;
	10 :	1111100101100101;
	9 :	1111100110110000;
	8 :	0000010000000100;
	7 :	0000010011000111;
	6 :	1111100011011100;
	5 :	1111100111111111;
	4 :	1111110001000010;
	3 :	1111101001000011;
	2 :	1111100001001100;
	1 :	1111011000100110;
	0 :	0000001001111011;
END;
