-- begin_signature
-- Weight_Memory(numWeight
-- 45
-- neuronNo
-- 25
-- layerNo
-- 2
-- addressWidth
-- 6
-- dataWidth
-- 16
-- weightFile
-- "w_2_25.mif")
-- end_signature
WIDTH=16;
DEPTH=45;

ADDRESS_RADIX=UNS;
DATA_RADIX=BIN;

CONTENT BEGIN
	44 :	1111010010100111;
	43 :	1111110101001101;
	42 :	0000011100110101;
	41 :	1111101100010001;
	40 :	1111101011101001;
	39 :	0000101000110100;
	38 :	0000010110111111;
	37 :	0000100101100011;
	36 :	0000000010001111;
	35 :	0000010001010010;
	34 :	1111000000011100;
	33 :	1111101001001001;
	32 :	0001010001101100;
	31 :	0000010010011100;
	30 :	1111100001010011;
	29 :	0000000011001000;
	28 :	1110111001110000;
	27 :	1110110111101000;
	26 :	0000010101001011;
	25 :	0001000101011110;
	24 :	0000011110000110;
	23 :	1111001100110010;
	22 :	0000001110110110;
	21 :	0000010000010000;
	20 :	0000100000101000;
	19 :	1110011010011111;
	18 :	0000101011111010;
	17 :	0001011001100000;
	16 :	1111101010001000;
	15 :	1111111110011000;
	14 :	1111101010000010;
	13 :	1110100110011111;
	12 :	1111110100010000;
	11 :	0000001011110101;
	10 :	0000100000011111;
	9 :	1111111111110100;
	8 :	0000000110110011;
	7 :	0000010011001110;
	6 :	1111101001011000;
	5 :	0000001100110010;
	4 :	0000011111011001;
	3 :	0000000101111111;
	2 :	1110111011010001;
	1 :	1111101111100111;
	0 :	1111111101010011;
END;
