-- begin_signature
-- Weight_Memory(numWeight
-- 64
-- neuronNo
-- 24
-- layerNo
-- 1
-- addressWidth
-- 6
-- dataWidth
-- 16
-- weightFile
-- "w_1_24.mif")
-- end_signature
WIDTH=16;
DEPTH=64;

ADDRESS_RADIX=UNS;
DATA_RADIX=BIN;

CONTENT BEGIN
	63 :	1110110111011001;
	62 :	1111001111110100;
	61 :	1111100001011111;
	60 :	0000000011010000;
	59 :	0000100001010110;
	58 :	0000011000110000;
	57 :	0000011001111001;
	56 :	1111111011101011;
	55 :	1111011111111011;
	54 :	0000010010010110;
	53 :	1111110101001001;
	52 :	1111101001000011;
	51 :	1111100000101111;
	50 :	1111111101110110;
	49 :	0000001001001100;
	48 :	1111011110110011;
	47 :	0000000100110111;
	46 :	0001001110100110;
	45 :	0000010101010100;
	44 :	1111010000010010;
	43 :	1101111111100111;
	42 :	1110100010110010;
	41 :	1111101001011001;
	40 :	1111100011001000;
	39 :	1111111000011000;
	38 :	0000011001111001;
	37 :	1111110100001000;
	36 :	1111011101111100;
	35 :	1111111101111001;
	34 :	0000010101011011;
	33 :	1111111001100111;
	32 :	1111111111001110;
	31 :	1111100000101100;
	30 :	1111101001111101;
	29 :	1111111000001100;
	28 :	0000001010111000;
	27 :	0000010101110110;
	26 :	0000011111110000;
	25 :	0000001101011111;
	24 :	1111100110010011;
	23 :	1111110111101101;
	22 :	1111111111001100;
	21 :	0000001100100001;
	20 :	1111101100000011;
	19 :	1111011101110000;
	18 :	0000010000110101;
	17 :	0000000010000000;
	16 :	1111011011001001;
	15 :	1111101011101111;
	14 :	0000000001111011;
	13 :	1111110001010011;
	12 :	1111111000101010;
	11 :	0000010101010001;
	10 :	0000100000110100;
	9 :	1111110101111001;
	8 :	0000001010011001;
	7 :	1111100100011001;
	6 :	0000010011011100;
	5 :	1111111010100010;
	4 :	0000011100110001;
	3 :	0000011001000100;
	2 :	0000010000101010;
	1 :	0000011100010110;
	0 :	0000001000111011;
END;
