-- begin_signature
-- Weight_Memory(numWeight
-- 64
-- neuronNo
-- 17
-- layerNo
-- 1
-- addressWidth
-- 6
-- dataWidth
-- 16
-- weightFile
-- "w_1_17.mif")
-- end_signature
WIDTH=16;
DEPTH=64;

ADDRESS_RADIX=UNS;
DATA_RADIX=BIN;

CONTENT BEGIN
	63 :	1110011100101001;
	62 :	1110101100101100;
	61 :	1110101111100100;
	60 :	1110110010101101;
	59 :	0000010011110011;
	58 :	0000011001100100;
	57 :	0000001111100000;
	56 :	1111100111000010;
	55 :	1111010011100010;
	54 :	1110111111010100;
	53 :	1110111101110001;
	52 :	1110101111101100;
	51 :	1111110000101100;
	50 :	1111111110110011;
	49 :	1111101111101011;
	48 :	1111110100011001;
	47 :	1111011001000010;
	46 :	1111011001111010;
	45 :	0000100001110110;
	44 :	0000010011101100;
	43 :	1111110011110000;
	42 :	1111111001011101;
	41 :	1111110101001100;
	40 :	1111101100110000;
	39 :	0000000001000111;
	38 :	0000001100010111;
	37 :	1111111011111010;
	36 :	0000011101001101;
	35 :	0000011101100110;
	34 :	1111111101011100;
	33 :	1111011011100001;
	32 :	0000000101000110;
	31 :	1111100111010000;
	30 :	1111110010000111;
	29 :	0000001000000111;
	28 :	0000000110011110;
	27 :	0000100001000000;
	26 :	1111111100000110;
	25 :	1111110011001110;
	24 :	1111101001111111;
	23 :	1111110010010000;
	22 :	1111110010011000;
	21 :	1111100100010010;
	20 :	1111011101000010;
	19 :	1111010011101101;
	18 :	0000000001110001;
	17 :	0000011110101100;
	16 :	1111111011000011;
	15 :	0000011100010101;
	14 :	0000000011110011;
	13 :	0000010100000001;
	12 :	0000001100010001;
	11 :	1111111101001110;
	10 :	0000101000011100;
	9 :	0000000100010100;
	8 :	0000010000011101;
	7 :	0000010010111101;
	6 :	0000111000100101;
	5 :	0000110001010100;
	4 :	0000001111110011;
	3 :	0000000111011000;
	2 :	0000101110010011;
	1 :	0000000101110110;
	0 :	1111111100001001;
END;
