1111111111111010
0000101110111011
0001111010011101
0000011100011101
0000000010010111
0000100110010000
0000111000100010
0000000100010100
0000011100000100
0001001011101001
0000100100101000
1111111011010110
0000010011100000
0001000110110111
0000011010110101
0000001001011100
0000010001101011
0001001000001110
0000000000010011
1111110111110001
0001000001000000
0001100110001010
0000110010001100
1111101011000000
0000011100000100
0000000010001000
1111101111111000
0000001011101100
0000111001011100
0000101101000110
0000101111100100
0000000100101010
0000001011011010
1111101010001001
1111100011010100
0000000111011101
1111110110101100
1111100011001000
1111100100001101
0000001010000011
0000010110100110
0000011110011110
1111001010001001
1111101010011011
0000010010111000
1111111111000110
1110111001010110
1111001110011110
0000010101110010
0001010100011011
1111100101101000
1111101101011100
0000010010001010
1111100000101011
1111011000010100
0000100000100000
1111111101111110
0000101111110111
0001101010011111
0000011011011111
1111111100100000
1111010111001011
0000000001011000
0001001101001101
