1111111100001011
0000001111000000
0000100100101011
1111110010010010
1111110011011100
0000010000010001
0000101000110010
1111101100001111
1111111101110101
1111110001001111
0000000010110100
0000010101000110
1111110011101001
1111010101111011
0000001100010011
1111101111100110
1111010101011001
1111101011111101
0000010110101110
1111101111101111
1110111101101101
1111000100101011
1111011111010111
1111111011001110
1111100110010110
1111101111111101
0000010010110010
0000001010010011
0000001110111111
1111111111101110
1110111111001100
1111100110111000
0000001010010100
1111101111111001
1111110111111011
1111111100000001
1111101000110111
1111101001010011
1111101011000110
0000001000110000
1111100001011001
1111010001110111
1111011011000111
1111111110011000
1111100100111000
1111101011111001
0000001001000110
0000111111001000
0000001110011110
1111111111100111
0000000011001011
0000011010000111
0000010111010101
0000000110010101
0000110100110000
0000010101111011
0000001001010010
0000011110011100
0000101010010010
0000000001010010
0000001010001000
0000101101111110
0001000011000110
0000101101010000
