0000001000111110
0000100111011001
0000111110010001
0000100010011001
0000100110000111
0000001001110100
0000001111010000
1111111011100001
0000000111010111
0000110010010111
0001000011111101
0000010011100000
1111111111000010
0000110010101010
0000101001001010
0000001001101101
1111011111110111
0000000110010011
1111111110111011
1110100010100101
1111000101110011
0000011100011010
1111110010010110
1111011110111110
1111100001011011
1111010100010010
1111101010100111
0000000000001011
1111110100011111
1111101110110011
1111110101110100
1111011011010110
1111111001101101
1111101101010101
0000001110001101
0000000000011000
1111101111100010
1111101000010010
0000000100001001
1111110011000101
1111011011001111
1111111010011010
0000001101111010
1111001010011110
1111000100001111
0000110001010101
0001100010001011
0000101010111011
1111110010000110
1111111111100110
0000101011111111
1111111000101101
1111010111011100
0000001011111110
0000011100000001
1110111001001001
0000000110100001
0000100111010011
0001001011101011
0000101100010110
0000000110101111
1111100101000111
1111001111001100
1110111000101001
