1111111001110101
1110111110001101
1111001110100111
1111100110110011
1111001001101101
1111100100001010
1111100101100010
1111111011000011
1111100111000111
1110101000001000
1111000101001110
0000000111110011
0000001010100010
1111101010101011
1111010000111011
1111101001011100
0000010010101000
0000000101100111
0000010010001011
0001010110111010
0000111101100010
1111111000100010
0000001001111001
1111111111111000
0000100010011001
0000100101100011
0000101111111111
0000100111100000
1111111111010101
0000000100110010
0000011010001111
0000011111101011
0000001011111011
0000000101111100
0000001101011001
1111110000101111
1111111101111011
1111111010100111
1111110101101001
0000001000001000
0000100001010100
1111101100011011
1111100001010101
0000001001111101
0000110001110100
1111100100011110
1111010000101001
1111001010100000
0000000110111000
1111101110000010
1111011001101001
1111100100110100
0000011010000010
1111101111001100
1111100101100010
0000101100100011
1111100111010001
1110110011010111
1110111101010110
1111101011111001
0000001000100100
0000000010001010
1111111000111000
0000101011100010
