0000000010101101
0000010001010000
1111110111100100
1111101101100111
0000011101100010
0000100100010011
0000101011000111
1111011001101100
0000011110011010
1111100001011101
1111101100111101
0000001100011111
1111110001011011
1111101010000011
0000000001100001
0000001100000011
0000001100101100
1111101100001001
1111101111101011
0000101001000011
0000000110000110
1110111010111100
1111010100000100
0000010110001110
1111111000110110
0000010000110010
0000011101101000
0001010001110100
0000111110000001
1111101000110101
1111001010000111
0000100000111101
1111111101001000
0000000011110111
0000010110100101
0000100100110010
0001000000101111
0001000001000111
0000001111100101
0000000100100111
0000111000000110
0000000111010000
1110101111111010
1110110111101000
0000110011000001
0001000110111010
0000111010110010
1111100101001011
0000000110101011
0000001111101001
1111010010000001
1111100000110011
1111100111010110
1111101100001001
0000000100100001
0000000001011101
1111100111101001
0000000110010011
1111110110001000
1111110000010011
0000001110000000
1111110010001000
1111001110100010
1111010100010110
