1111111101011101
1111101001000001
1111110101110001
0000000100001101
0000001100001100
0000101110101111
0000000011001001
0000100110100101
0000011001010110
0000001100110100
1111111010110110
1111101001011001
0000011101001100
0000101001100111
0000001111000001
0000100011010001
0000100010000010
1111110100010000
1111100011101010
1111101101101100
0000110011101010
1111110010001000
0000001010100010
0000001100000010
0000001111001001
1111000011000111
1111000100001100
0000000011001111
0000100101001010
1111110000111100
1111010100110011
1111110011110111
1111110011110000
1110111101110100
1111010010110001
0000011111110011
0000100110010000
1111100110100011
1111010000101010
1111111101111110
1111110101000010
1111011100010111
0000010110111001
0000111001001010
0000100001000010
1111110000110100
1111000010010110
1111010111101010
1111111100110011
1111110010101001
0000001111110110
0000010010101001
1111101011000111
0000010001001000
1111101101010110
0000100001101110
0000000101000011
1111110111100100
0000000011110000
1111111111011010
1111110011010000
0000011101000100
0000010101010101
0001000011100001
