0000000001001111
0000011101001100
0000001100101000
0000001001011110
0000001011100111
0000011111111101
0001001110101101
0000100000101000
1111101110010010
0000011010000000
1111110100111111
1111111101001110
0000110001100010
0000000000110111
1111101100101110
0000011000001000
0000001010111010
1111010111101001
1110111101011000
1111111001110000
0001000001101001
1111110001100010
1111100010111011
1111111100000010
0000010111001011
1111101001000110
1111101011110011
0000000000011111
0000101100000000
0000010101010100
0000000010000101
1111110110010101
0000001010101010
0000000010010000
1111110010001100
1111111010111100
0000100100001100
0001000111010001
0001100110101111
1111111100001010
0000100101100000
0000000110001010
1110011100010110
1111011001111001
1111111110011011
0000010010100010
0000100110111110
1111001110000011
1111111001001101
1111110001101011
1111000110000010
1111110010110101
1111010111000101
1111000010010111
1111111100010010
1111101001010000
0000000010011110
0000001001101011
0000010110000001
1111111111101111
1111100000001011
1111010010110100
1111001110011010
1111001101000001
