1111110111100100
1110110001101100
1111001110111111
1111100010000101
1111100000000100
1111110011111001
1110100011000010
1111011000001000
0000001000001001
1111100010110110
1111101101001000
1111101001110101
1111100110010010
0000010010001001
0000000010000111
1111100110011110
0000011110111101
0000001001110101
0000100110000111
0000100100000111
1111110111101001
0000001100111101
0000011110100110
0000000010111111
1111110101100100
1111111001100001
0000011010000100
0000011110010011
1111101101101111
1111110101010101
1111001100001001
0000101100011001
1111111001000001
0000000000111000
0000001111110110
0000001000100110
1111111001010111
1111011101001000
1110011111100100
0000001010011110
1111011000010100
1111111111101100
0001101101001010
0000011011111010
0000011010110100
0000000100110010
1111110111010101
0000001101100001
1111101000100101
1111101110001101
0000101100000001
1111110011000100
1111111010010000
0000101000100110
1111011111101010
0000001010111111
1111100010011101
1111010001100111
1110111001101011
1111101111000110
0000101100101110
0000011111001100
1111100011010110
0000100010100001
