0000001011010000
0000011010101011
0000110110010011
0000001001110010
0000000100000110
1111110101010110
0001000101000100
0000111001001011
0000011100100010
1111110111010011
0000010110000101
0000011010110110
1111110100100011
1111110111100011
0000001001001101
0000101100100011
1111101011000001
0000010101101011
0000010101010010
1111100000110001
1111000010100010
0000001011101010
0000000110001000
0000100001100101
1111111101001110
0000011111111010
0000101000100011
1111111011011001
1111101110101110
0000011011101010
0001010111101101
1111110011010000
0000001000001111
0000110111001100
0000011001101011
1111101011011110
1111100000100111
0000011001110101
0001011011011000
1111111111010100
0000101000101100
0000100110010001
1111100010110000
1111011101111010
0000000110111100
0000010010001010
0000001100011111
1111111101111110
1111110010101101
0000010100001010
1111111010001101
1111101011010001
1111011111100001
1110111011000111
1110111110110100
1111100011100000
1111111111101110
0000001101001111
0000101101011101
0000010000011011
1111100100111001
1110101111110000
1111000111101111
1110110100000001
