0000001000010010
1111010101100000
1111010000011001
1111110000101111
1111111111001001
1110011110010100
1111001110001011
0000100001111011
1111110101110100
1111010100011111
1111101001011001
1111111110101011
0000001101001001
1111101101111100
1111100000101000
1111111001001010
1111101101110100
1111110110100101
0000001110010100
0000011110001101
1111010011010100
0000101100100110
0000010101101000
0000010110001010
0000011001111101
0000011000001111
0000100001111100
1111000100101001
1111000110100010
0000010111101010
0001101010011110
0000001011010101
1111110011000100
0001000001000111
0000010111111100
1111011110001100
1111010010010000
0000010010110011
0001000100000111
0000001110001000
0000001111100100
0001001001001000
0000010100001010
0000001011100111
0000010100011100
0000000000101010
0000001001110010
0000001001010000
1111111011000110
0000000011111100
1111101100001110
1111111110100110
0000010001101101
1111101111111001
1111011011111100
1111100111111000
1111110000110001
1111000011110101
1111010101100010
1111110100111000
1111101010110010
1111001111010101
1111101001000100
1111010110100000
