0000000101011010
1110111011001010
1111101011011011
0000000010000100
1111101001101110
1111010100010110
1111110111010001
0000100101110011
0000001010000110
1111011111010010
1111111011111101
1111101100111110
1111100100011001
0000000001101011
1111111110111111
0000011011000000
0000001000001111
1111110110001101
0000100110010001
0000011100101101
1111111100100111
0000110111110111
0000111010100110
0000100010011001
0000010010010011
1111101110011110
0000111011111111
0000111000001110
0000001111100100
0000110001101011
0001010110011110
0000000101011110
1111110010111011
1111110011010100
0000110111101101
0000011101011001
0000000100111011
0000010000110111
0001000110010111
1111110101110111
0000011111011001
0000001011100011
0000110110110001
0000000100000101
0000001100001100
0000011101001101
0000011110010100
1111110101000000
1111111101010000
1111011101011100
1111111010001111
1111001001111001
1110111001000111
1111100110011101
1111100011110011
0000011001101000
1111100110010110
1110111101100110
1111010110110101
1111101000000011
1111101110110000
1111111001101110
1111101001010001
1111111000001001
