1111110100000010
1111111011101000
1111111011001101
1111110100100100
1111101001000101
1111000101000101
1111010100000001
0000000000001010
1111101111011000
0000011001110101
1111101110100100
0000001000001010
1111110100111100
1111011001110011
1111101101010001
1111111010010111
1111111101000101
1111111101110000
1111111111000011
0000010010001110
1111101100110011
1111101011110100
0000010110101101
0000100000101110
1111111011100010
0000011100010100
1111111110000111
1110110000110111
1111001011110101
1111101111001001
0000101110011011
0000011100000100
0000000001010111
0001000111010110
0000001110011001
1111010100100101
1111111010011010
1111011110011010
1111110101110100
1111110011100101
0000010100010101
0000011011011011
0000110111101100
0001010101011011
0000010100100110
1110111101011110
1111011101110011
0000110000011010
0000010001010011
0000000111110010
0000010111010101
0000110110011111
0001010010011000
0000010111000100
1111110100000110
0000011010100111
0000100010100100
0000000010101101
1111101011101100
0000001000001010
0000011110010000
0000010111010001
0000110010001110
0001001011111101
