1111111100111001
1111010001100110
1111011110010101
1111101000111111
1111100110100011
1110110001110010
1111100000001100
1111111101101101
1111110000010100
1111010101001100
1111011100010001
1111111100010010
1111011000010010
1111001011100101
1111011100100111
1111100111010100
1111011110001100
1111110101111000
0000010100111111
0000011111000001
1111010111001101
0000010011010011
0000001101010111
1111111111001100
1111111110111110
0000110111110000
0001000011000101
0000001010101001
1111101011100110
0000011110001010
0001000110011010
0000011010110100
1111110111011011
0001001011000010
0000110011111101
1111100001000100
1111001010000110
0000101011001110
0001011100101100
0000000101101001
0000001011000100
0000101010111100
1111111010010100
1111101011101100
1111011101011110
0000100110011111
0001100110010110
0000101101000100
1111110011011000
0000000011011000
1111100101000011
1111100010000111
1111111111100011
1111101000011111
0000001111001111
1111101100100011
1111100111111000
1110111000000110
1111110101010110
1111101111000101
0000011001110001
0000000110101100
1111110111010100
1110110010110110
