1111111000101101
0000011110000101
0000110011000000
0000010011100111
1111110000101100
0000011010000111
1111110101100000
1111001110110010
0000000110111101
0000100111000000
0000000000100001
0000000000011110
0000011000001011
0000010001110111
1111110110000010
1111111011100000
0000010001000000
0000110001111100
1111111100000011
0000100100000001
0001000011110100
0000011011010010
1111110011000100
1111110110101111
0000001100000100
0000001011001111
0000000000111000
0000100000111101
0000111011110001
0000001001011100
1111011010111111
1111110010001100
0000000001011111
1110111000000100
1111001110010001
0000001001001010
1111110000000011
1111011010111010
1110111111000101
1111110111011011
0000001001010111
1111001110010100
1110101000101010
1111011011011100
1111100111001110
1111010001011111
1111001101111101
1111001011010111
0000000000110010
0000000111100011
0000000010010101
1111101101001101
0000100011000011
1111110000001100
1111111010110101
0000101011111100
0000000001111111
0000001010111100
0000011011100100
0000001111000111
0000000111101011
0000001011000000
0000011101101001
0000111010010101
