0000001001111011
1111011000100110
1111100001001100
1111101001000011
1111110001000010
1111100111111111
1111100011011100
0000010011000111
0000010000000100
1111100110110000
1111100101100101
1111110100111110
1111110110011001
1111111011011101
1111101110100011
0000011010100110
0000011001010111
1111111011110010
0000000100101001
0000101101000001
1111101111010101
0000000011101000
0000010101000010
1111110110001000
0000001101000101
1111111110000000
0000010111000000
0000001001010000
1111111110011000
1111111111010100
0000101000011011
0000011100011111
1111110010001001
0000101000100010
0000011001000011
0000011010101110
0000011110001000
0000001001000101
0000000110001111
1111111001101100
0000001111011100
0000011001110001
0001100000001000
0001000000111100
0000100011101010
0000010011001100
1111100001011101
0000010010111111
1111100011100101
1111100001010110
0000010110110001
0000000101101001
1111011010111011
0000001000101011
1111011001111000
0000100101110110
1111101010101100
1111001000101110
1111001111000001
1111110000111101
1111101111001010
1111111000100101
1111111000000010
0000100101011010
