1111110001000101
0000000111010000
1111101110111101
1111111000011110
1111101001010001
1111011011001100
0000000000001110
0000101011111001
1111110110100001
0000000111010011
1111111000011100
1111110011111010
0000000000101010
1111101111001000
0000000000111100
0000011000110001
1111111001010100
1111011110110100
1111110010010011
1111100101001011
1111100101110100
1111101011100101
0000011111000101
0000011110001100
1111111101000000
1111101111001001
1111101000110110
1111000010100100
1111101101110000
0000000001010101
0001010001001000
0000001101000100
0000001100100011
0001000011011111
0000010000010011
0000000000110010
0000001010110100
1111111100000100
0000010101011000
1111111111000100
0000000110110100
0000010110001001
0001110010111100
0010001011110000
0000011011100001
1111011010001010
1111100101011100
0000101101101000
0000001100001011
1111111010101001
0000100010010011
0000111000111000
1111111111000101
1111111000110010
1111101100001011
0000001101010010
1111110111010111
1111110101010011
1111111000101110
0000000101001000
1111111111001010
0000000001000010
0000011110001010
0001001111111001
