0000001110111011
0000100101110000
1111111011111011
0000010001101010
0000010001101100
0000011110110100
0000001100001011
0000100011010001
1111111100000001
0000011101001010
0000000000011110
1111111011110100
0000011111110101
0000010001101110
0000011000011110
0000101010111011
0000001111011101
1111010001101010
1110011010100100
1110110001000010
0001000100010000
1111111011011110
0000000100010011
0000001111101010
1111111011001010
1110010001100001
1110001101000000
1111001100100011
0000001000010101
1111100110000110
1111110001101011
1111101010111001
1111110110001001
1111110110101101
1111100111011111
0000001110100111
0000111110101110
0000011101011100
0000010111110101
1111111001101100
0000011000011001
0000000101010010
0000000101001010
0000010000100010
0000001011000110
0000010011111000
0000001100100011
1111101010111000
0000010111101010
1111111101101100
1111110110010110
0000011101101100
1111101011101110
1111111110101011
0000000111001001
1111011010110111
0000010110110111
0000010010011111
0000001101011011
1111111011001011
1111101011010110
1111101111010000
1111111011100110
1111111100100101
