1111111110011100
1111101100101001
0000000010110011
1111100110101010
1111111011100001
0000000000100000
0000001110011001
1111001111010110
0000010011101001
1111001101111001
1111011111100010
0000001110001110
1111101000000111
1111101100111011
1111110011000011
1111111110000000
0000010000001000
1111111110011100
0001010100001011
0001100111000111
1111010111001000
1111110101001010
1111110000011101
1111100111001110
1111110101111111
0001001110010010
0010001000011100
0001100100110011
0000001101100010
0000011111110010
0000101111111010
0000001110000111
1111110010101111
1111101101011011
0000111011010110
0000010000101000
1111101111100000
0000000100011001
0000010011011101
1111110011010111
0000010010011000
1111010110010010
1111100110101000
1111101101000111
0000010101001110
0000110001101111
0000001111100000
0000010011000100
1111101100101101
1111101000011000
1111100110001000
1111100011010111
1111001100011000
1111011001110011
1111110010001101
0000100100110101
1111110101000111
1111011000110001
1111101100100000
1111101000101110
1111111000001101
1111110000001101
1111101010001111
1111111100110000
