1111111011100000
1111101010011010
1111101011110101
1111100101011010
1111100100110010
0000010000101101
1111111111100101
0000001100110001
0000000101100000
1111101110111100
1111100010111010
1111101000011101
1111001100010001
1111100101001101
1111111100111100
1111110011100011
1111111010001111
1111111100110101
0000101100110111
0000101000010111
1111010010110101
1110101100101000
1111000011101100
0000010010001100
0000000010101111
0000110011000001
0000111000000001
0000110010111111
0000010111000101
1111110000100001
1111011010001010
0000100101110010
0000000001000000
0000011000001000
0000010001001011
0000001011011001
0000100011101111
0000001101110101
1111110111110101
0000000111010001
0000011111010100
1111011001000111
0000001010101100
0000011001100000
0000111100010010
0000010011110110
0000001000001100
0000011010110110
0000010001110101
1111111100110001
1111110001001011
1111111110110010
1111110001101001
1111110001011100
1111110110010001
0000010010100111
1111100010000110
1111110101011000
1111101000111011
1111110010001000
0000000001000101
0000001101101010
1111100010110101
0000001001100010
