1111110010000110
1111001000000001
1111110001010010
1111110010100111
0000000000111101
0000001111011110
1111100010000000
0000010101111000
0000010010001011
1111111100100010
1111110010010001
0000000001000001
0000010001110100
0000010001101010
0000000110100110
0000011000001001
0000010101011010
1111110101011000
1111011010100100
0000010000111001
0001000100001101
0000001100111111
0000011111110101
0000010010111000
0000010011101001
1111010010111001
1111101010111011
0000010011011101
0000100100111000
0000001010101101
0000000011011000
0000000111000101
0000000000010101
1111110010101111
1111100100111111
0000101010101000
0000111000100010
1111111010010000
1111011110011000
1111110011000100
0000101110111100
0001000101001111
0000010000110010
0000001010001000
0000101010111100
0000001010000010
1111001010001011
1111001000111111
0000001001000010
0000011010011110
1111110000010111
1111011001111001
0000001001011011
0000000001111101
1111101000110100
0000011000111100
1111110100110000
1111011010011101
1111011110010000
1111111110011001
1111111000111001
1111111011011001
1111101011010101
0000100010000110
