0000000111101100
0000000010100111
1111111110001111
0000011111011111
0000010001110011
1111000001100100
1110100001101110
1111110001010000
1111101000010010
1111101110100111
0000100000000010
0000001001101110
0000010010100111
0000010100001101
1111010110111110
1111110000111100
1111110100111110
1111111011010000
1111110101000101
1111100000101111
0000001100011001
0000101011000001
0000001010110001
1111100101011000
1111111101101000
1111110111011101
1111011010011010
1111010100011011
1111010101111001
1111101110001110
0000001011011110
1111110000101001
1111111101100000
1111110011011111
1111101010011011
1111001111011010
1111000100101100
1111110010001101
0000001100101010
0000000101110011
1111110010000001
1111110111011110
0000000111011100
1110111000100110
1110110000111001
0000001011001011
0000110011101000
0000000100010100
1111110001110001
1111111101110110
0000100110011100
0000001110111001
0000000100000101
0000001011101101
0000100011001001
1111110100110101
0000011100111010
1111101000111000
0000010111110110
0000011100110000
0000001010100101
0000001010100101
0000000011100110
1111010001001001
