1111111010011001
0000001101110100
1111111110111010
0000010000110111
1111101111111101
1111101001011100
1111110101100101
1111100101010100
1111101011111110
0000000101000100
1111100011011000
1111110010111010
0000011010100100
0000010101111101
1111111011010010
1111100110100011
1111101100111101
1111110110010110
1111010000010000
1111111110011010
0001000101010010
0000101000000001
0000011000000110
1111110011100000
0000001000001100
1111100011001011
1111101011110001
1111011001100000
1111111110001010
0000010010010000
0000010100110110
1111111001110100
0000001001010101
1111101001000101
1111010101000010
1111011000001100
1111011011100100
1111111110010000
0000100000100110
0000000110111110
1111110001011100
0000000110100010
1110110111100100
1111011010111100
1111100100101101
1111011111001000
0000001111010001
1111110010111100
0000000111001110
0000001010010111
1111100001010000
0000000101010001
0001000011100110
0000011000110110
0000110100000101
0001001010111000
0000010001001011
0000011101000000
0000001111010000
1111110010111100
0000100001101010
0000110110000100
0000110110100100
0001001101010011
