1111111010110101
0000001010111000
1111110111111111
0000010010110010
0000000000111000
0000001010111111
0000001010110110
1111001010110000
1111110000001011
0000000100000011
0000011010010000
0000001000101110
0000010010011111
0000010101010001
0000001010010101
1111100111111010
0000000011011101
0000010001100101
1111110110111011
1111100111001001
0000010100101111
0000100000111100
0000000001011101
1111011100001010
1111111110000011
0000011000111010
0000010010100100
0000010101000000
0000000101000100
1111111110011100
0000010000010111
1111010100000100
0000001000110011
1111100011001111
1111111100101111
1111011111101101
1111010011100101
1111111011100111
0000011000001010
1111110101000011
1111101010011001
0000000010000110
1110111111111000
1110001100111100
1111000111000111
0000010011110011
0000011111001110
1111010000010000
1111110110011010
0000000101100000
1111111110011001
1111010110010010
1111111101101001
1111111101011111
0000010001101101
1111100010110100
0000001001000111
1111111011110111
0000010100011011
0000001100101001
0000000101001100
1111100100010001
1111101001001111
1110101001000000
