0000000001110000
1111010011011001
1111001110011100
1111101101101011
1111101100110011
1111100111110010
1111000001011011
0000010110110111
1111101110110000
1111111011011110
1111011101100001
1111111001100000
0000000111001001
1111111101000011
1111011011101000
0000010110001111
0000000111000000
1111110010110100
1111101000110101
0000011011100111
0000011101101011
0000010010111000
0000011001100010
0000001000110101
0000011110111111
1111111001000110
1111011010110011
1111100000010001
1111110101101100
0000000000110110
0000011100100111
0000100100001101
1111110111010011
0000101010010100
1111111111100011
0000000001110000
0000101101000111
0000010111000101
0000001010010100
0000000010110101
0000010101010101
0001000100000010
0001110001001001
0001110010001000
0000010110100000
0000000000101111
0000001000110011
0000100111110100
0000000101010101
0000000001110001
0000010001010111
0000100100100100
0000001110001110
0000011110001000
0000001011101111
0000010111010000
1111110111010100
1111101011001000
1111010011111101
1111100000000001
0000010001010100
0000100001010101
0000100101111010
0001000111010011
