1111111010110011
0001010110001000
0000011001100011
0000001010110110
0000011100011001
1111010010111001
1111100000110011
1111001110000001
1111111001010110
0000110001100110
0000001001010101
0000000110000110
0000011001001110
1111110110011010
1111001101011001
1111101001010111
1111100111101101
0000001011001110
1111110110100111
0000001011110010
0000000101001101
0000000110001101
1111011110010000
0000000100101000
0000001100010001
0000101010011001
0000000010100011
1111001101011000
1111011011010000
1111111100101101
0000100111011110
0000011001001100
0000001110000100
0000111001011011
1111101110000011
1111000111100010
1111100100101011
1111101101110101
0000011000100000
0000000100011101
0000100101101001
0000110100011010
1111100110011011
1111101010110010
0000001101010100
0000010101011010
1111101111100101
1111100101000011
0000011010010110
0000101110000001
1111111010100110
0000000110100111
0001000011101101
1111111101100010
1111011011110011
1111100111100011
0000011011010010
0000111100110010
0000110101011001
1111111110011011
0000001110101011
1111010011010000
1111100000100001
1111011000010111
