0000000110111000
0001000100001000
0000010011111100
0000000111111011
0000000101101010
0001000010010111
0000100100010101
0000101100100000
0000010111000000
0000001101011011
0000001000011001
0000001011010000
0000001100011010
0000010001100010
0000001111111110
0000010100111001
1111110011011111
1111100111111011
1111110100101010
1111011010111110
1111100101011101
1110110010000110
1111011010000100
0000000100110001
1111011111110001
1111001110101101
1111010101100110
1111110100010100
1111101111100001
1111010001011100
1111000001110001
1111100110001101
1111111001101101
1111110010100000
0000010010011110
0000001101010001
0000100000000110
1111110000101110
1111011011100000
0000001101010001
1111100011111111
1111100110001110
0001010010110001
0000111110001111
0000000000000101
0000000011011111
1111110110101010
0000100111010001
0000000111100001
1111011000100000
0000011111001010
0000111000010010
1111110101110111
0000101011100000
1111111101110100
1111100110111101
0000100001010111
0001100010011000
0000100010010101
0000010011110110
1111110011000001
0000000101010100
0000000110110111
0000011111011011
