0000001000001011
0000000100011110
1111100010000110
0000010010110011
1111110110001100
1111100010101010
1111001110011110
0000101011111001
1111101110001101
0000100111101000
1111110100011110
1110010101110001
0000100011101000
1111001110001010
0000110100110011
0000011011001110
0000100001111110
1111001101110101
1111101100100110
1111111001010111
0000011000100111
0000000001001000
1111001111000011
0001001000010000
0001000111000001
1110101101100000
0000110000110001
1111100101001110
0000010000001011
0001100101100011
0000000011000000
1111111011110011
1111110001111110
1111100111111011
1111111100001010
0000110100110110
1111011111101000
1111111001000001
1111101011111010
0000000010110000
0001010101001110
0000100111010010
0000110000101111
1111110010110111
0000001010011111
