0000000011111011
0000011111100100
0000001110111001
0000100101010001
0000001001010100
0000001111011010
0000101011011111
1111011011001011
0000001000001011
0000110010000111
1111101101110100
1111101001010110
1111110001000101
1111111011100101
1111011101000100
1111110100101010
0001010110110010
1110111000000000
0000001010101010
0000111111011010
1111010000101100
1111110011000101
1111001000010101
1111001000110010
1111001000111100
1110101101001100
0000010111011001
0000000111011001
1111100110101001
1111101000110001
1111111010011100
1111000101111111
1111110111101111
0000100001011001
0000001110111001
1111011110111101
0000100001101101
0000011000010000
0000101001110100
1111011100000110
0000111111011110
0000010011010000
0000001110100100
0000100011000100
1111100100010001
