0000000111011111
0000110100000111
0000101111110010
0000000110011101
1111100010011101
1111101111000010
1111010000011000
1111110010001110
0000010100101101
1111110110001111
0000000000100100
1111100010000100
1111111001100110
0000111101000000
0001000010100101
1110110010100100
1111100000001110
1111100101101000
1111101110000111
0000100100101010
0000011110100111
1111111101001011
0000101011001111
0001010001001101
0000011011001110
1111101000100101
1111101000011000
0000000011111100
0000001000101010
0000010101111111
0000110101011001
0000000111011001
1110111101100010
1111101011101101
0000000100001110
0000011111111000
1111100111111001
1110111010110111
1110100001101001
0000100100110110
0000010100001000
0000100101100111
1111011101100011
1111001110100100
0000000111001010
