1111110101000011
0000101001011010
0000000000011011
0000011100100101
1111001101001010
0000000110111110
0000101101011010
0000111111111001
1111110000011110
0000011101111101
0000001000100101
0000010111100111
0000100001111110
1111010110110011
0000110000011111
0000011100101101
1111011000100100
1111110110011011
1111101100000100
0000000011011101
0000100101110111
0000011001110011
1111110000111100
0000001000100110
0000010011111010
0000100000111111
0000010111111000
1111010110011010
0000011111101110
1111100110001000
0000111000110000
1111010101100000
0000010001110111
1111110011011101
1111100000011101
1111010111101010
1111010110011001
1111100000100110
0000000100000101
0000010110110010
1111100000100101
0000010010100010
0000100010010110
1111000110001011
0000000001111100
