1111111111010011
0000110010010111
0000100101000110
0000010010100110
1111111000101011
0000100001000110
0000110000101010
1111110011010001
1111111110000110
1111111011100110
0000001001010011
0001001010011100
1111010110000001
0000010000011011
1111111111110001
1111100110001111
1111110010101011
1111110011110101
0000101011011101
0000000001011011
1111101100001111
0000010011001011
0000111101101010
1111101000101110
1111110000010001
0001010100101100
1111111000011110
1111110101111000
1111101011101111
1110100100000000
0000101100001100
1111100000000000
0000101101100110
0000100010000101
1111101111011011
1111011000000001
1111100000111111
1111100011011100
1111111011011000
1111011111110010
1110111011011100
0000000001001001
1111111001000000
0000001111111111
1111111101010001
