1111110110110011
0000011000111110
0000000101001110
0000010011010110
1111101000101101
1111110110000100
1111000001100111
1111101110100000
0000101100000100
1111111000010111
0000000100101001
1110100011110111
1111110011011111
0000101000011111
0000100111001011
1110100010100001
0000011001000000
1111010111101011
1111101100101110
0000011000111000
0000010000100000
1111111000100101
0000000100001100
0001000011111111
0000000101110100
1110111110100101
1111101111011100
0000011100010111
0000001000001000
0001000000001101
0000010101011101
1111110010110001
1110011100001110
0000001111010010
1111111110100001
0000110110011110
0000010101100000
1110110100010100
1110110000101000
0000001100000111
0000101011001010
0000011001001010
1111110101001111
1111101110010010
0000011001001101
