1111111111001000
0001010000110010
1111110000001100
0001000110011001
0000010010011111
0001000010010011
1111011110101001
0000001010101000
0000111000100110
0000000110100110
0000101100111100
1111110001111111
1111110100101100
1111001010000011
0000001101100001
1110101100000111
1111111101000011
0000010001100111
0000101011110110
1111001011100000
0000000011000100
0000100101101111
0001000100111100
0000000001101101
1111101000101111
0000110000011101
1111111111111101
1111101010000011
1110100000010100
1111100110000100
0000010110001101
1111001010001110
1111101011111001
1111111110001110
1110110001001111
0000001000101000
1111101010100010
1111010111000100
1111011100000011
0000101110000111
0000010000110000
0000101100011000
1111111100100100
1111110110001011
1111010000010111
