1111010100101101
0000011010100111
0001010001011000
1111101110010011
0000110110100101
1111100111011000
0001001100100011
0000011010011000
0000000011001101
1111010110001110
1111101000100011
0001000110010000
0000001100000001
0001001001110101
1111011110111010
1111000101111110
1111111101110001
1111101101111010
1111111000111011
0000011011010011
1111110100011001
1111110101111100
1111100110111011
0000010001001111
1111111110001100
0000000111101111
1111101100100110
0000101010100100
1111010001010100
1111001001010001
0000100111010011
0000010011110000
1111100000010111
0000001011010011
0001001000011000
1111010011001110
0001001100111110
0000101111010001
0000001000111011
1111100011101110
0000010000011101
0000100110100110
1111100010001111
0000001001011010
1111101010001000
