1111011001111111
0001010111001111
0000101001011100
0000100100110011
1111111110111011
1111110010100100
0000101000000101
0000010000011101
1111110010100111
0001000101010100
1111100000110010
0000100101000000
1111100110100110
1111111011101111
0000001111010101
1111101111100010
0000010110101000
1110111000111001
0000011110100101
0000000111111001
1111110000010010
0000001100111101
0000000010010111
1111100000011001
0000000110010101
1111110101001111
0000101100110000
1111110100000011
1111101110110111
1111101111001110
0000011111100110
1111000001001111
0000011100010110
0000100010000100
0000110000111011
1111000000111011
1111101010100010
1111101100010110
0000101101110000
1111001011101110
0000001001001111
0000101111001100
0000101000000010
1111111001110111
0000000000010101
