0000000111001111
1110111100111100
0000010000001100
1111000001000010
0000000110110011
1111111001100111
0000000101110011
1111111001100110
1111110000111010
1111010000010110
0000010011111000
0001010111111011
1111110000110101
0001000110110011
1111111111000101
0000100011110110
1111000010101010
0000011010101111
0000001000011111
1111111000010001
0000000001000110
1111110011010101
0000111101010110
0000011111101100
0000010100001000
0001001010110101
1111010010111111
1111110111100110
0000111001010001
1111101101000111
0000000000001111
0000111011010100
0000001010101010
1111100010000011
0000010101001010
0000001110101011
1111101111100110
1111101100111000
1111100011010100
0000000011000010
1110011111010010
1111101000011111
1111101101101010
1111110111111011
0001000000010000
