1110100100100001
0000101110100001
1111000010101101
1111010110101101
0000100100010100
1110100010100111
0000101001000101
0000000101000001
1111100011001110
1111000000111000
1111100000111110
0000110001001101
1111110000010011
0000100010111011
0000001010110000
0000000111110100
0000001011010111
0000100110100000
1111100000101011
1110110100110111
1110110001010101
0000010111110001
1111110001000101
0000011000000111
1110111001111001
0000001010000011
1111011111110100
0000010101100101
1110110111101011
0000000100010101
0000100101100011
0000000011010010
1101011111000001
0000101101001101
0001010101111110
1110010100111100
1111100100011000
