0000101110110110
1110000110110000
0000101110111010
0000011100011001
1110100011000100
0000001100111001
1111001001001011
1111110000011011
0000100110010001
1111111100100001
1110100000010101
1111111100110101
0000110001110001
1110110011111101
1111100101110111
1110110111111010
0000111010001000
1110111010011010
1111110001001011
0000001111011111
0000001110101100
0000010000000010
0000001101001000
1111100110000101
0000111111010110
1101110100110100
1110101011111101
1110001111100111
0000001100010101
1110100110010110
1110110100100101
1110111000110001
0000011111001001
1111100000110111
0000011011101001
0001001101000000
0000100011111001
