0000010000011011
0000011110111011
1111010110011101
0000101011101111
1111111001110101
0000100001011010
0000101110111011
1111000000101111
1110100100110000
1110101101011111
0000001010111001
1110011111011101
1110100101110100
0000100010001101
1111000011011010
1111010111000111
0000011100110000
0000010010110100
1111001011111001
1111110010101101
1111001101001110
1110000010011000
1110101101000110
0000111101000011
0000011101011110
0000101111111001
0000001001111111
0000011001110111
0000011101101111
1111001100010110
1110010011001011
0000011100001101
1111101110111010
1111001000101111
1110110100001000
1111110111010110
0000001100110011
