1110111010001101
0000011110010011
0000100001101011
1111011001000010
1111111001010001
0000100000001111
0000010100000100
0000001000101110
0000100010011111
0000001110011011
1110100110100011
0000101101001010
1111000001000101
1110000011100010
1110011011100111
0000110100001110
1111100000000101
1110111010100001
1111000010110100
0000110101111110
0001000101110110
1111110001100010
1101110101011011
0000001101100101
1111100001101101
0000110100010001
0000101110101111
0000111011100010
1111101001010011
0000001110010001
0000001011011101
1111100111011001
0000010111000110
1110010001110101
1111000011000010
1110111010100100
1110000100100001
